#version: 0.2 - Trained by `huggingface/tokenizers`
Ġ t
Ġ a
i n
o n
h e
r e
t i
e r
Ġ s
e n
Ġt he
Ġ o
o r
Ġ p
Ġ c
a l
in g
e s
a t
i s
ti on
e d
r o
Ġo f
Ġ w
Ġa n
Ġ f
Ġ in
Ġ d
a n
a r
Ġ m
i t
l e
Ġ b
i c
Ġt o
Ġan d
en t
a s
Ġ re
a tion
Ġ e
Ġt h
e t
e l
o m
Ġ n
Ġp ro
u s
a c
e c
i m
u r
Ġ h
s t
o d
l y
u l
č Ċ
c e
v e
Ġf or
it h
Ġ Ġ
Ġ is
Ġ l
Ġ g
u t
o w
Ġc on
u n
r a
Ġ on
Ġth at
Ġ T
Ġe x
o l
b le
v er
Ġc om
Ġs t
Ġa l
i d
re s
i l
p er
e m
c h
o s
ti c
i g
Ġw e
at e
p p
Ġb e
Ġa s
Ġw ith
Ġ W
q u
i f
o t
Ġ le
Ġ I
Ġ (
Ġm od
Ġ us
Ġ čĊ
a m
t er
g e
f or
t s
Ġcom p
it y
Ġa pp
ĠW e
m ent
Ġs u
or k
Ġmod el
ar n
r i
Ġ v
i r
Ġa re
Ġw h
Ġth is
ĠT he
i z
Ġle arn
es s
a b
a in
for m
Ġd e
Ġ A
Ġb y
s e
he r
ti ve
p l
Ġ im
i on
Ġ it
Ġn e
u c
u m
o g
ation s
ac h
ĠI n
re n
re d
Ġin t
Ġd at
Ġs h
w ork
m s
Ġc an
Ġ un
p os
tion s
al ly
a y
Ġa c
ic h
Ġ en
v el
Ġs e
g or
Ġ M
Ġm et
o re
ro m
is t
res ent
u re
Ġlearn ing
Ġwh ich
Ġre s
Ġapp ro
Ġ S
Ġf rom
Ġs y
gor ith
Ġpro ble
ec t
Ġal gorith
a d
Ġp er
f f
in e
Ġpro pos
Ġo r
as ed
Ġc l
a ble
h od
Ġmet hod
Ġ r
Ġp a
ti m
Ġs p
en er
Ġ k
f e
at ed
Ġa d
ar i
o c
d i
an ce
an t
ra in
o us
Ġ C
an d
st em
Ġim p
Ġg ener
en ce
ig h
fe ren
Ġcon t
o p
et work
Ġdat a
Ġsh ow
Ġa t
d er
Ġp ar
Ġsy stem
ĠĠ ĠĠ
Ġc h
ĠĠĠĠ Ġ
Ġpa per
a g
Ġe v
er s
as s
ic al
i es
Ġ D
st r
Ġo b
Ġ qu
Ġn etwork
e p
ĠT h
n ow
ig n
a p
al l
a ge
ra m
ent s
Ġo ur
if ic
Ġw he
Ġ B
a k
Ġa r
â Ģ
Ġh a
Ġa g
d ing
ab il
i e
Ġres ul
el l
Ġ O
t ing
as k
Ġre p
Ġst r
Ġ F
Ġ P
id e
ar d
Ġc o
t en
ri b
Ġproble m
s i
Ġe ff
al u
Ġs c
Ġn ot
Ġs et
c ess
Ġ he
Ġper form
Ġo p
Ġd es
i al
t her
Ġt ask
Ġ R
ĠTh is
Ġha ve
Ġ H
p le
Ġs ol
Ġt r
Ġk now
Ġalgorith m
Ġn o
ur al
Ġd if
Ġd is
Ġre c
Ġappro ach
Ġp l
ar ch
Ġmodel s
es t
ec h
Ġal l
uc t
Ġs im
or t
Ġcl ass
Ġsu ch
Ġin c
u tion
Ġ E
an s
en ti
Ġin ter
ac t
Ġ ro
o un
Ġb et
u g
Ġrep resent
l ed
Ġd ec
Ġre l
Ġh as
Ġp resent
Ġf e
u d
i v
Ġv ari
Ġpro v
p h
Ġcomp ut
o ur
Ġus ing
Ġ L
Ġcon s
Ġex pl
Ġm an
l ic
Ġresul ts
u al
Ġb ased
c es
ti es
n i
Ġne w
is tic
is ion
Ġa b
iz ation
e x
t ain
a tive
s ion
Ġe m
ul ti
Ġex per
form ation
v i
Ġop tim
Ġp re
Ġcomp le
en d
c tion
u res
u p
Ġthe se
an g
Ġt rain
s o
Ġfor m
us t
w o
Ġ N
Ġdif feren
ac k
Ġw ork
ug h
om e
v es
led ge
Ġm o
d uc
ic i
Ġo ver
Ġt im
ar y
Ġo ut
o ut
Ġf un
Ġm ulti
Ġac c
a ti
abil ity
Ġm e
Ġt wo
il l
Ġ y
Ġus e
Ġin formation
Ġthe ir
Ġpropos e
or y
at es
Ġ G
Ġal so
Ġmethod s
Ġm ore
Ġg ra
on g
w e
he s
Ġalgorith ms
Ġdis c
Ġknow ledge
Ġpropos ed
Ġd ist
Ġbe en
c t
as e
al y
Ġf ram
ol og
ul ar
Ġperform ance
at ing
Ġus ed
Ġun der
ac e
Ġit s
ment s
red ic
Ġas s
Ġh um
Ġfram e
Ġst ate
Ġt ech
o f
or s
Ġh ow
ol ic
re e
Ġpro cess
Ġgener al
d s
Ġp redic
Ġtim e
Ġd em
v ing
Ġframe work
Ġdifferen t
Ġan aly
di tion
Ġproble ms
t h
on str
we en
Ġbet ween
tic al
ot h
f ic
Ġd et
b ased
Ġre al
Ġsystem s
i re
ation al
Ġw as
Ġon e
Ġn um
Ġimp ro
' s
igh t
Ġo ther
om ain
Ġev alu
Ġp r
b er
Ġsu b
Ġstr uct
a us
Ġa ut
y p
u e
el y
Ġapp lic
Ġpro b
a re
vel op
ex t
ce p
Ġb ut
Ġdem onstr
ul d
i le
as et
ĠO ur
e ver
x im
am e
Ġcomple x
Ġ ver
Ġp os
Ġf in
Ġde velop
Ġdat aset
iz e
ir st
Ġd omain
en c
t e
Ġw ell
Ġint o
Ġro b
Ġhum an
Ġnetwork s
Ġp o
Ġpro g
a il
ar k
Ġexper im
Ġfe at
i ed
Ġb oth
l es
t y
Ġex p
Ġwhe n
t he
Ġwhe re
Ġl ar
Ġcom m
Ġne ural
Ġ âĢ
f ul
Ġg o
Ġth an
Ġl og
p ut
ver s
ĠâĢ ľ
i p
Ġdec ision
Ġeff ici
Ġgra ph
) .
Ġh igh
Ġob j
Ġint ro
er v
d u
Ġtask s
ar t
âĢ Ŀ
res s
ni qu
Ġm ak
ang u
as on
p ec
Ġtech niqu
Ġp olic
Ġs ome
an n
as t
Ġtr ans
ir on
feren ce
w ard
Ġs ign
iz ed
Ġs em
Ġen v
Ġdes c
Ġd o
st rain
Ġ up
) ,
du ce
Ġre qu
l d
i k
Ġc or
Ġw or
Ġre ason
Ġenv iron
Ġe ach
Ġde f
Ġtrain ing
ter n
an tic
Ġon ly
Ġnum ber
Ġl angu
Ġdist rib
Ġeff ec
ren t
Ġsp ec
Ġde ep
ific ation
Ġf irst
h a
Ġcom b
v en
Ġex ten
Ġre g
Ġst ud
Ġlar ge
oun d
Ġint e
ent ly
ag es
Ġse arch
ro l
Ġt ra
Ġn on
Ġc ap
Ġthe y
er tain
Ġdes ign
Ġcon strain
all en
Ġex ist
ch ie
am pl
Ġin d
Ġm in
Ġno vel
ach ine
Ġman y
f er
Ġa chie
Ġa m
t r
Ġfun ction
ĠH ow
ac hes
Ġg iv
a tic
is e
am et
y n
Ġsem antic
Ġ es
for ce
Ġag ent
al ity
vel y
ti l
Ġch allen
Ġthe re
Ġall ow
Ġacc ur
s is
Ġ her
Ġag ents
Ġm at
Ġappro aches
p or
Ġre se
i tion
force ment
Ġpar tic
Ġv alu
in forcement
Ġprov ide
enti al
enc y
ĠHow ever
Ġ 2
Ġm a
ĠT o
Ġs o
Ġ $
Ġob s
i ve
Ġp at
Ġmo st
Ġcomb in
ic s
Ġbe ha
o u
en s
n ess
os e
Ġlangu age
Ġprov id
it e
Ġcont rol
Ġstud y
Ġor der
Ġdemonstr ate
Ġh is
Ġsp ace
ro ugh
u tions
Ġn at
Ġimp ort
Ġan y
Ġ U
Ġab out
Ġt yp
ell ig
yn am
Ġthe m
Ġbeha vi
Ġimpro ve
er m
ac y
as es
o uld
il ity
olog y
ur rent
Ġrepresent ation
v ed
Ġm achine
Ġpl ann
Ġanaly sis
Ġobj ec
l u
t ed
ati s
Ġc ol
le ment
i ties
Ġl oc
Ġsim ul
Ġgiv en
i er
Ġthe n
Ġ j
Ġaut om
id er
Ġsign ific
Ġpro per
g et
Ġb el
s u
dition al
Ġm ay
ate g
Ġin st
Ġb en
in t
v ol
ĠI t
N N
i b
Ġ id
Ġ 1
Ġpar amet
Ġpos si
Ġtechniqu es
ac tion
Ġsignific ant
Ġfeat ures
ent al
Ġcon cep
Ġd ynam
Ġpolic y
Ġstr ateg
- -
Ġse ver
Ġse qu
Ġexist ing
Ġre inforcement
Ġat t
Ġw ay
o ver
p on
Ġrese arch
ab les
Ġin ference
Ġstruct ure
ec tion
Ġsever al
Ġreason ing
ur ther
ch it
Ġprob abil
Ġlog ic
Ġw ill
ĠE x
Ġcons ider
Ġad d
Ġun c
Ġinc re
Ġdesc rib
Ġg ro
Ġobs erv
Ġes tim
Ġapplic ations
ie w
c tions
Ġpartic ular
Ġ "
Ġappro xim
l ine
Ġqu es
Ġa v
el f
Ġth rough
chit ect
Ġme as
Ġid enti
Ġo per
is ed
Ġprog ram
si ve
Ġwh ile
o o
og ni
vi ous
Ġbel ie
s w
i an
Ġimp lement
Ġar chitect
Ġenviron ment
a red
ro s
Ġc all
l ow
Ġb as
Ġh ad
ik e
r ic
an ces
g es
Ġh and
Ġclass ification
Ġint ellig
o ugh
Ġbet ter
he m
Ġd ire
Ġs m
Ġd i
Ġexperim ents
ic ally
i el
at or
Ġin put
Ġoptim ization
ul es
Ġdataset s
Ġintro duce
al s
o b
c ed
p re
Ġver y
Ġplann ing
f y
Ġimport ant
Ġthe ory
an ti
it s
ow er
Ġp h
Ġs a
Ġse le
i a
i x
ur ing
Ġde p
i red
u il
un d
ĠP ro
Ġne ed
Ġcont ext
ay es
Ġwe re
u b
k ing
Ġt ak
Ġy ou
in es
Ġad v
Ġrel ations
t o
Ġsu pp
u ch
Ġ K
am ple
Ġp ri
ampl es
he d
Ġoptim al
j ect
Ġch ar
Ġob tain
st and
b ed
Ġc aus
. ,
ĠA I
Ġdisc us
Ġt est
Ġb ec
Ġmulti ple
Ġv is
il ar
Ġl im
fic ial
it er
ĠB ayes
m ark
Ġsu c
ing le
on d
Ġpre vious
Ġeffici ent
Ġadd ress
Ġaccur acy
ĠA n
an ge
Ġen c
Ġe qu
ac ter
Ġcomplex ity
Ġrob ot
ab el
per v
Ġad ap
ti v
m ing
Ġform ul
Ġm ain
Ġan sw
Ġwith out
e ar
Ġsy n
Ġb uil
Ġdef in
ic e
Ġg u
on e
Ġunc ertain
re at
he n
g ing
ti g
Ġle vel
Ġchar acter
an is
oc us
Ġcomput ational
per form
Ġus er
Ġ if
Ġcon f
Ġof ten
Ġ V
p ar
arn ing
Ġpr ac
on s
ĠF or
en ces
Ġsim ple
Ġpossi ble
e f
Ġbelie f
Ġf act
Ġc ase
Ġf ocus
ti ficial
Ġsol ution
Ġsuc cess
Ġset ting
w or
Ġsim ilar
en sion
Ġqu er
Ġlim it
Ġt er
Ġim age
Ġnat ural
Ġdistrib ution
Ġh im
Ġsc en
Ġm ech
Ġcon str
Ġsc al
g r
ros s
Ġloc al
Ġcon c
u di
iz ing
Ġprobabil istic
o y
Ġthe ore
Ġmin im
Ġproper ties
Ġpredic tion
Ġst and
Ġform al
Ġfun ctions
Ġunder stand
e y
re st
ĠBayes ian
f ore
ĠO n
Ġcomm un
im ension
ep end
Ġout perform
ti vely
Ġem bed
Ġth ree
c om
Ġprob ability
and om
Ġintro duc
l ing
p ir
Ġex tr
is h
Ġg ame
Ġdiscus s
Ġconstrain ts
Ġre ward
Ġvari ous
Ġr ules
Ġevalu ation
Ġco st
ti al
Ġc urrent
Ġpl ay
Ġexpl o
us ter
w are
ect ed
Ġinter pre
ri p
Ġs ingle
Ġspec ific
Ġb i
Ġ Q
on om
Ġev en
Ġm em
Ġav ail
Ġt ext
Ġ u
et y
. âĢĿ
Ġdomain s
Ġin s
c i
Ġter ms
Ġapp l
ves tig
ch mark
perv ised
Ġcall ed
Ġmech anis
u le
Ġ ra
Ġbehavi or
Ġa ble
Ġs he
Ġb est
ul t
Ġin vestig
ĠA s
em por
er n
Ġallow s
Ġinte rest
Ġcont in
Ġrepresent ations
Ġu til
Ġl at
0 0
Ġvalu e
Ġfin d
Ġvari ables
Ġin f
Ġset s
Ġben chmark
r y
Ġpat tern
Ġs ame
Ġansw er
Ġsp e
z z
Ġcomm on
n ot
lu ding
Ġac tion
Ġle ad
Ġcomp ar
Ġrec ent
Ġcor re
Ġac tions
u zz
Ġclass if
ly ing
Ġwh at
ur istic
Ġcons ist
Ġmak e
Ġdire ct
Ġstand ard
o v
oc i
Ġco uld
Ġr andom
Ġat ten
Ġvis ual
ing s
ĠC on
Ġass um
ar get
Ġprovid es
Ġarchitect ure
res sion
Ġcl uster
Ġfeat ure
D P
Ġre duc
Ġar g
Ġper s
Ġrob ust
od e
ĠA l
S P
Ġc r
Ġs ec
Ġsol utions
Ġinte gr
erm in
Ġp ot
Ġto ol
Ġavail able
Ġen ti
Ġ er
Ġc re
Ġl ine
ogni tion
o od
i ly
Ġl abel
Ġto p
ĠM r
oun t
Ġknow n
wor ld
Ġl ong
Ġinc luding
our ce
Ġconcep t
ra ms
am es
in d
u ous
Ġrequ ire
Ġdif fic
i ble
Ġs ur
Ġintellig ence
Ġapplic ation
Ġma xim
y s
Ġ 3
Ġt arget
or m
pl oy
Ġautom atic
Ġembed ding
Ġsm all
Ġwith in
R L
Ġevalu ate
h ip
ad e
u ally
Ġcomp ared
u red
is ing
ur n
Ġon t
Ġre m
Ġwor ld
Ġdep end
Ġcol le
rib ut
Ġst udi
Ġappl ied
s ing
ĠThe se
empor al
id ence
Ġtrain ed
e ep
Ġp op
Ġer r
Ġgo al
Ġdet ection
Ġinterpre t
Ġcon ver
Ġim ages
Ġinter ac
Ġcomput ation
Ġen d
Ġd er
a v
Ġpri or
Ġlearn ed
Ġques tion
Ġuncertain ty
Ġparamet ers
iel d
Ġm uch
m m
Ġsemantic s
Ġin di
ĠF in
Ġf urther
Ġidenti fy
a x
Ġw ould
Ġgo od
at her
k s
le vel
ic it
ĠEx per
Ġa im
Ġresul t
Ġem pir
o int
Ġst ep
Ġqu anti
Ġmak ing
Ġsol ve
id ual
Ġf ac
Ġachie ve
ol ution
ĠH e
Ġsignificant ly
in al
Ġsh ould
Ġhe uristic
ĠL e
l ud
Ġsol ving
om m
Ġre le
if ied
Ġeffec tive
n er
Ġqu ality
tim e
uzz y
Ġs er
Ġar tificial
Ġmeas ure
ier arch
Ġshow n
Ġk ey
Ġwh o
p ect
Ġatten tion
Ġf ul
Ġenviron ments
Ġp ower
Ġs atis
Ġbe ing
Ġtechniqu e
o st
im in
Ġline ar
Ġg ames
ag n
l p
Ġch o
as tic
Ġmodel ing
Ġobjec ts
Ġprogram ming
Ġe ver
em ent
Ġus ers
ĠR e
Ġanaly z
Ġpolic ies
ul ation
Ġst o
Ġobj ect
of t
Ġexten d
Ġam ong
Ġb l
Ġhe lp
Ġindi v
Ġscen ari
Ġl ay
Ġag ain
Ġ ide
ĠFin ally
Ġs ens
Ġre t
ĠExper im
Ġdevelop ed
Ġsu g
Ġcap t
d uct
Ġcomp on
Ġcon n
ĠW h
at ors
Ġen g
r id
oc ial
Ġind epend
u ment
p ro
Ġexpl or
k now
vol ution
Ġdynam ic
Ġ ent
at ely
ven ess
Ġcontin uous
Ġd ue
Ġl ike
ĠR ec
Ġb ound
ut ure
Ġb ack
Ġdescrib e
ff ici
a ir
w ay
Ġpot ential
Ġg l
Ġstrateg y
as ing
Ġre v
Ġpro m
olog ical
Ġrec ognition
Ġsupp ort
Ġme an
ar c
at ure
Ġf ound
Ġth ose
Ġl ow
0 1
Ġin vol
Ġgener ate
s c
al id
Ġchallen ging
en se
Ġex amples
Ġsc hem
et s
Ġof f
Ġpat h
Ġf uture
ic es
ol low
er g
res pon
ra ph
if y
Ġco un
us ion
Ġindiv idual
d e
ial og
aus e
Ġs ize
Ġpro duc
Ġv iew
Ġm ust
i ence
Ġus es
Ġh y
Ġop en
Ġuse ful
Ġprog rams
Ġmem ory
Ġs oft
our ces
Ġpro ced
Ġe as
w n
Ġh ierarch
e ti
ĠM ark
ac es
ver age
Ġc ertain
Ġstr ong
Ġ ill
Ġh ard
od es
ĠN etwork
Ġm y
Ġres pon
Ġcor respon
l ation
Ġtech n
ĠN e
Ġab ility
Ġeffici ency
c c
Ġconstrain t
Ġstrateg ies
Ġass oci
vers ari
ĠM ore
Ġgraph s
en e
igh ts
Ġg reat
Ġexperim ental
Ġc ases
Ġgener ation
Ġfe w
Ġoutperform s
Ġs ocial
Ġ i
Ġexplo it
Ġdo es
Ġab str
Ġt emporal
Ġd uring
Ġr ule
S T
ch astic
Ġdevelop ment
Ġgener ated
iz es
Ġpresent ed
c on
r al
Ġs it
se qu
v ant
Ġfin ding
ain s
Ġcaus al
Ġrel ated
Ġsequ ence
Ġd ialog
Ġal tern
Ġst atis
g re
Ġon line
or d
is ts
Ġst ates
ĠU n
ĠMark ov
Ġv alid
Ġrelations hip
ĠF urther
Ġtyp es
ct ed
Ġpr in
know n
oo k
Ġf ollow
olog ies
ti veness
f ter
Ġf uzzy
an e
ĠLe arning
Ġbas el
Ġt e
ĠR L
Ġvalu es
Ġm ade
Ġac t
Ġsub s
Ġex ample
Ġth us
Ġs ent
Ġt ree
Ġad dition
in k
di tions
Ġpar t
Ġcomp os
ver se
pec ific
Ġenc od
onom ous
Ġm ed
Ġpattern s
versari al
Ġquer y
Ġv ia
Ġsyn t
A T
Ġac ross
Ġmechanis m
in ce
Ġup d
Ġsele ction
imension al
Ġout put
Ġconcep ts
Ġl iter
os s
Ġcomput ing
Ġunderstand ing
Ġ$ \
til l
Ġe t
Ġobtain ed
Ġcommun ic
Ġ J
Ġdesc rip
di ent
Ġinc or
h ic
or ies
Ġe le
Ġchallen ges
Ġtrans fer
Ġr un
Ġobjec tive
ear s
ĠThe re
Ġdisc over
ĠC om
an ts
Ġp e
Ġpresent s
Ġpredic t
Ġs ampl
Ġd ri
Ġexpl an
Ġtheore tical
Ġ \
Ġprocess ing
Ġpo int
Ġeffec tiveness
Ġinst ances
Ġor ig
Ġexten sion
j ec
Ġques tions
iv ed
ab ly
Ġparamet er
i or
Ġsuccess ful
ro p
i res
Ġp ub
em p
p ag
Ġsto chastic
Ġincre asing
Ġlimit ed
Ġs elf
Ġm is
Ġ -
Ġgro up
Ġsa id
Ġto ward
ec ess
Ġcon ditions
Ġs till
Ġconstr uc
Ġgl ob
in s
Ġinc lud
it her
Ġcomput er
Ġdet ermin
Ġh ig
Ġexplor ation
Ġadv ant
Ġl oss
Ġt es
Ġever y
g er
Ġin i
ic k
ate gor
ot her
v al
Ġv ect
su pervised
ix ed
g est
Ġch ang
Ġ ed
ĠC h
Ġp res
Ġre f
ol d
Ġrec omm
tiv ity
Ġit er
N et
ti ce
Ġerr or
Ġun i
Ġprin ci
Ġaut onomous
Ġprac tical
Ġs k
Ġgu ar
Ġsit u
ant e
Ġcomp eti
Ġem ploy
Ġo cc
Ġincor por
re te
o id
Ġph ys
Ġguar ante
is on
Ġc ri
Ġpa ir
Ġs erv
Ġf ield
Ġwor d
Ġchallen ge
i tive
Ġr an
Ġev idence
Ġd oc
Ġdiffic ult
Ġc al
Ġill ust
tic s
Ġapproxim ation
ro w
ĠD eep
Ġassum p
Ġclass es
Ġexpl ain
Ġs ample
Ġsec ond
ut ed
Ġc ategor
Ġadap t
or ing
Ġapp ly
ĠWh ile
Ġrequ ires
Ġex ec
Ġim pl
Ġvari ety
Ġl ess
Ġatt ribut
Ġautomatic ally
Ġdirect ly
Ġv ide
t le
Ġstruct ures
Ġshow s
Ġpo st
A N
Ġsimul ation
l o
an c
Ġexpl icit
Ġprocess es
Ġcluster ing
al e
r on
Ġimplement ation
Ġdynam ics
Ġsatis f
Ġeffici ently
Ġextr act
g ment
L P
Ġg ive
g ence
, âĢĿ
Ġgeneral ization
Ġtak e
Ġagain st
ati vely
Ġdistrib utions
m ore
ag ent
Ġad versarial
ap s
Ġcomp are
Ġj oint
ab l
Ġen s
if e
Ġsh ort
l ike
Ġinvestig ate
Ġa ff
Ġliter ature
Ġn ecess
ffici ent
Ġglob al
Ġgra dient
le x
Ġstudi es
Ġscenari os
Ġresul ting
Ġlat ent
o ve
Ġm on
Ġclass ical
Ġbec ause
Ġpar ti
Ġhum ans
in ts
or der
feren ces
Ġont ology
Ġhig her
Ġwhe ther
Ġsp ar
er ing
Ġpop ular
Ġdefin ed
ĠMore over
ch ing
Ġinf lu
Ġc ar
Ġpro ve
o x
Ġne g
Ġillust r
Ġf am
Ġrele vant
in ary
Ġp ur
Ġatt ack
g th
tion al
Ġ2 01
e ad
ide red
Ġwork s
Ġempir ical
c l
NN s
ĠW ith
Ġspe ed
i ally
Ġr ange
Ġdet ect
est abl
Ġcon ditional
ing u
Ġf ail
Ġs ource
Ġres pect
Ġcons idered
Ġconstr uct
el i
iv al
pp ing
Ġrec ently
agn os
Ġunder lying
h ood
Ġf as
Ġev olution
oun ds
Ġexperim ent
Ġdecision s
Ġeng ine
al le
Ġy ears
ak ing
Ġtra ditional
Ġtyp e
ĠA d
Ġcomple te
Ġtoward s
Ġse e
ion s
g an
m b
Ġ ve
Ġsampl ing
pos e
Ġinter action
Ġw id
Ġhigh ly
Ġsu it
ĠA r
Ġdat ab
Ġt ri
Ġex act
Ġex t
Ġhow ever
ogni tive
r ary
in ed
Ġth ough
ag ing
Ġsim pl
ĠS t
Ġachie ves
d en
f for
om et
volution al
Ġl ik
str ic
Ġrel ation
d imensional
Ġver sion
Ġdesign ed
b ack
Ġlearn s
op le
ĠFurther more
Ġexpl ore
c ul
i tions
Ġass ign
Ġm ight
Ġn am
gre g
Ġs amples
is hed
alle l
Ġpo ly
Ġpers on
Ġe ither
Ġpro t
ĠE n
Ġn odes
Ġreg ular
ib ility
Ġcorre ct
Ġme ans
Ġnum er
Ġsug gest
? âĢĿ
Ġmak es
Ġ --
ro und
Ġcol l
Ġquer ies
Ġc ent
Ġno tion
Ġapproxim ate
or ding
Ġbe fore
Ġar tic
ow n
Ġintroduc ed
Ġpro of
Ġy our
Ġini tial
od el
Ġben ef
Ġorig inal
p ri
ti ves
Ġm ar
ab or
Ġcombin ation
cep t
Ġdef ine
r ing
Ġsu per
Ġwor ds
Ġobserv ed
Ġe l
Ġ establ
A R
en si
j or
Ġsimilar ity
u ments
Ġexp ected
Ġve hic
Ġo wn
Ġcompon ents
Ġr is
Ġsp ati
o per
re ad
Ġass ess
Ġrequ ired
Ġspec ial
Ġsoft ware
m ed
re qu
an si
Ġacc ount
ition al
i ers
Ġde v
pag ation
Ġn orm
Ġh yp
A I
b it
Ġpe ople
Ġhe re
Ġdistrib uted
Ġch ange
Ġan not
ot hes
Ġfe ed
Ġa fter
Ġcan not
Ġcl os
at a
b ility
l ess
Ġcont r
Ġpre c
Ġma jor
M DP
Ġaccur ate
Ġde al
Ġint r
Ġf il
Ġexper t
ous ly
ĠB y
ĠM an
Ġinterac tions
Ġre stric
enti ally
Ġmat hem
Ġpub lic
Ġin duc
Ġimprove ment
Ġintellig ent
it tle
Ġsetting s
iel ds
Ġcr iter
tic ally
ĠOn e
Ġb ase
Ġev ent
Ġag greg
s ue
Ġequ ival
re am
at h
ĠA t
pl ay
Ġobserv ations
Ġestim ation
Ġconver gence
Ġanalyz e
Ġrecomm end
Ġ Y
Ġpl an
Ġhierarch ical
Ġo pp
Ġautom ated
Ġl ower
Ġp ass
Ġmet a
Ġcont ain
ti t
Ġf lex
Ġbuil ding
Ġtool s
Ġproced ure
Ġr ate
Ġdisc rete
pec ts
Ġschem e
Ġre ad
Ġtr ansi
Ġprovid ed
Ġstatis tical
igh b
Ġd imension
ĠR es
Ġexp ress
Ġc ognitive
le arning
Ġb ounds
Ġpar allel
Ġg e
Ġup on
Ġev ents
Ġind ic
is m
pec ially
Ġcon dition
ĠNe ural
i i
Ġcapt ure
Ġl ook
ĠF irst
Ġdet ail
Ġgener ative
Ġad ditional
Ġcommunic ation
Ġinst ance
Ġre duce
Ġcorrespon ding
v ari
Ġwe ight
Ġrobot s
Ġl ittle
Ġb ro
Ġto o
Ġcon duct
Ġachie ved
Ġide a
sc ale
Ġdi agnos
in ess
Ġt re
Ġse par
Ġrev iew
p ired
ff ic
Ġac qu
ut e
Ġex am
Ġrob o
Ġpredic tions
su es
Ġarchitect ures
Ġscal e
Ġassoci ated
w ise
Ġnat ure
c tive
Ġe ffor
Ġvide o
Ġhyp othes
Ġan other
Ġdist ance
Ġmeas ures
Ġman ner
Ġen ables
Ġbuil d
Ġd ra
Ġy et
Ġimpro ved
Ġqu al
s es
Ġutil ity
Ġmean ing
n e
Ġsu pervised
Ġvari able
Ġmin ing
Ġlog ical
Ġt urn
th ough
Ġaltern ative
Ġcal cul
d am
Ġs ince
s elf
u es
Ġman ip
c ome
enc ies
Ġav oid
Ġf ixed
fic ation
A P
b ers
y stem
Ġsequ ential
h ing
Ġis sues
Ġsp aces
Ġrep ort
Ġser ies
Ġw ide
Ġin fer
Ġprobabil ities
ar ly
om ial
op e
Ġpo ints
em s
ĠHe re
Ġfun dam
way s
Ġro le
Ġevalu ated
i ent
n ing
Ġ 4
Ġe p
Ġac cess
Ġar bit
Ġeffec tively
Ġbec ome
e red
r imin
Ġsy mb
ĠE l
p r
Ġf ar
Ġbas ic
Ġpro f
Ġprevious ly
Ġes pecially
Ġchang es
Ġsu mm
Ġrepresent ed
Ġris k
Ġlangu ages
Ġimplement ed
Ġenti ties
Ġful ly
Ġcont rib
Ġpar ad
ag ement
Ġtra ject
g ram
r it
v alu
Ġas pects
Ġam ount
ant um
âĢ Ļ
Ġc ode
Ġne ighb
Ġr ather
av ig
Ġde g
pec tive
Ġdialog ue
Ġappro pri
r ics
Ġse gment
Ġpr im
Ġtrans form
Ġimpro ves
Ġtra ffic
line ar
Ġf air
Ġembedding s
Ġprom ising
Ġ 5
an ced
Ġbasel ine
b rid
Ġis sue
her s
Ġcompar ison
o ff
Ġl o
Ġbehavi our
Ġsequ ences
ĠExperim ental
a tical
Ġto get
Ġv ision
ab et
Ġtoget her
n omial
r an
ri x
Ġres ources
Ġimport ance
Ġcharacter istic
Ġvect or
Ġwe b
Ġfact or
h ib
Ġdec om
Ġmechanis ms
Ġf our
Ġn ow
Ġprac tice
ri e
Ġwid ely
Ġm ark
Ġcon vers
Ġgener ating
Ġgro w
Ġclassif ier
Ġd own
Ġpro duce
Ġpre ferences
Ġwe ak
Ġun supervised
m an
Ġcon volutional
y c
Ġacc ording
Ġrelationship s
Ġno ise
M L
Ġcan d
Ġen h
al th
Ġperform ed
Ġspar se
Ġinflu ence
Ġwh ose
Ġtr ack
f ree
m e
ur b
Ġmethod ology
ir c
Ġrel i
Ġlead s
Ġartic le
Ġn avig
Ġem o
f ied
Ġ [
ĠW hen
ĠU sing
erg y
Ġc he
id den
Ġdisc rimin
Ġhy per
ple te
ĠThe n
Ġconc ern
Ġqu antum
Ġcand id
f t
Ġf requ
qu e
Ġpa ti
s h
Ġnecess ary
j un
Ġc ur
Ġextend ed
Ġ '
Ġatt emp
p s
Ġfundam ental
oc k
Ġtyp ically
Ġlevel s
Ġ ess
ĠNetwork s
it ation
Ġfil ter
ĠS e
Ġcont ent
Ġsynt hes
ig m
Ġdescrip tion
Ġfam ily
Ġl ack
Ġstruct ured
x i
Ġfin ite
Ġtrans lation
Ġeffec ts
op tim
Ġcomput e
Ġpoly nomial
Ġeff ect
ĠIn t
ĠExperim ents
{ \
Ġcommun ity
is ation
Ġwe ights
ĠEl iz
Ġf ast
Ġphys ical
Ġcri tical
re hen
Ġpropos es
Ġful l
Ġocc ur
l ight
re t
pl es
ĠB ut
at ch
Ġdiffic ul
al og
ĠWe b
act able
Ġcap able
Ġsa f
Ġspati al
res sive
Ġad op
abil ities
A C
Ġl ast
Ġf ace
Ġinc om
Ġprovid ing
Ġlabel s
Ġstudi ed
Ġpar tial
Ġaim s
Ġc le
Ġare a
the tic
Ġreward s
un ing
Ġcho ice
Ġmat rix
mm et
Ġqual it
Ġre ce
ut h
Ġrese arc
Ġmet rics
Ġmo tiv
Ġtim es
is s
Ġar t
Ġarg ument
Ġtes ting
Ġfas ter
abet h
Ġal ways
Ġimp act
Ġillustr ate
t ane
Ġgro und
Ġrobust ness
Ġd ay
Ġcoun ter
ĠEliz abeth
Ġse en
ĠD es
Ġfeed back
ĠL og
ĠO p
ar m
Ġen able
ĠS pecific
cep tion
Ġexp ression
Ġte am
Ġa verage
Ġappropri ate
par amet
Ġindepend ent
ord in
Ġsuit able
Ġbas is
Ġal ong
il it
Ġcomp rehen
Ġgraph ical
Ġincre ase
Ġder ive
Ġcompeti tive
Ġhy brid
Ġtr ue
Ġun known
Ġdatab ase
at form
Ġabstr act
Ġway s
Ġsyn thetic
ern el
Ġsent ence
Ġproper ty
Ġeas ily
Ġpredic tive
Ġcontrol l
Ġsk ill
Ġd one
Ġexper ience
Ġsimul ated
E R
Ġdet erm
Ġret rie
ig ur
Ġattribut es
ĠSpecific ally
Ġb inary
Ġadap tive
Ġdecom pos
olic y
Ġempir ically
jec tive
Ġare as
Ġinterest ing
Ġs ources
Ġc ross
is es
Ġen ergy
Ġheuristic s
Ġlay er
he rent
od al
ach ines
ĠM on
Ġestim ate
Ġsuccessful ly
Ġus ually
Ġadvant age
Ġcon ven
Ġmathem atical
Ġh ist
Ġsc i
Ġobs er
Ġdi verse
Ġsens or
Ġp ast
og ene
ĠS uch
Ġpl atform
Ġarbit rary
Ġb rain
Ġfact ors
Ġal ign
Ġsimul tane
Ġret urn
Ġshow ing
Ġgu id
! âĢĿ
b y
en der
Ġl ife
Ġon es
uc tion
Ġrec urrent
d ed
Ġpro pagation
Ġl a
ĠS ec
Ġgo als
Ġreduc tion
Ġexplan ations
Ġassump tions
Ġ `
Ġinst ead
od y
Ġcon sequ
Ġde ploy
Ġmo tion
Ġimprove ments
Ġconsist ency
Ġre pl
ust om
Ġmat ching
Ġmet ric
ĠM odel
Ġoper ators
Ġsc ience
Ġreg ression
D A
v iew
Ġstruct ural
Ġh idden
ud e
t t
Ġ 9
Ġf ore
Ġle ast
og n
ug ment
ĠThe y
Ġsur ve
od er
Ġrel ational
Ġdiscover y
Ġdescrib es
ĠAr tificial
Ġprog ress
Ġcompon ent
Ġmed ical
Ġinclud e
Ġran king
ve x
ĠN P
Ġcombin ed
Ġpower ful
M s
it ed
Ġint u
Ġthere fore
Ġoper ations
Ġbenchmark s
Ġcharacteristic s
ĠD ec
ap e
Ġco oper
Ġrepresent ing
Ġm ap
Ġallow ing
ex ts
Ġother s
s pecific
ĠT r
Ġne ver
Ġmar g
d ri
p ite
Ġb us
ul tim
aus si
Ġexten sive
Ġinput s
Ġanswer ing
Ġrespon se
rop y
t rain
ĠM ulti
ĠPro gram
ĠInt ellig
Ġre ve
Ġk ernel
Ġsub st
ator ial
Ġmain tain
Ġconsist ent
Ġge omet
ul ts
Ġpl ans
Ġdescrib ed
Ġclassif iers
Ġarg ue
Ġhand le
Ġsaf ety
M C
re l
om s
ons ist
Ġc irc
Ġfac ilit
Ġin form
Ġhe alth
t al
Ġsol vers
Ġbehavi ors
Ġcoll abor
k ed
Ġv ot
Ġcons ists
Ġont ologies
v ent
Ġenti ty
ot yp
Ġrel ative
Ġintroduc es
Ġresearc hers
Ġl ink
Ġc ustom
ĠS ystem
Ġco ordin
Ġtest ed
Ġa xi
Ġcent ral
Ġd r
ĠG ener
Ġconf igur
si ble
x t
or ts
Ġformul ation
Ġmaxim um
Ġsug ges
Ġnorm al
Ġf it
Ġcombin ing
Ġder ived
Ġsitu ations
Ġqualit ative
ĠSec ond
Ġt reat
Ġs ense
Ġpri v
Ġcontr ast
c ting
f act
iz ations
Ġs ensi
Ġre ach
Ġbec om
Ġdefin ition
en gth
Ġfe as
Ġcombin es
ĠRe inforcement
Ġt ack
Ġsc ore
Ġexp on
Ġperform s
ar ing
m aking
Ġs w
ir ing
aussi an
Ġpers pective
P S
g l
on ic
Ġg ain
Ġsegment ation
Ġfollow ing
Ġsubs et
a ve
it al
om en
Ġle ver
Ġcr uc
f ace
Ġman agement
Ġcap abilities
Ġcre ate
Ġinterpret ation
Ġstep s
ĠI m
Ġapp lying
Ġdemonstr ated
Ġserv ice
Ġsubst anti
Ġl ight
Ġdra w
Ġsc hed
Ġex hib
Ġd el
Ġextr action
p us
en sive
Ġst able
Ġne xt
Ġneed s
ĠAl though
t ask
Ġha ving
Ġbro ad
Ġpur pose
eli hood
Ġdri ving
Ġm achines
Ġtak es
Ġgeneral ize
Ġcombin atorial
Ġparticular ly
ur ity
Ġoper ator
Ġt erm
ti z
Ġf low
ar s
ĠB ased
Ġexec ution
w h
er ior
ĠA ut
Ġet c
Ġnam ely
) $
Ġc are
Ġdoc ument
Ġexplicit ly
Ġre ly
Ġne ar
Ġexper ts
Ġparad igm
il d
/ /
l usion
Ġ _
pp ed
and s
Ġinter n
Ġestabl ish
: //
Ġguarante es
Ġdeterm ine
ac ts
vers ity
Ġtra de
ingu istic
med i
Q A
Ġsol ver
Ġem erg
Ġover all
Ġcomputation ally
Ġapp ear
Ġlay ers
Ġ X
Ġconn ec
Ġsuper ior
ĠProgram ming
N s
Ġ 6
Ġrec ogn
ĠRec ent
m ost
Ġst ream
str uct
Ġbi as
Ġindepend ence
ĠMan y
Ġche c
g o
} $
ot s
Ġeas y
T S
p ort
Ġor gan
Ġk ind
op h
Ġadapt ation
og raph
Ġimpro ving
Ġsimultane ously
s y
Ġp hen
Ġd id
Ġind ust
i ous
Ġn ode
em ble
Ġparti ally
Ġsci enti
Ġcruc ial
Ġres ource
Ġbuil t
Ġadvant ages
Ġprinci ple
o res
en tion
is y
Ġsu ff
Ġperform ing
dri ven
Ġbasel ines
Ġen ough
Ġcolle ction
optim al
A S
ic t
ce ed
Ġev ol
Ġdist in
Ġintegr ation
ĠThere fore
Ġr ich
Ġj ust
Ġsent ences
Ġconstruc tion
Ġdeg ree
o red
Ġmo ve
ĠG aussian
Ġrequire ments
Ġupd ate
Ġnumer ical
ur ally
Ġtechn ology
Ġlimit ations
Ġele ments
Ġminim al
Ġpop ulation
em ic
Ġalgorithm ic
tern al
Ġpair s
Ġ 8
ĠA SP
Ġac tive
ĠM DP
Ġsub ject
d es
Ġass ist
Ġgeneral ized
Ġevolution ary
ĠLog ic
Ġs ay
D D
Ġthe ories
Ġc ore
Ġm ess
ak e
Ġencod ing
Ġst ren
Ġspe ech
Ġrem ain
Ġsign al
ĠIntellig ence
f ect
Ġpar ts
Ġpre ference
Ġpartic ip
Ġtop ic
Ġerr ors
Ġexplan ation
y m
Ġc row
ify ing
O MDP
Ġcon st
ĠS AT
Ġcl ose
Ġeffor t
Ġ z
re ed
Ġobserv ation
Ġquanti t
Ġit ems
Ġlar ger
vers al
er o
Ġall oc
Ġwho le
Ġa ugment
dition ally
Ġof fer
Ġf ine
Ġma pping
Ġcriter ia
Ġl inguistic
epend ent
g round
Ġpos itive
Ġestim ates
Ġflex ible
ogene ous
ter s
Ġconf lic
Ġr ational
ĠTh us
Ġno isy
Ġpl ace
Ġits elf
Ġcomb ine
Ġscenari o
Ġg ene
Ġro ut
Ġcor pus
Ġ 0
Ġf l
ge b
Ġne ur
ĠM iss
Ġhe ad
Ġsol ved
iv en
pec tively
Ġformul a
Ġnavig ation
Ġcl in
Ġdevelop ing
Ġide as
ST M
Ġimpl icit
Ġsched ul
un e
Ġsymb olic
i ability
Ġpropos itional
Ġdiscuss ed
Ġbus iness
Ġm ix
Ġsatis fy
Ġpro ject
ac tive
Ġsem i
Ġpres ence
Ġengine ering
Ġdiagnos is
ĠM achine
Ġper ception
Ġqu ick
Ġm or
Ġex ternal
Ġsh ared
Ġha pp
ĠE m
Ġassump tion
Ġdifficul ty
Ġg et
id es
ter m
Ġsy mmet
Ġgener ally
Ġsign als
Ġplay ers
Ġcontrib ution
Ġin str
Ġto tal
Ġst at
Ġhe ter
Ġsystem atic
Ġtr uth
Ġtak en
Ġins pired
Ġs ound
ari ly
Ġco ur
com es
Ġvehic le
I S
re ly
Ġpro duct
Ġbenef its
le an
Ġl ength
Ġres pectively
ĠPro cess
Ġmon it
Ġtransi tion
Ġh tt
a ult
ot onic
n et
Ġb re
Ġsu fficient
Ġpost erior
ĠMon te
ĠM ost
Ġcolle cted
o k
Ġg r
Ġinterac tive
b ig
Ġexp ect
cl ass
c al
at ory
ac ity
ĠS im
Ġneed ed
Ġm us
Ġlik elihood
Ġf ields
ĠP ar
-- -
Ġent ropy
Ġess ential
Ġre d
Ġre st
Ġlog ics
l abel
od ing
Ġext re
Ġfair ness
Ġmark et
Ġreal istic
Ġincre ment
Ġscen e
Ġincreasing ly
Ġextract ed
Ġattack s
Ġ 7
Ġac tivity
ib ri
Ġconven tional
p ace
Ġb and
ri end
ous e
Ġrec onstr
Ġrem ains
Ġtre es
Ġmodel ling
ĠC l
Ġco ver
Ġro ad
Ġpo or
Ġsumm ar
Ġf ree
ens ity
Ġidenti fication
Ġra p
Ġtes ts
Ġsitu ation
il ibri
Ġder iv
ro b
Ġvari ant
Ġpredic ting
Ġaut h
Ġtak ing
Ġformul as
er ging
om in
Ġen ab
ĠG iven
Ġ1 9
ĠS he
ĠS em
Ġoptim ize
Ġcandid ate
Ġcomp act
ir t
Ġcar ri
Ġequival ent
Ġper t
Ġserv ices
Ġretrie val
Ġphen omen
a im
in ing
Ġmod ule
Ġvari ants
Ġadv ances
em ents
Ġgener ic
Ġph ase
m on
Ġb al
st er
Ġk in
Ġup per
Ġbl ack
Ġdetermin istic
Ġcom e
oo lean
Ġbound ed
ĠDec ision
Ġg ap
Ġpossi b
Ġdoc uments
Ġhypothes is
Ġsh all
ĠC ol
Ġidentify ing
ar ge
Ġdes ired
vi ties
read y
S AT
ar lo
ĠD arc
Ġobjec tives
Ġbelief s
Ġrobo tic
ĠDarc y
ti vities
Ġc ell
el er
Ġtrans l
Ġinvol ves
Ġmis sing
Ġbenef it
i ra
en ding
ĠB en
b ox
d ay
Ġal ready
ĠC P
Ġlabel ed
ĠRec ently
Ġperson al
or ry
Ġcommon ly
Ġintegr ated
Ġconst ant
Ġm agn
if orm
Ġim pos
Ġreg ret
Ġinclud es
Ġrecommend ation
Ġsurve y
Ġf ra
Ġachie ving
Ġins ights
Ġent ail
Ġrap id
Ġfor ward
Ġres olution
tim es
Ġspecific ally
Ġclassif y
Ġpath s
Ġcons um
Ġmo b
c rip
Ġqu ite
Ġdire ction
Ġansw ers
Ġtheore m
Ġconcept ual
Ġdepend encies
Ġproced ures
Ġcompos ition
ac tions
oo st
Ġsec urity
Ġskill s
it ting
Ġle verage
Ġv ary
Ġconsider ing
Ġsele ct
Ġcontext ual
Ġfocus ed
e qu
g ments
em b
Ġs oci
Ġdis e
ati ves
h ard
er ial
Ġfin al
ĠCom put
Ġschedul ing
or ting
Ġout comes
Ġneg ative
ĠI f
Ġsp ect
Ġvalid ate
Ġmob ile
p olicy
y ond
Ġbe yond
Ġtr ust
Ġreg ions
Ġnat urally
Ġincom plete
$ -
o ot
Ġe y
Ġlat ter
Ġcorre l
Ġstren gth
id ed
ĠS P
ĠC NN
Ġacc eler
Ġdi ag
Ġinterpret able
Ġvehic les
Ġreve al
C A
g ed
m ath
Ġf usion
Ġm ut
Ġle t
Ġprinci ples
p ass
Ġth ink
Ġl ist
end ed
Ġevalu ating
Ġuni que
Ġlik ely
Ġcon vex
Ġal most
for t
ĠS h
Ġad j
Ġcomput ed
Ġpossi bility
Ġcategor ies
it ude
Ġenh ance
m is
Ġal geb
if t
se en
y le
it ing
ir d
Ġover come
Ġgiv es
Ġcaus e
Ġinvol ving
Ġens emble
Ġexam ine
Ġmanip ulation
ar ding
Ġac tivities
ĠS ince
ĠD ef
the ore
Ġconduct ed
Ġh ope
Ġfor ms
Ġab s
Ġvect ors
sy ch
Ġd eli
Ġk eep
Ġincorpor ate
Ġtack le
Ġm aps
ist ing
ĠTr ans
Ġequ ilibri
Ġgroup s
E S
he ad
Ġab ove
Ġclin ical
ira ble
l ier
Ġd ig
Ġre fer
Ġrec ur
ann el
Ġplay er
Ġabstr action
s et
Ġd a
Ġdev ices
M A
Ġexp ressive
Ġdep th
Ġscal able
Ġextension s
Ġf av
Ġconf idence
Ġlead ing
Ġele ct
Ġparti tion
M T
Ġw al
Ġrel atively
Ġarg uments
Ġindividual s
Ġweight ed
c ent
Ġs ide
Ġm ass
ann ing
Ġbelie ve
Ġbi ological
Ġconn ected
en ess
Ġc am
ol s
âĢ Ķ
Ġtr actable
Ġinc onsist
Ġj ud
Ġminim um
O R
ti f
Ġin herent
Ġcap acity
Ġref le
ĠRes ults
t or
Ġf riend
Ġm ultim
Ġcont ains
Ġcluster s
jec ts
Ġquantit ative
Ġa way
Ġgener ates
Ġinter ven
Ġel imin
Ġcont ribut
Ġconn ection
G AN
i able
p a
ari es
Ġdist ingu
Ġcap ability
ĠAn d
Ġcost s
Ġsynthes is
pl ed
Ġrev ision
Ġnam ed
Ġargument ation
Ġc yc
Ġpos e
Ġd ed
Ġb ases
st ep
il i
ĠP l
Ġfunction al
Ġprot otyp
ĠEn gl
Ġtraject ories
a pp
c ing
o ud
Ġp ut
Ġmod al
Ġmod ern
Ġrepresent s
ĠL orry
Ġmin d
Ġreduc ed
Ġexpon ential
Ġl in
ĠM C
Ġcl aim
Ġdi versity
Ġan alog
Ġm al
si vely
Ġcurrent ly
Ġcompar ing
Ġmanip ul
Ġlo op
Ġin v
Ġb ot
Ġwh y
Ġne u
Ġun seen
Ġformul ate
Ġemo tion
ort un
Ġ2 00
ĠK now
Ġpert urb
he re
res h
Ġmod ular
ĠP re
Ġdem and
Ġframework s
ful ly
angu age
Ġj us
Ġsele cted
Ġgu ide
Ġrespon ses
Ġexploit ing
Ġst art
Ġinf in
Ġdec l
Ġhard ware
Ġcorrespon d
Ġindic ate
Ġrobo tics
Ġneighb or
e fficient
l og
Ġw rit
ac ting
Ġtraject ory
Ġpriv acy
theore tic
er y
Ġe ar
Ġsur pr
Ġaggreg ation
D S
t ext
Ġb ig
us e
Ġreduc ing
Ġpos ition
Ġreg ard
Ġuni versal
Ġheter ogeneous
Ġb r
Ġrel ax
Ġdiscus sion
ĠMr s
Ġaff ect
Ġprec ision
Ġscienti fic
Ġe c
il ities
Ġac cept
ĠD ata
ĠG o
Ġnon linear
Ġhim self
Ġformal ism
Ġact ual
Ġintern al
ĠSem antic
Ġst atic
Ġdifferen ce
ĠG P
Ġapplic able
Ġ1 0
Ġsm art
Ġscal ability
Ġjoint ly
Ġpati ent
Ġa round
Ġthough t
Ġfacilit ate
d ec
i ec
Ġn or
ist emic
ĠC arlo
Ġaut o
Ġfocus es
Ġreduc es
Ġcriter ion
e ed
Ġp sych
Ġintroduc ing
anc y
Ġregular ization
Ġbecom es
Ġe th
Ġg rid
Ġat tr
ag ed
Ġdefin itions
Ġattribut e
Ġquick ly
im e
Ġsu perv
Ġsc ores
Ġcomple ment
Ġy ield
Ġincre ases
Ġcontroll er
Ġreg ion
ins ic
Ġimpl ic
Ġtrack ing
ĠDes pite
ren ce
Ġsimul ations
m it
Ġcomp et
ĠS tr
Ġrequ iring
Ġpot entially
" ,
Ġp le
Ġl ib
Ġcl oud
Ġy ields
Ġexist ence
Ġtechn ologies
Ġrestric ted
or iz
Ġun ified
Ġno tions
Ġplann er
Ġproduc ed
Ġdecompos ition
Ġre ference
Ġv irt
Ġexpress ed
ĠKnow ledge
Ġw in
Ġf ive
Ġaddress es
ĠAn sw
m a
Ġ {\
ri es
Ġconstrain ed
Ġopp ortun
Ġcomprehen sive
D L
tic es
oun ts
Ġver ification
Ġoff ers
Ġgrow ing
Ġz ero
c hes
p oint
Ġt ax
an k
Ġrep e
ix el
Ġfinding s
' t
D F
M M
Ġan om
Ġtechn ical
ĠAd ditionally
Ġmagn itude
C O
ac tic
ĠEx isting
Ġemploy ed
Ġobser ve
Ġhtt ps
ĠM L
jun ctive
s er
Ġres ol
ari ties
Ġdec re
Ġrel ies
Ġdemonstr ates
Ġsens ors
ĠCom p
Ġpres er
ĠOp tim
2 01
s on
t on
id ing
em pl
Ġun iform
Ġexten ds
Ġobserv able
Ġcompar able
Ġmonit oring
v ance
un ding
Ġop in
Ġtr y
Ġmat ch
Ġconc lud
Ġmix t
Ġro ugh
onom y
Ġconstruct ed
Ġrece ived
Ġkin ds
R I
ĠG raph
Ġexp ensive
ef ined
Ġsmall er
Ġproduc es
Ġdistin ct
1 0
ent ral
if feren
ĠM et
di re
Ġdemonstr ations
Ġconf ir
pro cess
Ġassign ment
Ġequival ence
Ġbe h
Ġcont exts
Ġvari ance
Ġguarante e
Ġ ign
Ġs is
ĠA fter
ĠS ome
Ġspec ification
Ġdesign ing
t ex
Ġt end
Ġf ather
Ġex c
Ġevalu ations
Ġconfigur ation
et ermin
ĠB oolean
Ġinter face
Ġaccur ately
Ġloc ation
a u
g ener
Ġout come
Ġhigh light
Ġmem bers
Ġdirect ed
Ġdepend s
Ġback ground
Ġprot oc
Ġfore c
medi ate
r ac
or ient
Ġm om
Ġm ill
ram m
Ġrec over
Ġdifferen ces
00 0
Ġassum e
Ġmaxim ize
Ġtreat ment
ĠBen net
Ġsh are
Ġvari ational
Ġtrans formation
Ġso on
Ġdescrip tions
train ed
Ġalgeb ra
ĠEngl ish
i tiz
Ġp ure
Ġalign ment
B P
Ġd ensity
Ġoutput s
o oth
Ġr ight
Ġnot hing
ĠPro ble
Ġinterpret ability
Ġschem es
Ġb ody
Ġst ar
Ġde b
ĠD L
Ġidenti fied
ĠAl gorith
Ġhierarch y
as h
as ting
ĠT ra
ot or
Ġdire ctions
Ġenc our
Ġupd ates
ĠS p
for ward
um an
Ġsh ape
ut ter
Ġst ra
Ġtyp ical
Ġed ges
Ġattemp t
G s
Ġt ermin
Ġcomp il
orient ed
in ation
Ġs enti
Ġw ind
Ġl oo
Ġmodel ed
Ġac tiv
Ġinvestig ated
Ġmeaning ful
Ġreli able
I M
Ġe arly
Ġh ol
Ġex ists
Ġbe g
um er
ĠG AN
Ġoper ation
Ġconc lusion
Ġfac ts
Ġgeomet ric
em ph
ch ron
ĠA pp
ens or
Ġorder s
Ġla w
Ġaxi om
Ġenab ling
D E
l ay
Ġs low
al se
Ġra w
Ġexperiment ally
Ġp ip
Ġin vari
Ġl if
os en
Ġse em
ĠB ingle
Ġgene tic
A M
i o
Ġst age
Ġencod er
Ġdatab ases
Ġdetail ed
Ġcomp an
Ġy oun
Ġaddress ed
Ġmain ly
ĠAl l
Ġcre ated
Ġiter ation
struct ured
C T
ul ated
Ġl and
Ġch annel
Ġoptim ized
Ġacc om
Ġiter ative
Ġpati ents
sh ot
ĠSe arch
Ġon ce
ĠM AP
Ġcho ose
Ġsatisf action
Ġestabl ished
all ed
Ġconsider ation
imin ary
reed y
mon otonic
ĠBingle y
w rit
Ġs al
Ġsh aring
Ġch ain
g raph
ĠThe ory
Ġexper i
Ġcorre lation
valu ed
m od
Ġd ual
Ġas pect
Ġv ol
igh ting
our s
Ġran k
anc ing
Ġsugges ts
ĠDef arge
i od
Ġspec ified
Ġconstruc ting
Ġclos ed
Ġdimension s
N F
Q N
Ġ ir
Ġw r
Ġf r
Ġle x
Ġun its
Ġad ding
te red
Ġrun ning
C P
z e
Ġt able
ĠIn tern
Ġper fect
Ġdes irable
Ġdesc ent
Ġhand ling
Ġcho ices
emp ster
Ġhist ory
Ġfeas ible
Ġa udi
Ġspe ak
Ġenti re
Ġanalyz ing
Ġincorpor ating
Ġassess ment
Ġeffor ts
r up
Ġex ch
Ġnum bers
Ġreg arding
ĠJ ane
Ġmultim odal
r ation
in c
am b
Ġr ates
Ġdifferen ti
Ġtrans port
Ġbl ock
ĠUn like
Ġsuff er
Ġalloc ation
re c
Ġp iec
Ġp ixel
Ġscal es
ĠQ u
Ġins ight
Ġens ure
Ġconnec tions
Ġbeh ind
I F
L E
Ġa ir
Ġs l
Ġo ld
Ġc ard
ith ub
ri tic
ĠL STM
Ġcharacter ize
Ġcle ar
Ġextre m
el ine
us ed
Ġshow ed
Ġapplic ability
atic s
Ġjus ti
a ware
Ġim m
ĠD empster
Ġdynam ically
Ġadd ed
Ġsele cting
Ġintu itive
I C
n ce
v ial
Ġp ay
ri ef
Ġpl aus
Ġed ge
Ġfilter ing
Ġexpression s
ro id
ten sive
ha fer
Ġapproxim ations
Ġp ol
il on
Ġhe nce
Ġconvers ation
er c
ie f
ĠE ach
Ġtra vel
Ġpub l
Ġlook ed
Ġmarg inal
g ent
Ġp ort
Ġfe el
Ġstud ent
atic ally
Ġinvol ve
ĠUn der
oriz on
p tion
Ġre mark
ĠD e
Ġfas h
Ġep istemic
el ves
ĠP OMDP
Ġsa fe
Ġflex ibility
Ġcollabor ative
W L
d ependent
ra d
Ġgener ator
Ġch osen
ort h
Ġind eed
Ġadv anced
Ġhelp s
Ġred und
Ġdecl ar
S A
v ity
Ġth ous
Ġper iod
Ġem b
Ġam big
Ġcombin ations
Ġorder ing
Ġcre ating
de red
is c
Ġw ant
Ġcomp lic
Ġcomple tion
ound ed
sequ ently
Ġneur ons
Ġsenti ment
Ġd omin
Ġg en
Ġmod ified
Ġcomp ression
Ġmus ic
Ġdistingu ish
w id
Ġm ic
ĠL anguage
Ġmat erial
ob jective
Ġf alse
Ġth resh
ĠT wo
Ġestim ated
Ġtext ual
Ġpublic ly
ĠY ou
Ġexhib it
Ġcam er
Ġfor get
Ġg ramm
ra p
os ing
Ġlearn er
Ġim itation
Ġun s
Ġco u
Ġinter val
Ġquanti fy
Ġanalyz ed
Ġaltern atives
Ġvalid ation
Ġvary ing
Ġfash ion
C NN
c hed
Ġdec entral
Ġprov ed
Ġinvol ved
Ġbot t
Ġmixt ure
g ithub
un ction
Ġmod ules
Ġus age
Ġwor st
Ġcalcul us
Ġvot ing
N I
ed ia
Ġb oost
ack ing
Ġenc ode
Ġintr insic
Ġcarri ed
$ ,
d omain
Ġ Z
ec ts
ĠB oth
Ġcomple t
Ġestim ating
Ġdetermin ed
Ġsubstanti ally
Ġinfin ite
" .
Ġb rief
ĠM o
Ġro om
Ġstatis tics
Ġsynt actic
Ġed uc
Ġcontrib utions
al f
ra y
Ġprov en
Ġher self
Ġsm ooth
Ġrele vance
Ġspar s
Ġsuperv ision
Q L
re ct
Ġst ability
ess ion
uc tions
iv ing
Ġpre vent
Ġinst anti
Ġsupp orts
Ġdefin ing
Ġincrement al
Ġneighbor hood
P I
Ġle g
Ġun it
Ġvari ations
Ġreason able
Ġexplo its
ove red
Ġfail ure
Ġparticip ants
Ġs us
Ġle ft
Ġde ar
ad y
ang ing
Ġstud ents
Ġcompeti tion
Ġchec king
A s
A SP
\ %
a res
o ard
Ġin n
Ġb ox
ut es
Ġsu m
Ġcharacter ization
Ġminim ize
paramet er
wid th
Ġg reedy
ĠC urrent
Ġconsist ing
Ġcategor y
Ġmess age
C S
c er
s ilon
ot e
Ġreason s
Ġincre ased
Ġcompos itional
Ġintr actable
jun ction
Ġd imensional
Ġn ar
Ġh old
Ġst yle
Ġinter act
Ġcons tit
Ġintegr ate
Ġdepend ency
Ġrun time
j ection
at er
Ġre n
Ġit em
ĠIn st
Ġr ig
Ġch ild
Ġpre l
th ing
ĠPro b
Ġrecommend ations
Ġextrem ely
z ation
ĠR ob
Ġplay ing
Ġhypothes es
Ġequilibri um
h at
ul ate
Ġthere by
Ġadv ance
Ġcompos ed
Ġchang ing
Ġdetect ing
fort un
T P
h am
Ġp en
Ġm ixed
Ġim per
ber g
com plete
Ġview s
Ġsuggest ed
Ġannot ation
Ġcour se
Ġdeli ver
A D
os ed
ĠIn ter
ĠS u
fe as
Ġcapt ures
Ġphys ics
Ġvirt ual
i ol
al ing
Ġf a
Ġn ame
Ġreport ed
Ġdel ay
Ġrepe ated
c ase
Ġe lement
Ġover view
Ġind ex
Ġra ti
Ġtop ics
Ġmeasure ments
Ġexact ly
Ġcontain ing
Ġattemp ts
Ġmarg in
Ġcomplet ely
Ġprel iminary
$ .
O M
c alled
u ge
es ides
ic tion
ac le
ap ter
Ġpre fer
Ġpr ison
Ġconsider able
Ġinduc tive
Ġlever aging
b al
l l
Ġt al
Ġb id
Ġal one
ĠD NN
ph a
Ġser ve
T L
is ition
st s
ul l
ul ations
ri al
der s
Ġrepresent ative
Ġsome times
Ġdescrib ing
Ġexplo red
ĠQ A
Ġcooper ative
Ġcirc um
ĠEm pir
Ġlin ks
S S
V M
Ġd iv
as p
Ġv iol
ach ing
Ġpaper s
ĠD oc
Ġcaus es
P C
s erv
Ġc red
Ġh ouse
ĠS et
Ġpr uning
Ġact or
ron ic
Ġsimpl er
fact ual
ĠPre vious
Ġimplic ations
o ice
is ons
Ġb rid
Ġpropos al
Ġpredic ted
Ġimplement ations
ĠCon strain
Ġsatisf iability
Ġdise ase
P O
p art
u it
Ġs at
Ġb ring
id ers
ĠF rom
Ġclass ic
Ġman ually
Ġoptim izing
Ġey es
dire cted
Ġsis ter
Ġmom ent
Ġyoun g
ten ess
ĠProble m
Ġdeclar ative
t rol
Ġc ame
is ms
ation ary
Ġun til
Ġnew s
Ġbel ong
ci ous
Ġvide os
Ġconvers ational
u x
ing ly
st ood
ĠM a
Ġembed ded
ĠWh at
Ġprec ise
Ġinduc ed
Ġconflic t
Ġrout ing
Ġconclud e
p ly
Ġ utter
in king
Ġp red
ac ed
uc k
Ġar ise
are st
Ġdiscuss es
Ġutil ize
Ġdetermin ing
Ġannot ated
Ġsepar ate
ne w
ĠSystem s
Ġcoordin ation
I n
pl ic
Ġform er
Ġdemonstr ation
Ġconsist ently
Ġgreat er
Ġcandid ates
Ġfeas ibility
T he
Ġf all
as ter
ĠIn s
ific ations
Ġgo ver
ip s
L M
Ġt uning
Ġn ight
ĠS ever
Ġop tions
Ġoptim ality
Ġph r
Ġassoci ation
Ġacqu isition
ĠGener al
process ing
feas ible
c ts
Ġs ix
Ġm ention
Ġcl aus
ud get
Ġdef ault
Ġminim izing
Ġdeploy ed
Ġaxi oms
O L
n ey
o or
o ol
in ter
ten tion
Ġidenti f
Ġtheore tically
Ġreconstr uction
Ġentail ment
mis sion
Ġdecentral ized
e an
m er
Ġs pl
ĠC o
iv es
ĠCh ar
Ġsubstanti al
Ġcrow d
Ġec onom
ĠSever al
Ġd en
Ġper ce
rain ed
Ġqu ad
ĠR NN
Ġman ual
Ġem erging
rel ated
ĠCol l
he uristic
Ġc y
st ream
Ġapp e
ĠO ver
ĠR ep
Ġinter s
Ġout l
Ġnumer ous
Ġadop ted
ĠOp en
Ġbre ak
I T
S C
Ġb atch
el t
ĠM A
ĠTh rough
Ġco verage
Ġwork ing
Ġgeneral izes
Ġproduc tion
Ġfollow ed
Ġpair wise
Ġprototyp e
Ġthe ms
Ġc at
Ġc ognition
ic acy
Ġas k
Ġar ri
Ġextr acting
Ġte ac
fortun ately
Ġthems elves
ĠT ree
Ġmaintain ing
oph istic
ym p
d a
Ġh alf
Ġutil izing
Ġear lier
l er
Ġt w
Ġin verse
Ġe lic
Ġcom es
oc al
ex p
Ġconver ge
ĠAut om
Ġindust ry
R E
or ds
ac ing
ra ft
Ġlong er
Ġext ent
Ġversion s
Ġproof s
Ġannot ations
ĠOptim ization
Ġloo king
ĠD ist
Ġver s
Ġcontrol led
Ġrandom ly
Ġintegr ating
Ġsoci ety
Ġlib rary
Ġwind ow
A E
Y ou
b e
k e
s ide
re ement
en ing
Ġb udget
qu ality
Ġsh ap
Ġpar sing
Ġev id
ph as
Ġdig ital
g ely
m odel
ti s
Ġs ophistic
ac hed
Ġh uge
est ed
Ġequ al
Ġformul ated
ĠOn t
ĠAt ari
Ġep is
Ġsensi tive
crip tion
lay er
Ġclaus es
oc ks
ph ic
Ġam ounts
ynam ic
und red
stand ing
Ġinvestig ation
Ġgreat ly
Ġrecomm ender
Ġtransform ations
label ed
Ġband it
ĠInst ead
ymp to
S hafer
Ġpro por
Ġpro pag
Ġl ot
ĠIn formation
Ġsp ok
Ġver ify
Ġlar gely
Ġoper ate
Ġstat ements
a w
f low
as ure
ect or
ĠO WL
Ġcomput ations
ex pl
Ġbi ases
Ġsur ro
Ġconsequ ence
Ġcomplic ated
i tig
Ġb ran
if ies
Ġsc oring
Ġperform ances
our se
aly sis
Ġstrong ly
Ġorig in
Ġdimension ality
Ġphenomen a
t ri
Ġs izes
Ġc ut
ĠTh at
ĠEx tensive
Ġhand s
Ġbehavior al
Ġdiscrimin ative
O P
i qu
or n
Ġth ird
ĠW ik
ab ul
ĠO b
Ġman if
Ġallow ed
Ġsimul ator
ci ence
Ġsurpr ising
Ġob st
ĠL uc
Ġcons iders
th at
Ġcor por
Ġsens ing
or gan
em ory
ĠC SP
Ġar m
Ġme et
Ġanaly ses
Ġplann ers
Ġguarante ed
Ġtransi tions
Ġdetail s
Ġindust rial
math cal
Ġpip eline
1 9
M S
Ġl ed
ra f
Ġr ating
Ġexp and
ĠK B
Ġcompar isons
Ġinterac ting
ograph ic
ĠMDP s
ĠAlgorith m
R T
c ur
Ġm itig
ec tive
Ġh ome
Ġas ympto
Ġrep ro
Ġsub jective
Ġintroduc tion
Ġini ti
Ġfit ness
Ġopin ion
amb da
u ity
at ural
Ġcomp ati
Ġim ag
Ġper m
Ġinter mediate
Ġwhere as
ric es
Ġadap ted
Ġappl ies
gre es
Ġparameter ized
Ġmotiv ated
Ġgover n
O C
Ġl ab
ĠT uring
ĠD at
Ġmo ving
Ġlabel ing
Ġupd ating
Ġconcern s
Ġsensi tivity
Ġadj ust
ĠDoc tor
pos ition
ĠD A
ĠL ong
Ġem phas
Ġdo or
atis f
Ġrem o
Ġfrequ ent
Ġcover ing
ili ary
L S
n orm
o in
s um
u ed
Ġa ux
Ġd on
ĠN LP
Ġunder stood
Ġvalu able
ĠIm age
Ġeth ical
Ġstra ight
Ġforget ting
I N
s im
Ġt ren
re g
ent le
il es
abil istic
ell ing
Ġover l
Ġsupp orting
Ġmaxim izing
Ġdepend ent
Ġdeal ing
Ġpubl ished
Ġw a
Ġde grees
ĠS c
Ġdisc re
Ġenvironment al
Ġencod ed
Ġreli ability
Ġexch ange
Ġsophistic ated
Ġaux iliary
m in
ĠM in
ĠM at
oc abul
Ġdes pite
Ġobtain ing
ons ense
ĠUn fortunately
Ġmed ia
Ġprim ary
Ġconsequ ences
NI ST
Ġt exts
Ġth ings
Ġg ran
Ġeff icacy
ction al
Ġfin ds
enc oder
Ġ2 0
urb an
Ġinform ative
Ġrati o
s pace
Ġm en
Ġform ally
Ġdo ing
Ġcoll ision
f ol
w ith
is ual
Ġh om
ra tive
il os
se ud
Ġne ut
ĠH ence
Ġvari ation
Ġoptim isation
Ġmat rices
Ġdynam ical
Ġplay s
Ġcolle ctive
Ġcorrect ly
Ġcounter factual
Ġcrow ds
Ġpossib ly
Ġwrit ten
I D
is ely
ul ner
Ġas ked
Ġor d
ĠP h
ĠH er
Ġconc rete
ifferen t
e ffici
le ct
ugh t
Ġfram es
ens us
ling ual
Ġmajor ity
rob ot
Ġda ugh
Ġperturb ations
Ġspars ity
h aps
Ġ urban
as ion
Ġh undred
Ġhe art
duc tive
Ġfew er
lo ad
ĠAnsw er
Ġstar ting
re le
Ġc op
Ġus ual
ad es
Ġgo ing
rough t
Ġgro unding
Ġmeas ured
Ġlever ages
Ġexperi ences
G D
G P
ti tion
el ief
ut ation
ĠS o
ant ly
ĠC r
ress ed
Ġ1 00
Ġtoo k
Ġrecur sive
Ġconfir m
Ġaccom pl
d efined
Ġt ight
on al
Ġp ack
res si
ep silon
ĠB P
Ġmeas uring
Ġcharacter ized
ĠV ari
Ġcommun ities
Ġvisual ization
Ġsens ory
Ġindepend ently
Ġincorpor ates
Ġfrequ ently
Ġteam s
ĠCl ass
Ġthresh old
tri vial
( \
n etwork
Ġm other
Ġg entle
Ġst or
ri ent
Ġloc ations
Ġsa w
com put
Ġra di
Ġread ing
train ing
Ġ19 9
Ġcamer a
Ġrig or
A V
Ġw ish
ĠF uzzy
Ġdemonstr ating
su ch
Ġoper ating
Ġlim its
Ġequ ations
ĠCon volutional
Ġoff line
Ġview ed
Ġauth or
ĠConstrain t
L e
b and
Ġs tim
le c
ec k
Ġint ended
ĠP olicy
ĠPro ject
Ġprom ise
Ġsynt ax
Ġopp on
yc lic
Ġplatform s
m odal
p t
z y
ol ation
ine ar
Ġdec ide
ĠL P
ĠL y
ĠN o
Ġj ob
Ġminim ization
Ġcoun ting
ĠIntern et
C I
d etermin
ĠP S
we ight
Ġspec ify
Ġrequire ment
Ġbal ance
Ġrapid ly
Ġcontribut e
. .
A L
Ġt ag
Ġt ail
Ġan im
Ġd rop
Ġh ar
ra tic
ĠP er
Ġdep ending
Ġenc oun
Ġscen es
Ġeas ier
Ġdiag rams
Ġv ulner
Ġsim ply
Ġtrans pa
Ġcapt uring
Ġexplor ing
Ġneg ation
Ġturn ed
Ġhist or
E G
ut ing
Ġcom ing
iz er
ĠS T
ad ame
Ġhe ld
ati vity
Ġsemantic ally
ick ham
omet hing
Ġclos ely
Ġconfigur ations
i tively
t in
Ġst ory
di a
Ġdif f
Ġvalid ated
Ġdeploy ment
Ġgeomet ry
C C
i os
er ge
Ġs qu
Ġco herent
Ġrec ord
Ġem p
Ġmech an
Ġformal isms
Ġrandom ized
ĠAl so
Ġrestric tions
Ġcondition ing
Ġbecom ing
R NN
p o
t ors
Ġa id
di ents
Ġco al
Ġdec oding
Ġmost ly
Ġmar ri
cept ual
Ġinduc tion
Ġfrequ ency
Ġdifficul ties
Ġmodal ities
Ġstor age
e per
g rained
i vely
Ġt ell
Ġb rought
et a
ec ause
Ġal le
il arities
ĠW ickham
um e
Ġun labeled
act ed
Ġph ilos
Ġfac es
Ġcooper ation
Ġcomplement ary
Ġtransport ation
ĠIns pired
M R
a ut
b ody
Ġs light
Ġf ill
ic ity
un c
Ġst e
Ġst re
Ġstr ict
Ġcomm onsense
Ġben e
ĠRe g
Ġbeg in
ĠColl ins
C B
l en
r ast
Ġd ram
Ġr anging
Ġset up
ici ous
Ġexten ding
ĠQ ues
Ġintegr ates
Ġtop ology
Ġcapt ured
chron ous
G A
s p
Ġ &
Ġs il
Ġg ains
pos es
Ġdi ver
Ġmeasure ment
Ġ` `
Ġpen al
e ff
he l
en berg
Ġw ent
le t
et te
Ġal though
Ġle a
Ġcomp r
ĠB esides
Ġag reement
rib ution
Ġrec all
Ġsearch ing
Ġoper ational
Ġcaus ality
Ġformal ize
Ġcre ation
Ġcoun t
Ġproduc ts
Ġreview s
Ġforec asting
Ġcorpor a
c are
s ess
u ation
ĠD ue
Ġar tif
ple x
ang er
Ġpo ol
Ġso le
ĠEx pl
ĠAn alysis
Ġlocal ization
Ġinterest ed
Ġtop ological
Ġcolle ct
ĠCh apter
Ġcar ry
Ġexpect ation
Ġaudi o
Ġteac her
a ive
r uct
Ġb ar
Ġac yclic
Ġad ver
ĠP R
ĠR el
Ġtarget s
Ġdepend ence
mod ular
ĠEmpir ical
B N
C L
M P
o tion
it es
Ġv ocabul
Ġac cep
Ġexp ressi
Ġdo ub
Ġgiv ing
Ġbi om
Ġutil ized
Ġadop t
Ġfav or
IF AR
Ġalle vi
A n
] .
l ds
m ann
un ed
um ul
ĠO r
ampl ing
Ġaddress ing
Ġdra wn
valu e
Ġconcern ed
Ġcustom ers
Ġsw arm
Ġsymmet ry
Ġinstr uctions
Ġphenomen on
rast ruct
' '
L I
^ {
f old
g u
is hes
ed ical
us ing
ĠC omm
Ġsol ves
Ġform at
wor ds
Ġbl ocks
air s
Ġdri ven
Ġappear ance
Ġstrength s
Ġanom aly
E T
I t
Ġn et
Ġpro s
Ġcon junction
em ber
Ġr ise
ĠC art
ĠD RL
ap h
ĠH uman
Ġinte ger
tiv ated
ind ependent
Ġprinci pled
Ġdiagnos tic
Ġground ed
paramet ric
Ġcustom er
Ġimpos sible
% .
M O
l ambda
v als
en ed
es ts
el ines
ut enberg
ra dient
Ġsim ilarities
Ġpartic le
Ġsupport ed
Ġcorrect ness
Ġstream s
Ġchec k
Ġauth ors
Ġopportun ities
tex tit
E C
r or
Ġs omething
Ġde vi
Ġab ilities
Ġsub jects
ensi tive
Ġinterven tion
ĠComp ared
l ife
on es
Ġf ron
Ġth reat
Ġex ceed
ĠIn te
Ġun structured
Ġdif fer
Ġcons cious
Ġfin ally
Ġimplement ing
Ġspecific ations
pro ble
ĠRec urrent
Ġexploit ation
Ġconstruc ts
Ġemerg ence
Ġrecogn ize
Ġorgan ization
Ġthous ands
Ġmic ro
ĠOnt ology
G B
or ough
Ġp seud
ec tions
Ġwh om
ain t
Ġse ems
Ġad equ
ĠC NNs
Ġprov ing
Ġver tices
Ġstrateg ic
Ġmaxim ization
Ġconn ect
Ġabstr actions
Ġinfer ring
Ġfactor ization
Ġmotiv ation
Ġdr ug
Ġactiv ation
Ġinn ov
Ġt en
ro xim
Ġm erging
et her
Ġcomp l
Ġdisc ourse
sequ ence
Ġsubs ets
Ġaggreg ate
ii i
Ġcontroll ers
Ġgain ed
wh ich
Ġinconsist ency
v able
Ġa ver
Ġsu re
Ġne arly
ĠM NIST
ĠC IFAR
ĠB ecause
Ġrep orts
Ġrec ords
oun ding
Ġpos itions
Ġexten sively
ĠAd versarial
Ġmess ages
Ġsatisfy ing
ĠPl anning
I I
M I
c y
c ritic
p ur
in ent
Ġd ense
Ġre tain
Ġth orough
ĠA g
Ġun b
Ġstudy ing
Ġuseful ness
Ġexploit ed
Ġspecial ized
Ġsummar ization
m ax
Ġin ferences
Ġm ac
Ġdisc overed
Ġpri ors
Ġinterpre ted
Ġref in
Ġspeed up
Ġintu ition
Ġpriv ate
Ġmove ment
Ġmembers hip
Ġmill ion
Ġremark able
ĠProb abilistic
raf ted
Ġcrowds our
Ġc hem
Ġh ours
Ġh orizon
Ġpropos als
si bility
te in
ason ing
strain ed
Ġmat ter
Ġapproxim ately
Ġinvestig ates
Ġinf rastruct
Ġmed i
Ġsee k
Ġprec isely
Ġconsum ption
ĠGP U
Ġpure ly
2 00
} .
Ġo rient
Ġc odes
Ġm ental
Ġre play
Ġcon ject
os p
Ġv oice
ĠD NNs
Ġsc r
ĠR DF
Ġcons ensus
ĠN atural
Ġph ot
ear l
Ġscal ing
Ġexplo res
Ġavail ability
Ġiter atively
Ġplaus ible
Ġemb od
C N
F s
r ang
t yp
Ġf ix
Ġb ur
il ing
Ġv ast
ĠM ax
Ġco vari
Ġnot e
Ġoptim um
Ġdevelop ments
Ġautom ata
Ġutil izes
Ġconver ges
Ġquanti f
pro pagation
ĠY et
Ġland sc
Ġphilos oph
L STM
o ti
s pec
ti se
Ġp ed
Ġc ity
is p
Ġg a
Ġcon volution
Ġlearn ers
ĠA m
Ġsh ift
ĠM od
Ġar c
Ġman age
Ġcho osing
ffici ently
Ġrun s
Ġday s
Ġevol ving
Ġprefer red
ĠLy dia
C R
n ers
u ble
Ġa w
Ġm ist
pos ed
ĠB e
Ġmo lec
Ġmulti agent
ĠG utenberg
Ġassum ed
Ġcre ative
Ġext ra
Ġassign ments
Ġgr asp
Ġlet ter
W e
le y
Ġpro jection
Ġg ather
Ġen umer
Ġdifferen tial
Ġgra dients
Ġfocus ing
Ġaim ed
ĠNe w
Ġsampl ed
Ġemploy ing
Ġdev ice
Ġexam ined
Ġcentral ized
Ġemerg ed
Ġspect ral
Ġmass ive
t ree
} ,
tic ip
ĠA cc
Ġwork ers
Ġpr ice
Ġact ually
Ġdiscover ing
Ġpass ing
Ġexpon entially
Ġmut ual
Ġhol ds
Ġconclusion s
% ,
D M
N D
id able
Ġmod ification
Ġsh o
di tive
ĠC T
ĠD ynamic
ĠP r
Ġfound ation
Ġsatisf ies
Ġacqu ire
Ġmor ph
Ġprotoc ols
b s
l ik
st ate
Ġsp read
ell ed
Ġdec oder
Ġcomput es
Ġsimpl ified
ĠMan ette
Ġprof ession
Ġgrow th
paramet ers
Ġobser ving
Ġguid ance
Ġpersonal ized
Ġinvari ant
Ġcircum st
Ġbene ficial
ĠQues tion
S L
] ,
r ich
Ġh us
ĠA L
ign ed
ĠP ross
Ġhe ar
ĠR andom
ĠH ierarch
Ġdis play
Ġy ear
Ġlimit ation
Ġemploy s
Ġexplain ing
ĠSt ate
Ġreturn ed
ĠGener ative
Ġcorrel ations
P OMDP
d is
h op
i pped
r ight
y mmet
Ġst ages
Ġmod e
op hic
hes s
enc ed
wor d
Ġproduc ing
con vex
Ġiter ations
Ġenh anced
ER T
Ġreve als
Ġtax onomy
Ġalgebra ic
E L
en g
Ġp uzz
il ies
Ġle ave
Ġad vers
Ġdis junctive
ĠN ext
Ġany thing
Ġautom ation
ines e
Ġbuil ds
Ġinterpret ations
Ġide al
Ġemo tions
Ġprotoc ol
i tives
s ource
Ġf ault
Ġre ally
un g
pp ort
Ġres idual
ĠP ri
Ġpredic ts
Ġsub sequ
Ġunc le
ros ophic
Ġeng ines
Ġnecess arily
Ġ201 8
Ġacqu ired
Ġinfer red
ĠAut o
Ġdiag ram
r um
ro up
Ġf lu
ent ang
ul um
ot ed
Ġcan cer
ĠB elief
Ġhe a
Ġcomput ers
Ġexper tise
Ġsimul ate
Ġprior itiz
Ġupd ated
Ġcommunic ate
Ġexplain ed
Ġpass ed
Ġelect ronic
Ġpreser ving
Ġport fol
j oy
u fact
re al
Ġp ain
ĠP redic
ĠN ash
are to
Ġlog istic
Ġwor lds
Ġma x
con n
Ġfollow s
Ġcle arly
Ġcell s
Ġcyc le
Ġrelax ation
Ġdecre ase
P L
S R
\ '
c ons
k en
l ig
on y
Ġd am
Ġm im
Ġb in
om an
ac les
id ent
ĠM I
ĠM emory
Ġk n
ĠD i
ten ance
ĠE volution
Ġ1 2
Ġprac tition
Ġtheore ms
Ġte aching
ĠCh inese
Ġweak ness
Ġsystematic ally
Ġabs ol
Ġanom al
Ġlif ted
Ġgramm ar
Ġbott len
Ġstraight forward
Ġvocabul ary
E M
V R
f aces
Ġp us
res olution
our n
Ġestim ator
Ġprior i
Ġsuit ed
Ġcollabor ation
Ġsw it
Ġimplicit ly
Ġabs ence
Ġpiec es
ĠMo tivated
Ġdaugh ter
Ġt ab
or tion
ar se
Ġm id
Ġm ys
Ġto day
Ġen joy
ĠP areto
Ġsc ope
Ġdec ades
Ġrel ate
Ġunc on
Ġcorrespon ds
Ġfam ilies
Ġ-- -
play er
off s
Ġcomprehen sion
Ġkernel s
Ġaugment ed
Ġimm une
ĠCart on
g anis
p an
ay s
Ġimp rec
Ġat tain
ĠN ot
Ġmo v
Ġpos es
Ġpos sess
Ġcomm it
Ġcol or
Ġloc ally
Ġuncertain ties
Ġweak ly
Ġess entially
ĠModel s
Ġcare fully
Ġaugment ation
Ġsymmet ric
Ġredund ant
Ġbrid ge
Ġhistor ical
g le
t emporal
Ġc oding
Ġl ines
un der
ĠT D
Ġac ad
Ġor dered
Ġch at
Ġtr aces
ĠE ven
ob serv
Ġoutperform ing
Ġsatisf ied
Ġemo tional
Ġconcern ing
Ġhealth care
medi ately
Ġremain ing
Ġfra gments
Ġrefer red
Ġmal ware
Ġcompil ation
Ġbrief ly
pur pose
Ġmys elf
Ġd ark
st age
Ġsu fficiently
Ġde le
Ġint ent
ĠD ifferent
Ġro und
Ġcomple teness
Ġenti rely
Ġschem a
Ġpopular ity
Ġsepar ation
Ġincrement ally
Ġrefle ct
Ġquad ratic
Ġrigor ous
Ġhea vi
O S
e k
f itting
Ġt empl
ar p
Ġpro jects
Ġim mediately
uc tive
ĠS ub
Ġper ceptual
ĠC ons
ĠH is
pec tives
Ġproper ly
ĠV isual
Ġencod ings
Ġsymb ols
Ġexhib its
Ġdise ases
Ġcompet ing
Ġlex ical
Ġdifferenti able
Ġimper fect
rele vant
Ġstim ul
$ \
B S
s ed
s ol
Ġt ensor
he st
he rence
Ġm otor
Ġre lying
ĠA b
Ġhe ard
oun ting
Ġpresent ing
Ġdesign s
Ġpers pectives
Ġstat us
Ġacceler ate
Ġleg al
E N
O T
W hat
w it
Ġth inking
Ġl ove
Ġmod es
Ġapp ears
arn ay
ĠA G
ĠD arnay
Ġvis it
Ġsur face
Ġstrong er
Ġele g
Ġillustr ated
Ġ201 7
Ġprim itive
Ġlo ad
Ġinters ection
d le
he du
Ġh on
Ġsu ite
ren cy
ĠM ean
ĠN on
duc tion
olog ically
Ġhigh l
yn chronous
uil ding
Ġcontinuous ly
Ġocc up
Ġcri tic
Ġimpl ies
Ġ5 0
Ġguid ed
Ġdraw back
wh at
Ġelimin ation
Ġopportun ity
Ġsubsequ ent
hedu le
f ield
f unction
t ation
t able
ar med
Ġb u
Ġex empl
ĠA c
og le
Ġor acle
Ġk new
ĠH y
Ġanaly tical
ire ctional
ast ro
Ġparamet ric
Ġimportant ly
Ġequ ally
Ġpur poses
Ġbro ther
Ġprof ile
Ġcoordin ate
Ġey e
pass ing
Ġinconsist ent
Ġambig uity
ios ity
Ġhus band
t m
vel oper
Ġpropos ing
Ġro ute
oun ted
ĠL inear
Ġform ation
Ġover head
Ġother wise
Ġmat ches
Ġmat roid
Ġobserv ational
com ing
Ġsto red
mit ted
Ġprison er
Ġpractition ers
B M
Ġ ultim
Ġt empor
Ġw ife
Ġd ur
Ġre writ
Ġcon v
un t
am ma
pos it
Ġper haps
Ġinter vals
Ġcaus ed
Ġdistribution al
Ġins ide
Ġexec ute
anc ial
MDP s
ran k
C o
m al
Ġ .
Ġan s
Ġd ate
ar ity
ac ies
Ġex cl
Ġmod ify
Ġint en
Ġun f
Ġsc hedule
Ġprov ably
ĠL a
Ġnew ly
Ġoptim ally
ribut ed
Ġmed ic
Ġdri ver
Ġsepar ately
Ġavoid ing
Ġconvers ations
go ing
Ġpoor ly
Ġspok en
o T
Ġp ress
Ġw on
Ġin duce
il istic
um ing
Ġse gments
Ġcl i
Ġop tion
ĠL ady
ward s
Ġobtain s
Ġsk et
ĠDes cription
task s
Ġspect rum
Ġneu ro
Ġcy ber
ĠAm ong
B C
L U
a ren
Ġw oman
Ġb it
om ic
im ent
od ers
ul ates
Ġg one
Ġun like
Ġse ve
ĠE M
Ġro les
Ġman ufact
ĠG ame
Ġnon monotonic
su b
Ġequ ation
Ġformul ations
ĠV QA
Ġ3 0
Ġneg oti
Ġcred it
' ,
H R
O N
i pl
u its
Ġ ub
Ġc as
Ġb ad
od ic
Ġde ad
Ġde veloper
Ġdist ances
tr y
Ġmeta heuristic
Ġwal k
ĠMet hod
Ġidentif ies
Ġadvers ary
e arch
t a
Ġw ire
Ġn ets
Ġmod ifications
ĠS ol
op ic
Ġlar gest
Ġdef ines
ish ing
wh ile
Ġmor ning
Ġfra gment
Ġkeep ing
ĠRep resent
Ġheavi ly
Ġub iqu
s ensitive
Ġf ire
Ġf oot
le arn
Ġpro ceed
Ġwe ighting
iz able
Ġlearn t
Ġne ither
ĠIn ference
Ġint ention
Ġad m
Ġco arse
Ġdis til
ans w
Ġpre m
ĠG ene
Ġdisc ipl
Ġanaly se
Ġsub modular
Ġser ious
Ġshort est
Ġturn s
dec oder
erc ial
Ġeduc ation
Ġcompati ble
ĠImage Net
Ġsole ly
aren ess
O I
in ality
Ġc ues
ith me
ĠI s
Ġper cep
ĠF e
ĠP earl
Ġdis entang
est ri
Ġmulti plic
ĠCon sequently
de ed
Ġcri ed
Ġaff ected
Ġneighb ors
Ġcur ric
Ġneur on
umul ative
C M
on ical
Ġm ask
le ction
Ġl ies
am p
ĠM O
Ġper su
Ġat oms
Ġar ises
Ġag ree
Ġdec iding
we red
aus al
Ġexp ans
rol og
Ġcap tion
Ġ1 5
Ġthrough out
Ġpur su
Ġdiscrimin ator
Ġextre me
Ġcorrel ated
S M
c ip
e ur
g ate
y th
Ġa ge
Ġp ict
Ġf ed
em per
qu es
Ġde als
Ġim aging
Ġac ts
ĠM ar
Ġad ditive
ous tic
Ġver tex
ip edia
Ġid en
Ġformal ization
Ġcost ly
omm od
Ġvalid ity
Ġcategor ical
Ġ201 6
Ġartic les
Ġread ily
Ġdown stream
Ġda ily
Ġpiec e
Ġscr atch
Ġportfol io
C F
C SP
E n
S D
c or
Ġt ables
or row
Ġp ick
ic ated
Ġde eper
ap tive
act ability
Ġprom inent
eti tion
Ġexplain able
agnos tic
Ġassign ed
Ġneighb our
Ġfilter s
Ġpseud o
G E
w here
in er
Ġan ticip
Ġd anger
Ġl ive
Ġl abor
Ġse arc
Ġmethod ologies
ĠD isc
Ġtr ace
Ġout line
Ġconc ent
Ġpers ist
Ġprin cip
ĠMC TS
Ġclaim s
Ġsurprising ly
determin istic
N A
P R
Ġt ac
at t
Ġin su
ĠT yp
id el
Ġun directed
Ġcl ause
Ġacc ommod
Ġanaly tics
Ġmin utes
Ġlat er
Ġassum ing
Ġcre ativity
Ġfac ial
Ġser ves
ins pired
Ġcal ib
ĠSt ar
Ġmathem atics
Ġcur iosity
Ġdraw ing
Ġsuperior ity
Ġevol ve
Ġclassify ing
Ġcyc les
Ġwrit ing
Ġvol ume
ĠMa xim
Ġutter ances
Ġaccep ted
Ġmac ro
Ġinfrastruct ure
. )
B O
y ing
Ġa ware
ow s
ĠW ord
ĠD uring
Ġcall s
Ġquanti zation
Ġbound ary
Ġcalcul ated
Ġoccur s
ĠProcess es
ĠComput ational
Ġpsych ology
Ġattr acted
Ġlaw s
exp ected
Ġrating s
Ġdram atically
C E
b oard
i ency
p e
Ġthe sis
Ġd iction
Ġn aive
Ġh op
Ġh arm
ĠS y
Ġsp ir
Ġmo ves
Ġfin ancial
Ġcompar ative
ĠRe asoning
Ġdri vers
Ġdiscrimin ation
Ġwr ong
Ġbran ch
Ġlandsc ape
Y es
c ertain
Ġs ch
Ġm er
us ive
Ġfor ce
ĠI ts
Ġsy m
Ġor ganis
ag er
ĠB l
ĠB uilding
ĠE valu
ex per
Ġass er
Ġreal ity
the less
Ġestim ators
Ġmaxim al
Ġlay out
Ġprof it
Ġinterven tions
Ġexc ell
Ġfr action
Ġphr ases
norm al
An d
Ġped estri
idel ity
B A
c rafted
d own
e tic
m ic
p redic
Ġ x
Ġt ro
at ter
Ġf elt
Ġm aster
Ġre posit
Ġh ur
Ġas ymmet
ĠM y
rain ing
ĠD QN
ep t
ular ity
Ġass emb
Ġwhen ever
Ġlog s
Ġnon e
Ġsuc ceed
Ġhig hest
Ġsimpl icity
Ġexpress ing
Ġfav our
Ġmal icious
Ġauto encoder
ĠAnsw ering
ĠTra ditional
Ġseem ed
astro phic
Ġans wered
N P
U C
b ut
Ġt emper
Ġs ort
at ures
Ġw it
Ġan t
Ġb ook
Ġpro xim
ĠT emporal
am big
ren ch
ĠM adame
Ġsc re
Ġpredic ates
Ġ2 6
Ġrele ase
Ġincorpor ated
Ġfail s
Ġopp osed
Ġlink ed
Ġscienti sts
Ġinherent ly
Ġaccept ance
Ġcou pled
Ġperce ived
ĠWik ipedia
Ġrefin ement
ĠHierarch ical
D NN
a pping
Ġ =
Ġc ope
Ġw orth
Ġf ig
Ġl ad
Ġim it
Ġint ensive
Ġac ting
ĠS oft
Ġpropos itions
ĠC ather
ie ur
ard s
Ġknow ing
Ġout side
Ġcomm ercial
erm an
Ġindi rect
ĠCom b
Ġtri ple
Ġcondition ed
Ġbehaviour s
Ġreturn s
ĠSecond ly
ograph y
Ġneut rosophic
Ġinten tions
ĠCather ine
c he
e v
h aus
Ġa ffor
Ġc ities
Ġin qu
Ġto ld
Ġcon junctive
ĠThe ore
Ġen for
ĠC or
Ġch ains
ĠF r
ech n
Ġdec ade
Ġcontrol ling
ĠU ni
Ġbi ased
Ġstatis tically
Ġinclud ed
Ġautonomous ly
ĠWith in
Ġindic ates
Ġprof iles
igm a
emb les
Ġpartition ing
Ġperturb ation
Ġaccept able
Ġlex ic
ĠLuc ie
Ġasympto tic
Ġbiom edical
Ġmim ic
E x
T D
d ist
o om
Ġ ing
Ġs ir
Ġst ationary
Ġne arest
Ġac oustic
Ġar ithme
ĠR NNs
ĠE v
Ġpre v
Ġadap ting
Ġadap tively
Ġrele ased
Ġfail ures
Ġcirc uit
Ġconflic ting
Ġrational ity
Ġreconstr uct
Ġequilibri a
ĠStr uct
proble ms
a ff
f in
ti fied
Ġw ine
Ġb oard
Ġre active
Ġl iving
ol ds
Ġst ore
ĠO f
Ġdet ected
ile mm
Ġdef ense
Ġful f
Ġocc asion
Ġexec uted
Ġarbit r
Ġsumm ary
Ġmention ed
Ġhundred s
Ġoppon ent
Ġartif acts
Ġcircumst ances
_ {
e le
h uman
it ous
Ġpro tein
Ġch ance
ĠTh ree
end s
Ġspec ifying
Ġreg ul
Ġ2 5
Ġlat tice
Ġdri ve
Ġmon otonic
Ġfeel ings
Ġspl it
Ġobst acles
ĠCr unc
Ġcoal ition
Ġexcell ent
ĠCrunc her
d oor
Ġc hess
Ġf ing
Ġe ase
Ġst ri
for d
Ġv ag
Ġar ising
Ġcharacter s
Ġtri ples
vari ate
Ġavoid s
Ġrepl ied
B R
e e
r is
r ical
re w
Ġf lo
ur y
Ġfor t
Ġg ot
ver y
ĠThe ir
Ġcan onical
ĠTh ird
ram e
Ġoptim a
Ġwork flow
Ġdo uble
iel ding
pre ad
ĠAl pha
Ġtarget ed
Ġmis sion
Ġguid elines
Ġhapp y
Ġpsych ological
Ġwr ite
Ġgentle man
Ġexpressi veness
Ġbottlen eck
ĠGene tic
S I
T M
l ot
} )$
re p
et he
ig ms
Ġbe gan
Ġmod ality
ĠS L
Ġrep air
out put
Ġgra du
Ġprocess ed
Ġmak er
Ġnovel ty
Ġapproxim ating
Ġequ ipped
Ġtheore tic
ĠAs s
pro duct
Ġ201 5
Ġtri al
Ġclos ure
Ġweb s
Ġenab led
oot st
Ġneu ros
Ġaxiom ati
Ġcompan y
Ġdiscre tiz
Ġcurric ulum
o vers
z ed
Ġt ill
at he
Ġin her
Ġpro hib
st ationary
Ġwh ite
ĠB i
ĠN ow
Ġconc urrent
Ġcorre ction
ĠCon trol
Ġtree width
Ġintr usion
Ġcle an
ĠSim ilar
Ġple asure
Ġpixel s
Ġeconom ic
Ġallevi ate
Ġcrowdsour cing
Ġembod ied
F S
u ly
in te
re es
Ġin equ
Ġg old
ĠT ime
Ġex haus
Ġwe ather
ĠS elf
ĠS to
ag raph
Ġinter faces
Ġsignific ance
Ġsequ entially
ons ieur
Ġra rely
Ġfound ations
Ġsymb ol
Ġcirc uits
Ġconnec tivity
Ġreveal ed
Ġresol ve
Ġtry ing
Ġbott om
Ġfa ith
Ġcat astrophic
Ġmitig ate
Ġwire less
1 2
A G
B Ns
D RL
p ati
s hel
w w
Ġt ut
Ġin feasible
Ġd ro
Ġre form
Ġre ached
ac cur
ri tical
Ġun able
ĠS m
ĠC an
ĠD et
Ġy ielding
ĠG e
Ġrequ ests
ĠK G
par ts
Ġassum es
Ġdev ise
Ġtre ated
Ġsal iency
Ġiden tical
Ġarbitr arily
) ;
E D
a rent
l ide
ti ous
Ġof fic
ent ally
Ġre use
ac ement
Ġv ital
Ġun des
ĠS VM
ĠS atisf
ĠC F
ĠC O
ĠTh ough
ak es
Ġar ms
Ġcomput able
ĠN L
th rough
Ġquery ing
Ġpres erv
Ġinitial ization
ĠRes earch
Ġnavig ate
Ġreach ing
Ġbroad er
Ġshall ow
Ġfriend s
gener ated
Ġmill ions
Ġspeak er
Ġsus p
Ġconscious ness
Ġabsol ute
Ġimprec ise
Ġubiqu itous
C on
E A
a o
Ġw ater
as i
Ġth ing
st yle
Ġg ave
per son
Ġas ynchronous
ĠA ct
ad ing
Ġcont rad
Ġco herence
ĠG ard
Ġver ified
Ġpo in
ven ue
Ġ1 6
Ġidenti ty
Ġph ases
Ġins pir
Ġpredict or
Ġassess ing
ne aling
Ġgrow s
Ġtransl ate
Ġopin ions
graph s
ĠPOMDP s
po ints
cons uming
shel f
M D
c tively
er ry
le ments
Ġb all
Ġh our
Ġl ost
Ġg ender
Ġon going
Ġst y
ĠS ur
ĠB N
ĠN ever
Ġover fitting
ill ance
Ġgeneral ity
Ġwor se
tr acking
Ġ1 8
Ġhierarch ies
Ġloss es
mb olic
Ġcontain ed
Ġparad igms
Ġsynthes ize
Ġfacilit ates
Ġinstr ument
Ġpossib ilistic
Ġded icated
Ġrecover y
Ġelic itation
Ġmanif old
Ġexpans ion
1 5
c ulation
Ġc ult
Ġf ell
ra w
Ġon to
Ġun expected
ĠB ERT
ĠH orn
Ġthan ks
Ġfunction ality
Ġextr acts
Ġquanti fied
Ġsit es
Ġens uring
Ġnecess ity
Ġel se
ĠFirst ly
Ġaccess ible
Ġreli ably
Ġhtt p
ĠComput er
Ġnor ms
Ġplaus ibility
Ġeduc ational
ĠRob o
Ġpred efined
C G
P T
m at
u ing
in formation
or g
or ph
or ld
Ġc ast
Ġw ild
Ġl ives
Ġcomp ens
ĠA PI
ĠIn deed
ep th
ĠG radient
Ġes c
Ġconsider ably
Ġsele cts
Ġaim ing
Ġquanti fication
Ġhelp ful
Ġris ks
Ġrece ive
Ġcorrespond ence
Ġdeliver y
Ġpropor tional
plex ity
Ġchem ical
) -
R M
T h
m ar
r ate
Ġt um
or ation
Ġm ine
Ġb ip
ent y
Ġl ady
ĠT wit
uc lide
og en
ight ed
Ġ1 1
Ġbi ology
Ġsubs tit
Ġsubs pace
Ġuni qu
Ġcal culation
Ġtre m
Ġprim arily
Ġhyper parameter
Ġnormal ization
Ġpreser ve
Ġcard inality
Ġtempor ally
uclide an
l im
n o
r t
u el
y ver
on ym
re x
Ġc umulative
as ive
ul tic
pp ings
se ign
pl ing
Ġimp lements
Ġform ed
ĠN umer
Ġdem ands
Ġsub optimal
enc ing
Ġvis ually
Ġcre ates
av y
Ġview point
ĠCh allen
Ġtri als
sh op
Ġrepl ic
Ġsugges ting
Ġmor al
ĠGAN s
Ġcompan ies
Ġnar row
Ġoutl iers
Ġord inary
Ġmanufact uring
seign eur
U S
r as
t uning
im otor
Ġh in
Ġcon ce
Ġst ack
Ġcomp ares
ĠC NF
Ġimp ressive
Ġinc lusion
ĠE s
Ġem erge
Ġbelie ved
Ġsuccess es
Ġent er
Ġel abor
Ġprim itives
Ġinform ed
Ġtrade off
Ġemerg ent
ĠStr yver
Ġambig uous
Ġvers ati
Ġshap es
ĠDat alog
Ġdiver gence
ĠPri or
Ġweakness es
Ġarithme tic
E E
\ "
f irst
m achine
Ġe ight
Ġn ested
ĠT ell
Ġst ood
ĠI ter
ĠS ocial
Ġtr ig
Ġvari ability
ĠL ast
Ġgeneral izing
Ġcomm ands
Ġcol d
Ġj o
Ġclassif ied
Ġcoun try
Ġrespon sible
Ġglob ally
Ġwid th
Ġtransform ed
Ġorgan izations
Ġsymmet ries
Ġbal ancing
inter pre
ĠChar les
Ġtail ored
Ġconject ure
Ġacad emic
Ġwit ness
P s
R U
a fe
n on
p res
r aries
s ets
v iron
Ġin efficient
un ds
ĠT ask
Ġcomp rom
Ġapp arent
Ġsc rip
ĠR E
ĠR GB
ĠV alu
Ġclos er
Ġdr ift
Ġassist ance
ĠProcess ing
Ġderiv ing
Ġbr ings
Ġattr active
Ġencour age
Ġencoun tered
Ġinsu fficient
Ġdiction ary
' .
B F
M AP
R C
Ġt rip
Ġs ing
at s
Ġd ilemm
le ep
Ġn ames
Ġst ay
if ference
Ġv s
ir l
iz ers
um p
ĠD is
Ġhe avy
Ġpre processing
Ġmulti variate
Ġprob able
Ġma ppings
Ġph y
Ġadap ts
Ġmain tenance
ĠV ide
Ġfac ed
Ġcategor ization
ĠSe qu
Ġadop tion
Ġcounter part
Ġmut ation
Ġencour aging
Ġredund ancy
Ġtren ds
Ġslight ly
Ġprincip al
Ġneuros cience
1 00
i ased
s em
Ġt u
es ting
ed y
Ġin ver
ĠI S
am ent
Ġse am
ĠS E
ad ays
Ġpar agraph
ĠP o
si b
Ġinter p
Ġdec ep
ici ans
Ġacc um
Ġmak ers
Ġcor rup
ĠK ey
Ġformal ized
uster ing
Ġeven ing
Ġra re
ys ical
Ġcompos ite
lo op
Ġdetect ors
Ġsensor imotor
Ġsurve illance
ĠCP U
Ġlin king
Ġthous and
Ġchild ren
Ġmarri age
Ġbar ri
Ġadequ ate
ĠEvolution ary
Ġgradu ally
ĠTwit ter
D T
c onsist
g rams
Ġt we
el ess
ĠT ext
Ġex erc
Ġdes t
ĠH um
Ġknow s
enc oders
Ġont ological
Ġcolle ctions
ĠNe u
Ġact ors
ĠJ erry
Ġtransfer ring
Ġpe er
Ġoccur rence
Ġmanipul ate
Ġloop s
Ġlib raries
ser ies
Ġtermin ation
Ġchannel s
Ġmaterial s
ĠSu pport
Ġsurro unding
effici ency
ĠSto chastic
D C
c ritical
h ol
Ġa f
on ly
Ġc iv
Ġb ag
Ġpro ver
ol l
Ġst ead
Ġim mediate
ad ata
Ġper cent
ĠD S
ĠB ell
ak er
Ġar rang
Ġro ot
Ġcons erv
Ġacc ounts
Ġ1 4
Ġsupp ly
Ġenc odes
one y
Ġrev is
Ġref ined
Ġsee ing
Ġopp os
Ġcalcul ate
Ġdeg ra
Ġcounter parts
Ġquantit atively
Ġjud gments
Ġperfect ly
ĠUnder standing
Ġphr ase
Ġdoub t
Ġdeveloper s
N S
R e
g roup
j oint
w orth
at tention
Ġg est
Ġcon ve
id enti
ĠI C
ĠA V
Ġim bal
Ġun n
Ġres pective
feren tial
der ing
Ġpar ty
Ġag o
Ġinc ur
Ġinter ference
Ġtrain s
Ġarchitect ural
ĠPro pagation
Ġenc om
Ġcharacter izing
Ġbenchmark ing
Ġexperiment ation
Ġspati o
ĠGo ogle
Ġpol i
Ġappe aling
Ġsurro gate
19 9
Ġtren d
Ġaccompl ish
Ġtranspa rency
Ġrecord ed
ĠAcc ording
POMDP s
Ġsym pt
N e
h ouse
m en
n os
r ated
r ange
u tive
ti ally
el s
Ġcon form
ch o
ĠA ND
Ġpa id
ak en
ĠO F
Ġstr ing
Ġstr ug
ĠF rench
ĠR O
Ġtr actability
Ġinc enti
ĠL ocal
ati al
Ġaut onomy
Ġdevelop s
ĠV ector
Ġminim ax
Ġmaxim izes
Ġquanti ties
Ġrespon d
Ġiter ated
Ġaggreg ates
Ġparad ox
Ġdeterm ines
Ġsugges tions
Ġrecogn ized
DD s
ĠSim ulation
Ġwin ning
IM E
Ġmedic ine
Ġseam less
I L
S t
b f
d epth
i ously
Ġs hed
or phic
al pha
Ġb ed
Ġg irl
Ġcom fort
Ġsh if
Ġmet adata
Ġad versari
ĠC A
act ory
Ġpredic ate
Ġbeha ve
Ġgu ard
Ġprac tically
Ġminim izes
Ġpotential s
Ġcertain ty
Ġincor rect
ĠAut onomous
Ġrecogn izing
Ġevol ved
Ġconflic ts
Ġformula e
Ġanalog y
ĠAlgorith ms
Ġaccom pan
sim ilar
reg ular
ĠMin im
Ġaver aging
conn ected
Ġnegoti ation
Ġtrem end
* *
F A
q rt
Ġs ac
Ġin ner
ar ith
Ġb ootst
od ies
Ġst ories
res sively
os es
ĠA gent
ĠD R
ĠD o
Ġco vers
Ġexpl ains
the n
Ġrequ est
Ġany time
Ġinterest s
Ġback propagation
Ġhard ness
ĠJ ac
Ġtransfer red
Ġaff ection
Ġmon th
Ġassign ing
Ġsci ences
Ġrout es
Ġcarri age
GAN s
ĠMet a
ĠOver all
ĠAutom ated
Ġfron t
ĠNever theless
2 0
H e
M Ms
P G
f ounded
g a
l in
n ets
o le
v ec
w in
Ġ {
it able
ter ing
Ġv an
um n
ap tic
ĠP rac
Ġmulti lingual
Ġsub go
ress ing
ĠCon cept
Ġrem ove
Ġbound aries
Ġprom ote
ST Ms
Ġchang ed
Ġdetect or
Ġnorm ative
Ġ4 0
Ġremain ed
Ġ19 8
Ġconstit ute
Ġelement ary
Ġrepro duc
Ġhar der
Ġstrict ly
aph r
Ġcaption ing
Ġsearc hes
ĠChallen ge
ĠHum ans
M y
a ving
h orizon
Ġ +
er t
ro om
Ġw all
Ġw ave
Ġm ultic
Ġl ists
ol t
Ġ( "
iz zy
og ether
Ġac tively
Ġen rich
Ġse ed
ĠS w
ten ded
ĠE uclidean
Ġsub class
Ġapproxim ated
oo ks
ĠV e
ĠOn line
com ings
Ġhard ly
Ġtechn ological
Ġexec uting
Ġpost ulates
Ġshort comings
Ġyour self
Ġrestric t
Ġconsequ ently
Ġranking s
Ġbre ast
Ġpossib ilities
ĠTrans form
writ ten
Ġsal ient
Ġutter ance
Ġphilosoph y
Ġprofession al
Ġmov ie
Ġdistil lation
N E
O h
S e
V I
d isc
m u
er ving
es pread
Ġw omen
Ġcon duc
ĠS MT
Ġob vious
Ġar ray
ĠF O
Ġco inc
Ġrec on
ĠL at
Ġanaly tic
Ġevalu ates
Ġcor ner
Ġbel ow
Ġobserv ability
elf are
Ġinterpre ting
ĠQ ual
Ġaff ects
Ġwid espread
Ġhyper parameters
ĠMon seigneur
Ġdr astic
Ġsummar ize
Ġeth ics
ĠIntern ational
Ġvulner able
tin uous
Ġstimul i
Ġdur ation
Ġseve re
Ġdiscipl ines
5 0
C NNs
N L
a head
c re
f rac
s qrt
Ġa uction
ti ble
Ġs oc
Ġto ler
Ġg athe
Ġcon ges
Ġun re
Ġun ifying
ĠM onsieur
ad vant
Ġad mis
ĠD ialog
ple teness
ĠL ink
Ġpre val
Ġme rely
Ġsa ving
ub e
Ġadv ice
par ation
Ġlimit ing
Ġlinear ly
Ġproced ural
Ġsubs um
Ġran ked
Ġmon ot
Ġtri es
Ġtri ang
me ans
Ġqualit atively
ogene ity
Ġestablish ing
Ġexpect ations
pass es
Ġign ore
Ġtal k
Ġbran ching
Ġorigin ally
Ġtranspa rent
Ġeleg ant
ĠGard iner
Ġgathe red
" )
N LP
c o
at tern
Ġw at
Ġb ounding
Ġun dec
ĠS ampling
ĠC I
ĠC al
Ġob lig
Ġdis ag
Ġwork load
tr ans
Ġ1 3
Ġsyn chron
Ġcontin ual
ĠRe al
Ġmean ings
Ġcertain ly
ĠUn certain
Ġcommunic ations
Ġed it
Ġexplain ability
Ġens ures
Ġavoid ance
Ġsimultane ous
Ġflow s
des igned
Ġmus ical
Ġroad s
Ġderiv ation
ĠSh ort
Ġelect ric
Ġwal king
Ġcontribut es
Ġdeb ug
Ġjusti fication
Ġepis odic
Ġdrop out
gu ided
Ġchat b
Ġpict ure
ĠBell man
D R
D o
D QN
N o
b l
c ade
Ġw elfare
Ġan nealing
st e
st udi
id ents
ĠIn d
Ġimp acts
Ġat omic
ĠF our
Ġsc arc
act or
Ġab ductive
ĠG u
Ġdist ant
Ġdep art
Ġminim a
Ġra ised
Ġspe aking
Ġindiv id
ĠRec ognition
ollow ing
Ġdialog ues
Ġsatisf actory
ĠDes ign
Ġcare ful
Ġstream ing
Ġmove ments
Ġhapp iness
ĠComput ing
Ġdeb ate
Ġactiv ations
Ġevid ential
Ġcop y
Ġunb iased
spec ified
Ġaw areness
Ġaffor d
Ġinspir ation
viron ment
T E
b ook
c ost
d em
ti sing
Ġw ider
Ġf le
ĠW ork
qu is
Ġsp ik
Ġfe ar
Ġmo bility
ill i
Ġreal ized
Ġind oor
Ġhand led
Ġinvestig ating
Ġcolle cting
Ġexplor atory
con strained
Ġdetermin ation
Ġocc lusion
Ġcar s
Ġaggreg ated
Ġindic ators
Ġcur ve
ps on
Ġterm ed
Ġband its
Ġimpos ed
cent ric
Ġquantify ing
ĠDist ributed
Ġobst acle
Ġadver tis
Ġbur den
Ġdrawback s
ĠTell son
B ut
Q u
l ab
Ġo w
Ġan n
Ġan ti
ent ed
as ts
el oc
om otion
im es
ĠT P
ĠT ensor
ĠA C
ĠS W
Ġor th
Ġsp anning
Ġk ept
ĠC L
Ġcont empor
ĠR ule
Ġexpl os
so ft
Ġtest bed
ĠCon f
Ġrem ember
Ġsee ks
Ġnumer ic
Ġguid ing
Ġmaintain s
Ġfit ting
ĠPar tic
Ġcell ular
Ġfra ud
Ġdeli ber
Ġded uctive
app roxim
Ġregard ed
Ġgen es
\% $
model s
Ġasympto tically
Ġmedi um
Ġanomal ies
ĠCons ider
Ġcalib ration
1 8
S s
b ound
c in
g ative
Ġa st
Ġf ool
Ġm oney
it ely
ic ks
Ġto uch
Ġint ra
ĠS A
oc king
Ġco ach
Ġno tice
Ġdis advant
ĠE EG
Ġout lier
Ġsub sequently
Ġ2 4
Ġcontrol s
ib ly
bed ding
ond on
Ġprac tices
com mer
onom ic
Ġtext ure
Ġcent er
Ġassess ments
Ġindic ating
Ġoccur ring
Ġmotiv ate
Ġwal ked
Ġnar rative
Ġbid ding
Ġbid irectional
Ġlab elled
Ġremo ving
effici ents
Ġstre et
Ġtempl ate
Ġaccommod ate
Ġpedestri an
commer ce
B ased
D NNs
P P
Q s
W h
b ase
b ourn
i et
m ention
r iter
Ġs we
Ġf re
Ġf light
Ġm el
ow ered
Ġr ic
Ġcont ents
Ġqu asi
Ġproblem atic
ĠE very
ĠL ondon
ful ness
Ġutil ities
ĠCon text
Ġpop ulations
Ġeng agement
Ġevery day
Ġref ers
Ġaff ective
cul us
Ġalign ed
Ġsuff ers
Ġanalog ous
Ġjusti fy
Ġboost ing
Ġpropor tion
Ġiniti ally
ĠLong bourn
Ġmechan ics
Ġmolec ular
Ġasymmet ric
ĠValu e
Ġconges tion
I s
d o
d ata
k y
s m
s ize
} \
Ġt uned
Ġf ake
Ġin vent
Ġre venue
Ġh osp
Ġg ate
ot ing
Ġmodel led
Ġv eloc
ir ich
Ġde ath
ĠS QL
oc ation
Ġrec ip
Ġpl ain
Ġrepresent ational
Ġman aging
olog ists
Ġgeneral izations
ĠCon ditional
Ġarg ued
Ġbl ind
Ġevery thing
Ġ201 4
Ġregular ized
Ġcalcul ating
Ġ6 0
ĠMC MC
Ġmodular ity
Ġfa ults
elt a
organ izing
Ġpenal ty
Ġpool ing
Ġgrasp ing
studi ed
illi am
irich let
c rib
r ific
ic king
um b
ap es
Ġop ens
Ġrel ating
Ġreal ize
Ġtra ditionally
Ġnon parametric
Ġaccur acies
Ġma pped
Ġautom ate
Ġplay ed
Ġra ises
Ġutil ization
Ġquanti ty
Ġassoci ative
con dition
Ġattack er
Ġtri vial
tit ude
Ġvot ers
Ġhapp en
Ġjud gment
Ġinv est
Ġir relevant
Ġrepeated ly
ĠAutom atic
Ġgran ularity
Ġord inal
Ġdiff ers
Ġstre ets
Ġconv in
I f
b b
re lation
al ities
Ġin accur
Ġb ill
Ġre w
im age
ol ding
ig en
Ġbe ar
ĠW orld
arn ess
ĠA S
Ġsh arp
Ġres erv
fe red
ĠD irichlet
ĠF rame
Ġco efficient
Ġset t
Ġrec ording
ĠL izzy
ang es
Ġmo tif
Ġgo es
Ġlog arith
ĠU AV
chit z
ub lic
Ġsupp lement
Ġins tit
Ġback ward
Ġopen ed
Ġassoci ations
Ġens embles
Ġparti tions
Ġinflu ences
ĠAt t
AC E
Ġbal anced
Ġded uction
ĠChar lot
Ġremo ved
ĠAct or
ĠCharlot te
. "
h ow
p ath
s igma
w ide
Ġa unt
el ong
om pson
id ability
Ġde feasible
Ġun observ
ĠM e
ĠC ausal
Ġco efficients
te rex
Ġcomm and
Ġtra ding
Ġmem or
ci pl
Ġcontin ue
Ġsec ure
Ġfac ing
Ġback b
Ġaddition ally
Ġliter als
ĠCh ain
Ġref ine
Ġaccording ly
Ġdistin ction
Ġfl at
Ġhead s
Ġanim als
dis cipl
Ġrewrit ing
ĠMethod s
Ġexhaus tive
Ġsac rific
a f
i ver
Ġf idelity
us ting
il st
Ġbe am
Ġmod ifying
ess ions
uc cess
Ġsh ad
Ġac know
ĠS V
Ġsp ite
Ġpar aphr
ĠP rolog
Ġdis par
Ġab und
Ġoptim izes
ĠN N
Ġme ant
ill a
ber t
Ġmin i
Ġoper ates
Ġaltern ating
AR QL
Ġdecom pose
Ġconven ient
Ġoffer ing
Ġinstr uction
Ġbre aking
Ġuniform ly
Ġappe ared
Ġgovern ment
Ġmarri ed
Ġbegin ning
typ e
Ġcovari ance
Ġdam age
Ġfulf ill
Ġtremend ous
mention ed
$ )
K B
T R
b re
l ass
n ight
Ġthe r
ac he
Ġh ost
Ġex cep
Ġex cept
ir m
Ġen force
Ġcl ar
Ġar ti
Ġdec idable
ang ed
ĠG ib
Ġprob ably
Ġind ices
Ġloc omotion
Ġbec ame
Ġdiscuss ing
Ġbi ologically
Ġsur v
con f
Ġdescrip tive
yc le
Ġrepl ace
Ġorgan ized
Ġ8 0
Ġget ting
Ġsurpr ise
Ġland mark
Ġspok e
Ġpack age
Le arning
Ġgather ing
Ġhon our
Ġcli que
Ġing red
pres erving
Ġindivid ually
Ġcontempor ary
C H
I R
M ark
R P
a ur
d om
h oc
k er
z ing
Ġc itiz
Ġof fered
ar ts
Ġto urn
Ġpro vers
od ed
Ġst ations
ren ces
Ġun in
ĠM ap
ĠM ining
ĠTh ompson
Ġpl aced
Ġvari ed
Ġem ail
vi an
Ġsupp osed
pro b
hic le
Ġsimpl ification
Ġsimpl ify
ĠEn g
ĠAt tention
Ġrepl aced
DD L
Ġmix ing
pa ign
Ġear th
Ġdecre ases
Ġforec ast
Ġcou pling
ĠCurrent ly
Ġvers us
Ġmid dle
Ġassemb ly
olt z
Ġric her
N ets
T r
a h
c ite
d den
e volution
s ystem
en ger
Ġo ught
Ġp ra
Ġc e
al es
it ty
Ġto wn
Ġh ot
Ġis ol
Ġst ock
ch ange
Ġas king
ĠI RL
Ġse ven
Ġres il
Ġpar ser
ĠP e
ort ex
ĠE qu
ĠN et
Ġwhere in
Ġspec ies
Ġfact ored
Ġconc ise
ĠFin ding
Ġback tracking
con trol
Ġconstruc tive
Ġmathem atically
Ġevent ually
Ġcalcul i
Ġretrie ve
Ġ9 0
Ġstren g
Ġadj ac
Ġtend s
ĠApp roxim
Ġdomin ance
Ġshap ing
Ġadver tising
Ġconnect ing
Ġprioritiz ed
Ġtab ular
Ġhighl ights
Ġneighbour hood
ĠMaxim um
Ġsty les
3 0
G o
R NNs
b eta
o h
v is
z on
or ial
Ġp ortion
Ġc a
ar r
Ġh arness
Ġl ate
Ġl ie
ĠA D
Ġsh or
ĠS yn
ine ering
ĠP ath
Ġsub tasks
Ġconsider ations
Ġvis ible
ĠOn ce
DP G
Ġrobust ly
Ġcr isp
Ġeng aged
Ġcoun terex
Ġopen ing
Ġ201 9
establ ished
Ġsee king
omet ric
ĠIm port
Ġheter ogeneity
Ġenhance ment
Ġelimin ate
ĠComp etition
ĠApp lic
Ġslow ly
Ġinstanti ation
Ġhom ogeneous
ĠPS O
ĠInte rest
ĠAg ents
Ġsket ch
ĠEvalu ation
Ġlad ies
ĠPrac tice
oltz mann
1 6
H ow
M F
d ney
i ber
Ġ ur
in f
Ġs ite
is sion
Ġf uzz
it z
it ud
le cted
Ġre aches
ow ed
Ġcom ment
per s
ĠI I
pl ace
ĠM achines
ad ed
ant ed
Ġgener ators
Ġcont ing
ĠB ig
ĠO ther
ĠF ast
ĠH am
Ġdis ambig
Ġpl aces
Ġpresent ation
Ġgeneral isation
ven tion
Ġoutperform ed
Ġvisual ize
ĠCon ference
Ġfam ili
Ġthough ts
Ġcontr action
Ġacqu iring
Ġrece ives
ĠIntellig ent
Ġband width
Ġcyc lic
Ġsis ters
Ġpay off
Ġdiv ided
Ġsqu are
ĠRepresent ation
ĠNumer ical
Ġconve y
ĠUncertain ty
Ġfre ely
L A
L og
b ing
e av
m atch
Ġa irc
er ated
Ġp it
Ġd read
Ġre new
Ġpro x
Ġst op
ĠI LP
Ġsu dden
ĠS k
ĠS GD
Ġcont act
Ġdes ire
ĠR ed
Ġpre p
Ġpre ced
Ġpr one
Ġcol umn
ob al
ĠK al
ĠAn other
com m
Ġins pec
Ġintegr al
Ġpart ner
Ġpredict ors
Ġtri ed
Ġperson ality
Ġread y
Ġsynthes ized
Ġsaf ely
Ġ9 9
Ġsensi ble
Ġcam paign
Ġstart ed
Ġsl ot
Ġdelay ed
Ġepis odes
Ġcompati bility
comput er
weight ed
Ġtag ging
Ġquantif iers
Ġpuzz le
ĠMean while
ĠMar quis
Ġfig ure
Ġfing er
B ayes
I V
T A
b r
e w
g amma
i ance
l ocal
v ice
Ġ /
Ġt ens
Ġt une
on ds
ti le
ti te
Ġh ill
ot he
ĠI oT
ren ts
ect ors
Ġpa ges
Ġnot es
Ġinter le
Ġinter rup
ĠN ether
Ġdisc ounted
Ġdef ender
Ġdesign ers
Ġmin or
ros c
Ġgu ess
Ġlat est
Ġend eav
Ġsto pped
Ġi i
Ġillustr ates
Ġexam ines
pr ising
)$ ,
Ġmonit or
Ġmarket ing
Ġtransl ating
ĠSP ARQL
Ġjusti fied
Ġdomin ant
Ġdistinguish ing
Ġcamer as
Ġdiscre p
Ġoppon ents
Ġuncle ar
ĠVide o
Ġunn ecess
ste in
Ġorth og
discipl inary
P A
T o
a ults
c ut
g y
k it
t arget
y ou
Ġa ro
Ġa part
re m
re y
Ġp un
Ġfor ces
Ġst ress
ĠA UC
ĠIn f
ĠM R
ĠD B
Ġnot ably
ĠH igh
ĠL et
Ġpre trained
Ġmo ved
ici an
Ġy es
Ġsub problems
Ġpos ed
Ġloc ated
Ġj unction
Ġdi vers
Ġequ ip
com p
Ġcontin ued
Ġlat ency
Ġsoft max
Ġengine ers
Ġmar ry
ensi ties
requ ency
Ġaggreg ating
Ġappropri ately
Ġweak er
Ġrece iving
MC TS
Ġlever aged
Ġdiscussion s
Ġauto encoders
Ġloo ks
Ġlif elong
Ġperce ive
Ġemphas is
ĠRel ational
Ġdevi ation
sol ving
ĠSy dney
Ġphy si
Ġpoli tical
S VM
c ision
l anguage
n a
o ch
} {
Ġs un
Ġo d
Ġan xi
an es
Ġre us
st able
Ġst ation
Ġst abil
Ġst one
Ġwe ek
Ġen orm
ĠS erv
igh ter
Ġqu iet
Ġstr ings
Ġdis junction
ĠE u
ĠE vent
ĠG l
Ġexist ential
Ġvalu ed
ĠEx tr
oo per
Ġsupp ose
Ġcaus ation
par se
Ġstand ing
Ġprior ity
Ġent ered
sc ore
Ġgreat est
Ġrestric tion
ĠRes Net
Ġsumm aries
Ġdeg rad
Ġtransl ated
ĠSh ap
Ġmom ents
Ġstar ts
Ġsus tain
Ġarri ve
ĠVari ous
Ġlea ves
lik elihood
Ġpuzz les
ĠFe ature
yth on
Ġspir it
Ġsympt oms
nos tic
Ġveloc ity
1 4
F low
P E
S E
g ressive
v alid
in ci
or a
ed u
Ġf ood
et er
ur ance
il s
if ier
Ġv iable
Ġlearn able
oc cur
ign ment
ĠB oltzmann
ĠE L
oun tain
ĠL STMs
Ġpre t
ha vi
Ġreg ime
Ġprovid ers
Ġj oin
Ġinst ant
Ġreduc tions
Ġser ver
Ġinflu enced
pri or
Ġassess ed
Ġacqu aint
rel ational
Ġphen otyp
reed om
ĠEm bedding
Ġstat ement
crip t
Ġcomposition ality
Ġresol ved
ifferen ti
Ġmargin als
Ġbelong s
Ġbelong ing
ĠGeneral ized
Ġwindow s
ĠLuc as
ĠDA G
Ġwa iting
aut om
ĠAb str
Ġultim ately
Ġundes irable
Ġoppos ite
Ġexplos ion
ĠNether field
+ +
C raft
R A
V AE
} )
Ġt is
Ġs ight
Ġf ile
Ġre verse
ĠT SP
ĠT raining
ĠM E
ĠS H
ĠS S
Ġpropos ition
ĠC R
ĠD etermin
ten ed
ple ment
Ġtr uly
Ġro ll
ĠL o
ici ally
Ġpr on
Ġsub mission
Ġhuman oid
Ġreason er
Ġdef ici
tr on
ou red
Ġadv oc
Ġrem ote
Ġconver t
Ġanalyz es
Ġdescrip tors
Ġexplan atory
jec tions
Ġillust rative
Ġdev oted
AI L
Ġenh ancing
Ġintern ational
ograph ical
Ġassist ant
Ġimplic ation
Ġaxiom atic
real istic
Ġwon der
Ġenfor cing
ĠFr ance
Ġversati le
Ġstrug gle
Ġdrastic ally
Ġadmis sible
ĠLink ed
prising ly
D I
M E
V QA
Ġs n
Ġc er
Ġc reat
at en
Ġin j
Ġb ots
Ġex pos
ol ved
Ġwe ar
Ġde form
Ġsh op
Ġun w
ĠM u
ĠD omain
ĠF ace
ĠP ers
Ġop tical
Ġdis app
Ġcomple ted
out h
Ġsub tle
Ġcomb at
Ġparamet ri
Ġadv ent
Ġcharacter izations
gr y
ĠWith out
ĠSt atis
Ġinduc ing
ne gative
Ġrepl acing
ugment ed
ĠX ML
ĠPar is
ĠProble ms
inc luding
Ġperm utation
Ġaccompl ished
Ġorient ed
Ġmatroid s
Ġpress ure
Ġtemper ature
ĠSur prisingly
ĠLast ly
Ġtwe ets
Ġfle et
cin ct
1 3
f uzzy
g ument
h and
Ġt it
on el
Ġs ession
en tive
Ġin ev
Ġb ir
Ġto ur
Ġh or
ĠT O
ch ain
ate ver
Ġcomp ressed
ĠA ma
Ġun ification
ĠS ch
Ġcl ient
ĠC ross
Ġcont rary
ĠB as
Ġha ir
ĠO R
ĠP C
ĠP DDL
Ġpl ug
Ġprocess ors
Ġanaly tically
Ġpr ices
ob ile
Ġsuc cinct
Ġspecific ity
Ġrespon sibility
Ġliter al
order s
ĠSt ack
Ġfil es
Ġfundam entally
Ġla id
Ġreach ability
Ġkin em
Ġalgeb ras
Ġrelax ed
ĠDe velop
ĠClass ification
Ġphilosoph ical
Ġmolec ules
Ġpus h
Ġultim ate
answ er
Ġreposit ory
Ġ26 00
ĠNeu ro
ĠJac ques
) :
e u
g ra
g ame
l ength
s ers
Ġ ri
in ity
Ġs leep
Ġp ul
Ġb odies
om on
ul ating
Ġfor th
ut able
il led
Ġun av
Ġcl im
Ġch apter
Ġqu e
Ġha z
ĠO per
ĠR ough
Ġno un
Ġrel ates
Ġprov able
ph i
Ġme re
Ġdisc on
Ġprog ressively
Ġsome what
Ġdef aults
ĠK itty
Ġformul ating
ov al
Ġtop ologies
ribut e
ĠAd aptive
Ġafter wards
Ġpass age
Ġbuilding s
Ġparallel ism
Ġturn ing
Ġincom pleteness
Ġcooper ate
Ġinform al
Ġrefle cts
Ġregard less
gener al
Ġaudi ence
ĠQu anti
ĠEmpir ically
Ġinters ections
Ġarri val
Ġoverl apping
Ġcompr ises
eng ers
ĠSol omon
Ġdanger ous
Ġinher it
Ġdebug ging
Ġlogarith mic
Ġairc raft
ĠKal man
ĠEu rop
- \
B ox
D B
E X
K G
N etwork
T SP
an ks
Ġb ank
ra b
ĠA R
ĠS cience
Ġresul ted
ĠP AC
Ġdis p
Ġinc entive
ĠL arge
Ġform ing
ĠG A
Ġ1 7
Ġprogram m
Ġph one
Ġra ise
ĠAs sum
Ġsec ret
Ġconver sion
pro gram
Ġent ang
Ġhierarch ically
Ġuni vers
anc hes
Ġread er
Ġbro ken
Ġmark ets
Ġmotiv ates
Ġvot es
Ġsay ing
Ġproject ed
Ġcour ses
Ġtransl ations
Ġmanipul ating
Ġresol ving
Ġbox es
Ġspl itting
min ist
Ġthreat s
Ġretain ing
Ġthorough ly
Ġdest ination
Ġrevis it
Ġsubgo als
Ġbackb one
ĠGib bs
9 9
C om
O r
W S
d epend
e ech
g radient
h ire
k a
in st
Ġs on
Ġb esides
ent ropy
un ic
Ġex cess
ĠI N
se arch
ĠM ic
ĠC ognitive
ĠD C
Ġstr uck
ĠF ree
ĠP os
Ġrec r
Ġpl us
our ney
Ġtrain able
Ġreg ist
Ġtra its
Ġdesign er
Ġam en
Ġra d
Ġconcept ually
Ġcho oses
ĠCom par
ins ically
Ġcompeti tions
Ġpur ch
Ġtransi tive
Ġenh ances
Ġmultim edia
Ġple as
Ġign or
Ġexperi enced
Ġfeel ing
Ġneighborhood s
ĠMA RL
Ġexpand ing
Ġsil ence
Ġfavor ably
Ġinnov ative
Ġhighl ighting
Ġbu ff
Ġdiscretiz ation
Ġuniqu ely
Se q
riter ia
Ġprox y
Ġinspec tion
ĠAma zon
( $\
* ,
, "
A gent
C arlo
F O
G M
H MM
O D
P ro
R ank
b i
f ast
o vian
t op
Ġa fore
Ġa erial
ti fy
Ġin app
ar tite
Ġb row
Ġre action
ur ious
ul o
Ġis olation
ĠT e
ĠT echn
Ġst ated
Ġst ake
il ot
Ġbe ings
Ġcomp ress
iz ability
form atics
se q
ĠM uch
Ġpa ired
Ġour s
Ġsc ar
ĠH il
Ġinter play
ĠL TL
Ġanaly sed
Ġfirst ly
Ġorder ings
ĠU p
Ġsimul ating
Ġj ourney
oo king
Ġsele ctive
Ġchar ge
Ġsimilar ly
Ġuni verse
Ġmon ol
Ġworks hop
Ġext rap
Ġfore st
Ġlight weight
}$ .
Ġelimin ating
Ġconnection ist
Ġpreser ves
Ġcompil ed
Ġhol istic
Ġinvari ance
Ġremark ably
Ġinstanti ated
Ġconstit u
Ġden o
Ġanim al
Ġfill ing
eff ective
mann ed
Ġanomal ous
Ġuncon strained
Ġdisentang led
ĠTyp ically
ĠStar Craft
Ġmer its
Ġscre ening
Ġwebs ite
Ġenter pr
similar ity
Ġundec idable
Ġfamili ar
Ġorthog onal
Ġenorm ous
Ġdegrad ation
Ġamen able
M RI
f rom
u ff
w ell
on ing
Ġs ell
Ġs lic
Ġs essions
Ġc ros
al k
Ġf o
Ġm adame
et ary
Ġpro jections
us c
id ential
ĠW here
ot es
ot emporal
Ġwh ilst
ist ed
Ġr ide
Ġpa rent
Ġsp an
ĠB ack
Ġrep orting
Ġdis joint
ĠE S
Ġmulti dimensional
Ġsign ature
ven ues
int ellig
Ġinvestig ations
Ġrem oval
av a
sc rip
eti tive
Ġte ach
Ġ201 3
Ġreview ed
Ġlack ing
ĠModel ing
Ġvot e
Ġconsum ing
Ġrecover ing
ĠOpen AI
expl ored
Ġcut ting
Ġexpand ed
Ġperm its
Ġdiff usion
Ġemp ty
Ġemp ower
Ġswit ching
Ġvag ue
Ġexerc ise
Ġconduc ting
Ġacknow led
Ġsurv ival
ifferenti able
Ġafore mentioned
W A
f all
m n
m o
p op
ti er
en n
Ġp in
ro wn
Ġf reedom
Ġm ild
Ġb oolean
Ġe igen
Ġl ane
Ġal ter
Ġv ill
ab it
Ġim pose
ĠS U
ĠD T
Ġsc an
Ġrec om
Ġinter oper
Ġdec ay
Ġmo tions
ĠG PS
Ġdet ects
are r
Ġvalu ation
Ġ2 1
Ġhand les
Ġsa ve
Ġequ ality
Ġsyn aptic
Ġstandard s
Ġsec onds
Ġintegr ity
Ġamong st
Ġgroup ing
Ġsecond ary
Ġrestric ting
Ġsched ules
}$ ,
Ġderiv es
Ġbr anches
Ġaffect ing
Ġsuperv is
Ġcompet e
Ġign oring
Ġinstanti ations
Ġtal king
Ġevid ences
expl o
ĠOb serv
ĠVari ational
Ġmechan ical
ĠComm on
lik ely
Ġbu y
ĠWord Net
che c
ogen ous
Ġbarri er
Ġtourn ament
B DD
D s
D eep
F C
e en
g in
h tt
l a
m ulti
o king
t ail
Ġc ous
it ative
Ġto y
Ġto ken
om orph
ve red
Ġg ets
Ġg aps
ch annel
se e
Ġun less
ĠM LP
ect ing
Ġsp am
ĠC ode
Ġimp ly
Ġimp rac
Ġch air
ĠB LE
ĠR ather
Ġsol id
Ġsol vable
Ġrec overed
ĠE d
ĠE r
Ġdisc overs
Ġprog ression
Ġtrans mission
tr uth
Ġpartic les
ĠEx p
ĠFor mal
ef in
Ġgood s
Ġkey words
Ġpe ak
ĠEn vironment
Ġtrack s
Ġdecompos itions
rel iable
Ġcoordin ated
Ġhapp ened
Ġlength s
Ġcompact ly
Ġrefer ring
Ġprototyp es
Ġconstit utes
ips chitz
Ġtw enty
Ġlea ving
ĠGPU s
Ġga ze
rep resent
Ġpreserv ed
ĠSequ ential
Ġtu ples
Ġconserv ative
ĠSw arm
ĠLat ent
Ġmonot one
Ġscarc ely
Ġunnecess ary
ĠShap ley
Ġpron oun
1 1
S h
c ol
c ap
d ual
g m
l ies
o ural
r ite
s he
t es
} ^
Ġ est
Ġa p
Ġs orting
at on
is ter
Ġw arm
Ġd og
Ġe cho
Ġpro l
im al
ĠT ow
ol ar
Ġmod er
ach ment
ĠS hafer
Ġad ds
ĠP attern
Ġco vered
ĠE fficient
Ġprov es
Ġcons ec
Ġoptim izations
ail able
Ġwhere by
Ġenv y
ĠAn t
ĠV er
Ġcontin ually
Ġatten d
Ġent ertain
ĠUn ited
Ġmis le
Ġsk ip
Ġfail ed
Ġassign s
Ġfeed forward
Ġep silon
valu es
Ġprim al
Ġtransform ing
Ġadop ts
Ġcontroll able
Ġintu itively
struct ure
Ġaugment ing
ĠCol onel
Ġrecur sion
ĠAnd roid
ĠStr ateg
Ġconfir med
ĠMAP F
Ġgramm ars
Ġeconom ics
network s
Ġinnov ation
ĠMax SAT
Ġswit ch
ĠHy brid
Ġaxiomati zation
Ġinequ alities
pati ble
Th is
Ġtum or
Ġmonth s
Ġvan illa
Ġhosp ital
ĠFrame work
Ġunobserv ed
Ġstreng then
Ġshor ter
ĠInterest ingly
Ġpret ty
ĠHil bert
Ġimprac tical
2 3
T hat
d eep
f it
g ers
p i
Ġt ed
in a
Ġs ad
Ġs ake
Ġp icking
Ġw ood
Ġw ishes
ent ence
us es
Ġg ates
Ġcom ments
ĠI P
am ing
ĠA T
Ġun likely
ĠM B
ĠM S
ĠS N
Ġr ace
Ġpa ge
Ġimp ression
Ġgener ations
Ġpar ties
ĠĠĠĠ ĠĠĠĠ
ĠH idden
Ġdec idability
Ġhas h
tain ing
ary ing
Ġcomplex ities
ob ject
pre hen
Ġsuccess ive
Ġins er
Ġinterac ts
Ġfurther more
Ġeng aging
con ditional
Ġte le
lo ud
Ġillustr ating
Ġfam ous
Ġ201 2
Ġsimpl ifying
ĠSt and
ĠEn s
Ġinduc es
play ing
Ġindic ator
Ġmark ed
Ġlack s
ĠLog ics
ĠMulti ple
Ġcustom ized
Ġgain ing
geb ra
Ġsound ness
ĠTra vel
Ġencour ages
Ġfr uit
Ġtable au
Ġuns atisf
TP LP
Ġsat ell
ĠCSP s
Ġmeet ing
Ġgentle men
.. .
ĠPer form
Ġunb ounded
ĠHy per
Ġpersist ent
ĠComb ining
ĠUni versity
fin ding
ĠOf ten
sib ly
C ritic
I P
T ime
o ir
p he
t uned
Ġ *
Ġa x
in ner
re et
Ġf its
Ġb o
Ġb il
Ġb its
Ġre ject
Ġn ine
Ġcon vol
Ġv anis
Ġun pre
ĠS aint
ad ap
Ġsp ot
ap se
ĠH T
Ġdec ou
ĠL ipschitz
out s
Ġdist r
Ġpr ide
ann on
Ġtrans action
Ġtra vers
Ġcap tions
ĠU S
Ġcharacter izes
Ġconf usion
ĠCon c
ĠExper t
Ġbl ood
Ġback door
Ġsubs ystem
Ġsimpl est
ĠEn ti
Ġspati otemporal
Ġcontr acts
ĠMan agement
Ġpass enger
Ġdiagnos es
Ġtransform s
me ga
Ġdecompos ed
Ġtack ling
PS O
Ġbroad ly
Ġassist ants
ok e
Ġderiv ative
Ġentail s
Ġmut ually
ĠTrans fer
Ġrecur sively
Ġsmooth ing
Ġartif icially
Ġorient ation
Ġenumer ation
Ġtempl ates
answ ering
Ġaccum ulated
Ġbuff er
Ġted ious
I RL
P l
a ven
f ers
h o
l ines
t est
Ġ <
Ġp or
al so
Ġb read
et h
et ry
ur bed
Ġl ips
ut tered
ra id
ĠA NN
um ber
Ġper v
Ġpa rents
ĠF ollowing
ĠR C
ĠE lect
lic k
Ġab normal
Ġoptim istic
Ġtim ely
ill ing
Ġanaly sing
Ġreason ably
Ġcap ac
Ġbehavi oural
Ġthrough put
Ġhand written
ĠAn y
ish ment
Ġmem ories
ĠHe alth
Ġsto pping
know ledge
Ġgl ass
Ġill um
ord ance
Ġmis class
Ġnumer ically
Ġintr insically
Ġpass engers
Ġflex ibly
ighb or
Ġcalcul ations
Ġnavig ating
Ġcur ves
Ġsurve ys
Ġvot er
sy mbolic
ĠPar tially
Ġdistingu ished
Ġperiod s
Ġbring ing
Ġtw ice
ĠKB s
Ġrepro duce
Ġfavor able
Ġproxim al
inte rest
Ġfell ow
Ġesc ape
Ġdilemm a
Ġstead y
Ġseamless ly
Ġbootst ra
Ġsett led
Ġmotif s
Ġdiscrep ancy
ĠStatis tical
Ġscar ce
Ġvill age
- )
1 7
A r
O G
c ore
c ell
d ate
g h
l ied
v arying
} (
Ġ q
Ġ ult
er ve
er ts
Ġd ance
st art
ul ty
ut ations
il ed
ĠI T
ĠWe ighted
ab led
Ġen ric
ĠM ed
ad aptive
Ġsp ent
Ġad mit
Ġch ase
ĠP ython
ĠR os
Ġpl ane
ĠL i
ĠL ike
Ġman us
ĠG ood
oth ing
Ġreason ers
Ġapproxim ates
Ġsm ile
perform ance
Ġrandom ization
Ġrandom ness
ys ics
con cept
Ġpart ners
Ġcompos ing
vari ant
Ġep och
Ġoccur rences
Ġalign ments
dri ving
Ġconstant ly
Ġadj usting
Ġwin ner
201 7
dire ctional
Ġseem ingly
Ġcompan ion
Ġbreak through
Ġepis ode
ĠOb ject
ĠInte gr
ĠDi ag
Ġprem ise
Ġreposit ories
Ġimit ate
ethe less
ĠSatisf action
Ġinvest ment
Ġadjac ent
ĠServ ice
Ġtis sue
ĠMic ro
Ġstake hol
ĠBLE U
i pping
l and
m emory
ar ms
Ġre ferences
st one
un iform
ĠT est
ol ly
ment al
Ġwh atever
form ed
Ġun predic
ĠM ery
ĠS G
ĠS R
ĠS pace
Ġr ising
ĠD E
ĠO ut
ĠF ore
Ġnot able
ĠR B
ĠH al
ĠL ag
Ġman ners
ĠN orm
ĠG erman
Ġdisc ounting
Ġdo ors
Ġtra des
Ġmat ched
ced ented
ĠPro t
abel le
Ġconc aten
Ġextr insic
Ġcontin ues
Ġatten tions
Ġtool kit
Ġerr one
astic ity
Ġeng age
Ġindepend encies
Ġengine ered
ĠSt ates
stric ted
Ġestabl ishes
Ġdiscrimin ate
Ġfrequ encies
Ġretrie ved
Ġderiv atives
Ġsoci o
ĠPl ay
Ġgrid s
oriz ons
CO P
Ġign ored
au ti
Ġdiv ide
ĠWik i
Ġoverl ook
Ġvulner abilities
Ġexpressi vity
ĠMod ern
Ġmov ies
Ġunf air
Ġasser tions
ĠSatisf iability
lim ited
ĠIter ation
Ġdecep tion
Ġspik ing
Ġast on
Ġacquaint ance
ĠMery ton
S H
T erm
b ounded
c hers
i ans
m y
p ost
Ġt un
Ġa uctions
is her
Ġw are
Ġan g
Ġf if
Ġd ial
Ġb oy
Ġb atter
Ġre in
Ġe arn
et ric
Ġn ull
ur ch
Ġfor ced
Ġl es
Ġal arm
per n
ĠA ction
um s
Ġun us
Ġun ify
Ġun reliable
oc ent
ĠD NA
ĠTh ings
ĠP et
Ġpl acement
Ġacc ident
Ġgra ded
Ġdisc l
Ġdist urb
Ġass ure
Ġgeneral ise
Ġsub graph
Ġsub group
yp t
Ġsign s
Ġam pl
Ġcol our
over ing
Ġbi o
SP ACE
Ġconver gent
Ġhelp ing
Ġcoun ts
ĠJ ava
Ġele ction
Ġattribut ed
aps es
Ġ201 0
Ġexam ining
Ġnow adays
sh aring
Ġattemp ting
ilit ary
Ġfacilit ating
Ġnormal ized
Ġacceler ation
Ġwal ks
Ġcloud s
Ġmixt ures
Ġrough ly
Ġprevent ing
Ġrig id
Ġoutl ined
organ ization
Ġemphas ize
Ġformat s
Ġmist akes
Ġpus hing
Ġsch ol
exper t
ĠSoft ware
ĠTheore m
Ġprev ents
Ġdro pped
Ġbip artite
ĠTransform er
Ġsubsum ption
Ġann oun
Ġdeno ising
Ġconsec utive
Ġunpre cedented
2 2
S QL
V S
X I
e ks
m og
m orrow
s qu
ro ad
Ġb und
Ġb orrow
us h
us al
us ively
ut ely
ĠT R
Ġus ability
am ed
Ġv ox
uc le
Ġun ion
ĠM obile
ist ry
ĠS uccess
tim ate
ĠC y
op y
ĠD ung
Ġinter view
ud ent
Ġvari es
ph ysical
ĠL I
Ġgra ding
Ġunder t
Ġanaly st
te e
ive red
Ġplann ed
Ġj ump
pre cision
Ġsuccess or
Ġscal ar
ĠCon vers
Ġpath ways
con ditions
Ġsynt ac
rop ri
Ġmis match
Ġincorpor ation
Ġprot ection
Ġregular izer
Ġrecommend ed
Ġpass ages
Ġhypothes ize
me asure
Ġbrain s
Ġguid es
Ġtreat ments
Ġ7 0
ĠCl ustering
Ġtrust worth
Ġacceler ated
Ġenhance ments
Ġinconsist encies
Ġjud g
log ic
ma xim
Ġtend ency
writ ing
Ġmanif est
Ġoverl ap
Ġcollision s
Ġtag s
Ġenjoy s
Ġagree able
Ġproxim ity
Ġflo or
Ġtut orial
Ġinterp olation
Ġimbal ance
Ġsoc cer
Ġpreval ent
Ġdispar ate
havi or
ĠStand ard
Ġerrone ous
C D
d enti
d ifferentiable
l ip
p aces
t ude
t ropy
Ġ rain
Ġa venues
Ġthe rap
or ov
Ġan gle
Ġd u
an king
Ġb reat
Ġto t
Ġh oc
Ġfor g
Ġex pose
ver gence
id ney
Ġ( $
ab ling
ĠA F
ĠA re
pl anning
Ġint ensity
Ġun ifies
ĠM ech
ĠS ection
Ġad minist
ĠB inary
ak ers
ĠF P
ĠF ound
Ġpl ant
ĠE p
Ġdec e
Ġab duction
ust ered
Ġwork er
Ġreal ization
Ġsub mitted
Ġdeep ly
ven tional
Ġautom aton
ĠAl tern
Ġer a
Ġrem edy
Ġcolle ctively
ĠRec omm
Ġaltern ate
Ġinflu ential
Ġspati ally
Ġtre ating
Ġfair ly
Ġche ap
Ġhyper graph
Ġcur se
Ġadop ting
Ġassist ed
Ġrout ine
Ġhapp ens
Ġreconstr uc
irt ual
Ġbr ight
Ġdual ity
Ġvol um
Ġsmooth ness
Ġviol ation
Ġneut ral
aut y
ĠExpl ain
Ġexceed s
Ġpersu asion
Ġvag u
Ġcult ural
Ġincenti ves
Ġadversari es
ĠDialog ue
ĠTensor Flow
ĠPartic le
6 0
8 0
A l
H C
a i
e as
i ents
p ot
s ized
s ense
er ror
al gorith
at om
Ġf used
Ġm es
Ġb on
Ġb at
Ġb ike
Ġto w
Ġe g
Ġe ager
Ġth read
Ġh orizons
Ġcon ference
un ctions
ĠT ogether
ol er
Ġmod est
Ġcomp ound
Ġv al
ĠA lex
se paration
pos itional
Ġmet aph
ĠD em
Ġqu ar
ĠP PO
ĠP ember
Ġinc l
Ġro oms
Ġdec ides
ĠL DA
up s
Ġtim et
Ġacc ounting
Ġver ifying
Ġcap ital
Ġ$ (
ens es
su le
Ġsele ctively
perform ing
par allel
ef ore
Ġvisual izations
Ġsmall est
Ġret ail
Ġmed ian
Ġsk ele
Ġcompeti tors
ron es
Ġ201 1
ĠAr gument
Ġintr ig
Ġdeg ener
Ġfast est
Ġincom ing
Ġdeploy ing
Ġ9 7
Ġcoordin ates
Ġtack les
Ġexhib iting
Ġlinguistic s
Ġimpos ing
Ġconsum er
Ġdig its
Ġjud ge
Ġmanipul ator
Ġimm un
Ġsus cep
Ġren dered
Ġren dering
Ġimag ery
proble m
Ġphot o
ĠAL C
ĠAG I
Ġprev ail
Ġfaith ful
ĠDet ection
Ġpercent age
Ġaccompan ied
Ġdisadvant ages
ĠImport antly
ooper ative
ĠEurop ean
explo itation
ĠPember ley
" ).
. '
. ).
I LP
O n
R es
S V
_ {\
d oc
f requency
k ens
o on
r ality
Ġs end
Ġf resh
Ġd ensities
Ġm ilitary
ic ing
ec urity
ur k
Ġal ph
ĠI R
ĠI denti
ri ed
Ġv ic
ĠIn ductive
Ġun explored
Ġse a
ad er
ous es
ĠC D
ĠC he
ĠD P
Ġob ey
ĠB a
ĠO ff
Ġsc ans
ĠH OL
Ġrec ol
est he
ĠE HR
ors es
Ġgeneral ised
Ġver bal
ann ot
Ġreg ulation
Ġ2 2
Ġthem e
over y
ĠEx amples
to ine
ĠAn toine
Ġter rain
Ġatten tive
ĠCon v
Ġassoci ate
Ġdevelopment al
Ġed iting
row ing
Ġless ons
ĠEn c
Ġcent ers
Ġhyp othe
pr int
jun ctions
Ġsynthes izing
Ġobser ver
Ġemerg ency
struct ures
Ġfl uct
Ġdiv ision
Ġfall s
Ġelic it
ĠDat ab
Ġwa it
ĠMat hem
Ġsqu ared
Ġmultiplic ation
ĠStar ting
Ġregul arities
Ġmonotonic ity
Ġelabor ate
Ġwitness ed
consist ency
Ġaf raid
Ġinaccur ate
Ġreserv oir
itud inal
inci ple
Ġconvol utions
2 5
A t
S O
e ven
h yth
re r
ti fication
Ġs ection
Ġf ly
Ġd inner
Ġm ir
Ġm erge
Ġb ooks
el lect
om es
ul a
ul ing
un ch
Ġas ks
Ġle ak
Ġsp y
ĠD ig
ĠD ire
ĠB O
Ġar ch
Ġag nostic
ĠF il
ĠP L
Ġco res
Ġnot or
Ġnot ation
ĠH ouse
ort ed
Ġro w
Ġdec ided
Ġab lation
Ġover comes
Ġdifferent ly
fic ations
Ġthan k
Ġnon deterministic
Ġ2 3
lu ence
Ġsimul ators
su ited
Ġatt ribution
Ġlogic ally
ĠAI S
ĠV AE
Ġminim ized
Ġins p
Ġinf ers
Ġlead er
ade qu
Ġgood ness
lud ed
Ġser ving
Ġcompos itions
Ġcommunic ating
Ġel der
Ġsepar ated
Ġqual ities
optim ality
Ġ9 8
ĠIm itation
Ġdraw s
Ġdocument ation
Ġintern et
Ġevol ves
Ġalloc ate
Ġrefle cting
Ġneu rom
Ġsurpr ised
Ġdecre asing
gener ation
Ġsal es
ĠRob ust
Ġimper ative
ĠInter active
oin formatics
Ġdaugh ters
Ġtight ly
ĠClass ical
Ġencoun ter
Ġcrowdsour ced
Ġmorph ological
ĠSub sequently
Ġwebs ites
ww w
Ġsaving s
condition ed
ĠGl obal
Ġcous in
ĠEnti ty
Ġenric hed
% )
' ll
) )
E LM
G S
I B
T s
V ec
o S
s ampling
t ra
t rees
Ġ #
in tensive
er ges
Ġp ilot
Ġf urn
an ford
ic ense
Ġre volution
et al
st ation
Ġst oring
em ed
Ġv ice
ĠA ff
ĠA ctive
pl an
ĠIn di
ore gressive
tim ation
ĠC ase
ĠC PS
Ġch ao
Ġev ac
ass er
ĠB ethe
ĠH MMs
Ġmulti objective
Ġacc ordance
Ġmore over
Ġdem ographic
Ġsub graphs
ĠâĢľ '
ann er
ven ge
Ġreg imes
Ġloc ality
Ġautom ating
Ġatt ached
Ġdefin ite
Ġgame play
Ġstandard ized
pect ral
Ġsitu ated
Ġphys icians
Ġneg lig
Ġsuit ability
Ġtransi tivity
me as
Ġoccur red
Ġdel ight
}$ -
ĠSim ple
Ġrest art
Ġcorrel ate
Ġelect ro
Ġfriend ly
step s
Ġloop y
Ġsmart ph
Ġconclud es
ĠTra ditionally
Ġsl ots
Ġgramm atical
Ġnar ra
Ġteac hers
Ġadjust ment
ĠSc hem
Ġspeedup s
Ġpercep tions
Ġinequ ality
Ġoffic e
Ġpreserv ation
Ġpoin ted
Ġgest ures
ĠQual ity
Ġpra gm
ĠHal pern
ĠFound ation
G G
S he
S im
W ell
b all
b est
d elta
f ly
f riend
l ity
w hen
z ero
} -
Ġa head
re en
re ward
Ġp ray
ed ge
Ġan onym
Ġf irm
Ġth in
ac her
ur ation
od ay
Ġfor b
Ġl ose
ĠT op
ol ate
if f
Ġcomp ose
Ġun im
Ġun stable
Ġun manned
pos sibly
ĠS ir
Ġper mission
ĠC oun
Ġag reed
ĠR et
ĠH ad
Ġapproach ing
iv ari
Ġman aged
Ġem erges
Ġtim est
Ġmulti task
Ġmulti tude
Ġver b
Ġgraph ics
Ġspec ially
Ġany one
Ġinst antly
Ġben ign
int u
Ġatt achment
over n
ĠAI XI
ond e
Ġsyn erg
Ġbi oinformatics
Ġatten ded
Ġlong itudinal
Ġinterac tively
Ġent ries
Ġdialog s
gre t
Ġmis s
Ġphys ically
Ġspeed ing
Ġspecial ization
Ġdev ised
Ġpass ive
Ġparallel ization
vari ance
Ġsepar ating
ĠSe lection
Ġdecompos ing
Ġla ugh
Ġrational e
ok u
Ġentail ed
Ġconsum ers
Ġreveal ing
Ġyield ed
RI PS
Ġadvance ments
Ġdelay s
Ġhouse h
Ġpred omin
ĠRep ublic
Ġdram atic
Ġlea f
Ġmorph ology
Ġspir its
Ġfort une
sem antic
ĠKey words
Ġshif ts
Qu AD
crib ed
Ġbill ion
Ġisol ated
ĠApplic ations
Ġreus able
scrip tion
Ġacknowled ged
Ġinteroper ability
ĠTow ards
Ġcapac ities
ĠRos ings
Ġtot ally
Ġvagu eness
A b
B E
D AR
R RT
l i
m ap
r ist
s our
u k
v ector
Ġ ly
Ġa esthe
Ġc os
Ġw atch
Ġf ost
Ġin adequ
Ġm ach
it eness
as tive
Ġre using
om position
us er
Ġex posed
Ġst acking
id irectional
Ġwe eks
ĠW illiam
Ġle an
ĠI mm
og ram
ĠS C
Ġk idney
ĠC LE
Ġshow case
Ġpar ity
ĠB ar
ĠB and
ĠF low
ĠP I
ĠP y
lic t
ex ist
so ver
Ġacc idents
Ġdist ortion
ds ight
Ġwas te
Ġpr une
Ġprog ressive
Ġtrans actions
Ġam b
Ġvalu ations
Ġpat ches
ĠK L
Ġarg ues
ĠAl ong
Ġsur pass
Ġsens es
ane ous
aps ack
Ġrestric tive
ne arest
Ġavoid ed
Ġmaintain ed
go al
des ign
Ġneur onal
ĠSh annon
Ġ200 7
201 5
Ġhighlight ed
Ġmic rosc
Ġuns olved
Ġcou ple
Ġhands ome
Ġadjust ed
Ġsqu ares
Ġbin ding
arp ing
Ġadm its
Ġprem ises
Ġanticip ate
Ġpersist ence
Ġtro ub
ĠNow adays
ĠVe hicle
Ġinherit ance
Ġmoder ate
Ġsatell ite
ĠPerform ance
Ġoverlook ed
Ġskele ton
Ġintrig uing
Ġhypothe tical
asser stein
/ \
C up
H E
M r
R R
T here
a R
i ors
r ig
t urn
u ations
Ġt one
Ġo l
ing ual
Ġf at
Ġin hib
Ġd are
Ġd ub
Ġb ug
Ġto kens
Ġre actions
Ġn od
im ental
im pro
Ġh ate
os ystem
Ġbe auty
Ġne phe
um a
Ġint ellect
Ġen ds
ĠM F
ad ic
Ġcl othes
ag ue
ĠP rel
ard ed
Ġpl asticity
Ġcomput ability
ĠN LI
Ġover coming
Ġout standing
ĠG ames
ĠK ol
Ġvis ited
Ġpers ons
Ġfac ility
ĠHe aven
pect ation
ĠWh y
Ġgl ad
Ġfound ational
Ġtransfer able
Ġconstruc tions
Ġuni versity
Ġsk ew
Ġattack ers
ĠAr ch
ĠAr chitect
abor ative
Ġneighb oring
Ġhyper graphs
Ġess ence
Ġdecompos able
Ġ9 5
Ġdel ivered
Ġfl aw
Ġrest aur
Ġlet ters
Ġkeep s
ĠEngl and
Ġput ting
Ġcompet ence
Ġple ased
201 8
ifferen tial
Ġir regular
Ġtravel ing
Ġpropag ators
Ġimag ine
rele vance
Ġjob s
Ġcount ries
Ġpros pect
ĠAcc ur
ĠPredic tive
Ġkn itting
Ġfed erated
exper ts
Ġindirect ly
ĠSimilar ly
ĠSm art
Ġpoin ting
Ġinstrument al
Ġjo ined
Ġscrip ts
Ġcorrup ted
ĠAccording ly
Ġgirl s
Ġchatb ot
ĠConsider ing
Ġingred ients
Mark ov
Ġcitiz en
ĠAbstr act
ĠFace book
Ġmisle ading
ropri ate
Ġnephe w
ĠPrel iminary
4 5
8 7
A B
B oost
C h
D ec
H T
M B
V E
^ {\
a per
c ale
f idelity
g ood
s ample
z en
Ġt ies
Ġt emp
in i
on t
Ġf als
Ġd ie
Ġm ail
le ft
ly nomial
ul i
Ġl ights
ĠT oday
em ia
ĠW ell
ĠW asserstein
ot al
ir y
ĠM RI
Ġappro ached
ĠS D
ĠS ign
ĠS OM
ĠS ales
Ġsp orts
Ġk e
ĠC ap
ĠC ell
ĠC BR
Ġrep ly
ĠF unction
ten sion
ĠR A
ĠR F
ĠL iter
Ġman ager
Ġpre ferential
Ġwork ed
ĠG roup
olog ist
Ġunder p
Ġpr icing
Ġpos itively
Ġpos itives
Ġso ught
Ġloc ate
su pport
pon ent
ĠK rip
ĠCon tinuous
Ġcr ypt
Ġconver ting
Ġbl ess
Ġlay ered
con text
Ġencod ers
Ġref ining
Ġsatisf iable
cl usion
Ġsimpl ifies
Ġel ig
Ġnorm ally
Ġpublic ation
Ġge ographical
Ġlook ahead
Ġattemp ted
Ġteam m
DA G
onsist ent
Ġcollabor ate
Ġtreat s
)$ .
ceed ings
Ġsay s
Ġcore ference
Ġalloc ations
math bb
cent ered
Ġanalog ical
Ġcard s
Ġren der
Ġrati os
Ġtal ked
Ġcy bers
Ġperm utations
ĠDat aset
Ġste re
Ġsil ent
Ġcompr ising
Ġintuition istic
Ġsho ul
Ġflu id
Ġexcl usively
Ġcas c
Ġlabor atory
Ġorganis ms
ĠEv rem
Ġconcurrent ly
ĠRobo Cup
Ġdilemm as
consist ent
Ġciv il
Ġgest ure
Ġincenti v
Ġsynchron ization
Ġchatb ots
ĠFour ier
Ġshad ow
Ġexcep tions
inf ty
ĠHam il
Ġequip ment
Ġphysi ological
ĠExtr action
prior i
Ġpleas ant
Ġmonol ingual
Ġcros sover
htt ps
Ġstakehol ders
Ġchao tic
ĠKrip ke
ĠEvrem onde
M ax
O mega
T I
V s
_ ,
a z
d et
l s
l at
m akers
t ent
Ġ ,
Ġt or
Ġa ud
in y
on ance
er b
Ġs ong
Ġp ec
Ġc ry
al one
Ġd ens
Ġm ender
le cting
Ġn ucle
ur sive
ra ys
ĠW S
ĠIn i
Ġint ric
Ġsh r
Ġsh ut
ich ot
ĠM edical
ĠS ci
Ġcl ustered
Ġr id
Ġr hyth
Ġsp on
Ġsp urious
oc r
ĠC ity
Ġpar se
ass isted
ĠB io
ĠR CC
Ġtr ick
Ġtr unc
ĠE ff
Ġfe et
Ġtwo fold
ĠG U
ĠG en
ĠG ra
Ġdisc ern
Ġass urance
Ġgeneral izability
Ġpo ker
Ġtrans fers
Ġ1 000
Ġdi agn
ĠK ing
stand ard
hen tic
ĠV I
ĠV ision
onom ies
Ġlat tices
Ġ3 2
Ġfac ets
Ġser ial
pro grams
Ġprom oting
Ġproduc tivity
Ġpart ly
Ġpe ers
Ġgroup ed
Ġevery body
Ġdoc tors
Ġshort coming
Ġspeed s
ĠAd v
Ġannot ators
Ġclos est
Ġneighb ours
Ġprim e
Ġincom patible
Ġla zy
ĠGener ation
Ġtrade offs
Ġindust ries
ict ory
Ġcour t
Ġacceler ating
ĠTrans lation
Ġelimin ates
Ġwant ed
Ġappe al
Ġpropag ating
Ġmen tions
ĠST RIPS
Ġcarry ing
iling ual
Ġseve rely
Ġcas cade
Ġsch ool
Ġlexic ographic
dist ribution
Ġregul atory
Ġworkflow s
ĠCO CO
Ġcompens ate
Ġcomprom ise
Ġscrip t
Ġelectric ity
oh n
Ġdisambig uation
valid ation
Ġtit le
Ġhaz ard
Ġregist ration
Ġenterpr ise
Ġvanis hing
mog orov
Ġnarra tives
4 0
F IS
H S
N MT
U CB
f usc
r ance
v ision
y out
Ġ %
er ation
Ġs orry
en ge
Ġp acking
Ġp ull
Ġc rafted
is im
Ġw ished
Ġw rap
Ġan atom
Ġm ort
Ġm erg
it em
Ġre j
Ġpro pri
ec ed
Ġh am
Ġh orses
ut y
ot t
ĠA rab
Ġun ch
ĠM T
Ġres ist
Ġcl ick
Ġr anges
Ġob fusc
ĠP art
Ġhe aring
ĠE ar
ĠL if
Ġman ag
ĠN MT
Ġout er
ati veness
ĠG ym
Ġdisc ount
Ġsub jec
Ġsub task
Ġpos itional
Ġexp ense
Ġreg ister
amet er
ens able
ĠU ser
ĠU CT
ĠU CB
Ġinst ability
Ġwill ing
Ġph arm
ĠK Gs
ĠV irtual
par able
ĠFor m
Ġstand s
com plexity
Ġshe ds
ĠCon n
Ġachieve ments
Ġsto res
gre edy
Ġsubs paces
Ġparameter ization
Ġref lex
Ġexec utions
Ġexec utable
Ġpost ulate
Ġprot ected
requ is
Ġaccount ability
Ġread ings
vari able
ML N
MC MC
ars ad
Ġappear ing
Ġconnec tives
Ġparticip ant
Ġgr and
Ġpersonal ization
Ġimpos es
Ġmanipul ations
Ġpip elines
Ġinvari ants
Ġuns afe
Ġbreak fast
OP s
ĠDA Gs
ĠMat ching
Ġflu ent
Ġdele g
Ġstimul us
ĠAG M
En gl
Ġflo ating
Ġtrig ger
Ġsing ular
Ġarrang ement
identi fication
Ġencom passes
lab elled
Wh y
Ġinstit utions
Ġresil ient
Ġbir th
Ġunsatisf iable
ĠNorm al
auti ful
Ġbatter y
Ġearn est
ĠPet ri
friend ly
ĠSales man
Ġdiagn ose
F P
M N
W O
a ugmented
b ar
d omin
i ant
s k
s yn
t ure
t ogether
v ability
on ed
Ġs ti
Ġs ector
is k
Ġf ores
Ġin ject
an ical
it ated
Ġb es
as hing
as ters
el ve
Ġpro p
ĠT aking
ol es
Ġbe at
Ġv iability
ĠA P
se lection
uc ed
ĠIn cre
Ġse x
ĠM ix
ĠS parse
Ġsp ike
Ġad verse
Ġat om
Ġch ronic
ĠD ri
ep istemic
ap ed
Ġag ency
ie ties
ĠR OC
Ġdis s
Ġpl acing
Ġclass ifications
Ġro unds
Ġprov ision
Ġpre training
ĠN aive
ular ly
Ġstruct uring
Ġaut hentic
Ġspec ifies
Ġnon convex
Ġind isp
-- âĢĿ
Ġsever ity
Ġmain stream
hen oy
Ġmem ber
Ġclassif ies
ĠCon tr
Ġcr ime
Ġend ow
ĠExper ience
Ġbl ame
ĠExperim ent
Ġfound ed
Ġschem as
Ġsit ting
anc ies
ĠEn tropy
Ġcontr act
ĠY our
rie val
Ġreli ance
Ġmotiv ations
Ġhealth y
Ġexhib ited
Ġassist ing
ilibri um
rob i
Ġauth oring
Ġtrust ed
Ġinv ited
Ġtax i
Ġign ores
Ġforec asts
ĠTra ffic
ĠApp lying
Ġdifferenti ate
Ġadvance ment
ĠSu per
Ġviol ations
Ġbrid ges
ĠDist ribution
Ġvulner ability
ĠOr gan
Ġdevi ations
Ġcompl iance
rang ian
Ġdisplay ed
Ġmetaheuristic s
Ġmultiplic ative
Ġpiece wise
Ġhop es
Ġant eced
Ġfig ures
Ġinqu iry
ĠAss oci
Ġprohib itive
ĠCF R
ĠRobo tics
ĠEs pecially
Ġadversari ally
Ġguard ed
ĠCal culus
Ġconvin ced
Ġdeform able
Ġque ue
ĠSolomon off
Ġperv asive
ĠArgument ation
yout u
enge ance
Engl ish
G ood
G CN
H P
M e
N T
U s
c k
g ical
s ens
u ce
v isual
Ġ ~
Ġ ram
Ġ iron
is ible
Ġw ants
Ġf ancy
Ġf ountain
Ġd ict
Ġd rones
an y
it ted
Ġre act
et ch
ur st
Ġh o
Ġl ung
ĠT rees
ver si
ir ty
pl ac
uc id
um bers
ĠIn verse
Ġint ents
Ġen em
Ġse q
ĠM ixed
ĠM AS
Ġcl oning
ĠTh ose
ĠB ank
ĠO B
ĠP CA
Ġhe at
ĠR ad
ĠR RT
ĠH ess
ĠH and
Ġno vice
Ġdis rup
ĠE X
Ġro tation
Ġman eu
Ġoptim izer
Ġpre vention
ĠN ets
Ġover w
ĠG rid
Ġgra de
Ġaut oregressive
Ġfin ance
the re
Ġachie vable
ou ble
Ġcol ony
ĠPro v
ĠPro ceedings
anis h
Ġconf ron
Ġunderstand able
ys hip
Ġret raining
Ġview ing
Ġcri tically
Ġextract or
Ġcar di
Ġpur sue
ingu ish
Ġcontr astive
Ġplan ar
Ġcross ing
Ġintu itions
Ġparticip ating
crip ts
Ġpartition ed
Ġ200 8
Ġjus tice
Ġec osystem
Ġrepe at
ĠGraph ical
Ġtermin ology
Ġyoun ger
inc re
ĠQu ery
IF T
Ġthresh olds
ched uling
Ġprevent ed
Ġinstanti ate
ĠProb ability
ĠSu pp
Ġviol ate
Ġcred ibility
ĠChar acter
Ġoutl ines
Ġtw elve
organ ized
ĠHer t
Ġinnov ations
Ġcompl iment
Ġquantif ier
Ġcommit tee
Ġoccup ancy
Ġexcl usive
Ġpursu it
Ġlad yship
Ġfing ers
Ġmission s
Ġcontrad ic
Ġuniqu eness
Ġinver sion
Ġdecep tive
Ġciv ility
Ġimbal anced
Ġsacrific ing
Ġabund ant
Ġther mal
Ġclar ify
ĠPe ople
Ġcounterex ample
Ġwear able
Ġconstitu ent
ĠWhere as
Ġempower ment
omorph ism
Ġbootstra pping
Ġbreakthrough s
Ġunpredic table
ĠLag rangian
Ġneurom orphic
Ġneglig ible
intu itive
ĠKol mogorov
ĠHamil ton
Ġpec uli
Ġindisp ensable
? "
G O
G R
G raph
H A
I oT
L C
P F
T T
^ \
_ \
g al
n am
o Co
r ational
Ġ >
in ery
in variant
Ġc art
Ġof ficial
Ġf ro
Ġin ability
Ġn ur
Ġn ative
ac c
Ġh all
Ġg all
Ġg rey
Ġcon gr
ĠT ech
Ġst em
Ġal erts
Ġbe autiful
qu er
for ds
Ġcomp ass
Ġde fe
ĠA ir
ĠM aking
Ġappro val
ĠS at
ĠS um
Ġper plexity
Ġad s
ĠC ond
Ġimp r
Ġcont ro
ĠB rain
ĠP SPACE
si p
ĠH aving
Ġro se
ud es
end ritic
Ġmulti pl
Ġmulti set
Ġmulti layer
te en
Ġenv ision
Ġexten sible
Ġnon trivial
tr ack
Ġ2 7
Ġid i
Ġapproxim ators
Ġcaus ing
Ġvis its
Ġenc aps
Ġsyn ergy
Ġscal ed
Ġra ising
Ġsur ge
Ġtarget ing
Ġfac ilities
ĠLe arn
ĠRe LU
Ġbl ur
Ġbl ocking
Ġmy ster
Ġpredict able
Ġpractical ity
Ġpost ed
Ġregular ity
Ġel ucid
requ ent
Ġexam ination
Ġtransform er
Ġcomprehen d
Ġ9 6
rel ations
Ġtack led
go ogle
Ġconst ants
Ġinstr uments
Ġsoci etal
Ġlist ening
Ġelect rical
Ġmanipul ated
Ġ200 9
Ġrelax ations
ĠGraph s
gener ating
Ġdeb ates
ĠSp atial
Ġbeg un
ĠApp ro
Ġsl iding
Ġfa ulty
ĠDist ance
Ġevid ent
Ġremo ves
ĠMat rix
Ġcounterfactual s
Ġpack et
Ġrigor ously
ĠReg ion
Ġorganization al
Ġchem istry
Ġmist aken
Ġpercep tron
Ġtro uble
ĠUni versal
Ġlexic on
ele b
Ġstri king
Ġprohib itively
Ġoffic ers
mat ching
interpre table
Ġrecon f
approxim ation
Ġconvin cing
Ġlandmark s
Ġca ught
Ġprep are
occur rence
Ġcreat ure
unic ation
Ġrecom b
Ġpor tions
Ġevac uation
Ġintellect ual
ichot om
ĠArab ic
ĠHess ian
ĠHert fords
ĠHertfords hire
9 8
F or
G aussian
P h
R TS
S W
T H
Z ero
d ifference
h ot
l ar
n y
r un
t ang
t echn
Ġt ighter
ti bility
Ġf ic
Ġf using
Ġb ic
as te
Ġn ational
ec raft
im plement
ur l
ul arities
ve ment
un i
ĠT erm
os ely
ĠI DS
Ġcomp elling
ĠIn tr
ren s
Ġsh ook
ay er
ĠM ary
ist inguish
Ġres emb
ĠS O
Ġcl uttered
Ġsp end
ĠC ent
igh tened
feren cing
Ġch ief
ĠD ep
ĠB our
ĠO M
Ġrep etitive
ĠF ed
ĠP oint
ĠR o
Ġdis orders
Ġdis similarity
ĠE V
Ġinter disciplinary
Ġhas hing
ĠL ab
ĠL ight
Ġcons ol
Ġem ission
Ġass ured
Ġass ets
Ġdef ects
Ġreg ulations
por ts
Ġ2 9
Ġobs c
ĠU K
ynam ics
ĠEx pectation
Ġhand ful
Ġintellig ently
Ġvis ibility
Ġsyn chronous
Ġformal izing
ĠOn ly
Ġtool box
Ġrem emb
Ġconver ts
sc ill
rop ol
ĠDeep M
Ġcategor ized
Ġpost s
Ġpost er
Ġaff inity
Ġinflu encing
ĠAd a
Ġge ographic
Ġsepar ability
Ġaccess ibility
Ġposterior i
cal culus
Ġ7 5
Ġsummar ized
Ġsummar izes
Ġimpos sibility
ĠTrans E
Ġdig it
Ġrefle ction
Ġfunctional ities
Ġec onomy
Ġvirt ue
ĠDL s
ĠSp eech
Ġhol ding
Ġspeak ers
Ġbrid ging
Ġidentif iability
Ġvers a
expl oration
Ġgran ular
Ġradi o
ĠExpl an
Ġembod iment
Ġsho pping
ĠPredic tion
Ġattain ed
Ġcli ents
Ġpursu ed
att ribute
Ġpedestri ans
Ġscre en
ĠStruct ured
Ġgold en
Ġbarri ers
Ġunre stricted
ĠDesign ing
dem and
Ġanxi ous
Ġexpos ure
Ġhor se
Ġkinem atic
Ġexcess ive
Ġrecr uit
Ġpurch ase
ĠObserv able
chec king
ĠEns emble
ĠMicro soft
Ġvox el
annot ated
Ġnotor iously
overn ment
Ġmach inery
Ġintric ate
- $
A NN
B I
I m
K E
R S
S p
U GE
a is
b ur
c ue
c oded
j ud
k es
l oc
p ower
t hes
u ate
Ġ lying
Ġt ears
he rom
Ġo scill
Ġp iv
Ġc ub
Ġc ortex
Ġw ar
Ġf em
Ġd uty
it ary
ic ate
us iness
Ġg ating
Ġex ception
Ġex ogenous
Ġwe alth
ĠW MT
Ġv ain
Ġwh is
Ġde emed
ĠA TP
ĠM ultim
Ġper mit
oc ular
ĠC G
ĠC our
ĠD AR
ĠB Ns
ĠB arsad
Ġrep utation
Ġrep etition
ĠF itz
ĠF lick
Ġco h
ĠE DA
ĠE LM
Ġinter depend
ud y
ph r
Ġpre requis
end a
Ġmo uth
Ġprocess or
Ġdet ections
strain t
Ġmin ute
til ity
Ġloc ating
su ally
Ġunc over
Ġgro unds
ric e
ĠV R
ĠV engeance
ĠFor ster
Ġins pect
Ġarg u
Ġsur passes
hip s
ĠRe play
Ġpath way
de velop
Ġstrong est
Ġabstr acts
Ġimpl ied
order ing
Ġconditional s
ĠEn d
Ġsuper position
ĠRes ource
Ġaccess ed
Ġsumm er
ĠInt u
Ġresearc hes
igur ation
Ġadvantage ous
ĠTr ust
Ġconnec ts
Ġsummar izing
Ġtransl ates
ĠComput ation
ĠSP Ns
Ġabs ent
Ġtax onomies
201 6
Ġexc iting
Ġtravel ling
Ġgen re
Ġproven ance
Ġren ders
Ġindex ing
Ġviol ated
Ġcat alog
Ġarri ved
Ġpropag ate
Ġpack ages
AV s
Ġste ering
ĠReg ression
Ġcompr ised
ĠInte ger
Ġadequ ately
II I
Ġlandsc apes
Ġprofession als
PL L
Ġabsol utely
under stand
ĠNon etheless
learn ed
Ġtac tile
Ġimit ating
Ġconce al
Ġbootst rap
Ġrecon c
Ġsoc ieties
Ġpreval ence
Ġrecip e
Ġparaphr ase
Ġarti fact
Tr ans
ĠDetermin istic
Ġours elves
ĠDiag rams
Ġunus ual
doc ument
Ġoverw hel
ĠBour gh
ĠFlick r
8 5
8 6
B l
J oCo
L DA
N ot
O p
S GD
U P
a fter
c ategor
h u
i um
j ug
l ink
r andom
t u
t ative
t aking
Ġs ounds
en abled
Ġo il
Ġp ow
Ġp herom
Ġm ur
ic he
ec ks
Ġg ated
ra is
ate au
Ġas ide
ĠI E
ĠI de
Ġsh ares
Ġun su
ist em
Ġres pects
ĠS pec
Ġk ne
ari an
ĠC H
ĠC re
ĠC Qs
Ġimp ati
op ath
Ġat titude
ĠD ST
ĠF air
Ġhe ight
Ġinc on
Ġrel ie
Ġpre paration
ĠN S
Ġtim ing
olic ies
Ġgeneral izable
Ġstruct urally
cep tive
Ġdistrib ute
Ġam iable
Ġmat ters
ĠU sually
Ġcol oring
Ġav at
Ġcall ing
Ġvis u
Ġlocal ized
Ġsur gical
Ġmaxim ized
ĠWh o
Ġent ering
de g
row s
Ġadapt ability
Ġneg lect
Ġneg lected
ĠSt anford
greg ation
Ġperson a
Ġinitial ized
Ġannot ate
Ġpublic ations
Ġreview ing
ran king
ret ched
Ġalong side
Ġabstract ed
Ġrepl acement
Ġfore ign
ĠGener ating
Ġreach able
Ġ6 5
Ġdistin ctive
Ġparticip ate
ground ed
ok er
Ġlist ened
MA RL
Ġprototyp ical
Ġinv alid
iec e
ĠOptim al
au tious
Ġchain ing
Ġexch anges
Ġdomin ated
Ġgen u
Ġuns atis
Ġelic ited
oin ted
eff ect
Ġfron tier
Ġdiffer ing
Ġinfrastruct ures
Ġconject ures
ĠAuto ML
Ġprioritiz ation
Ġlogistic s
ĠNot ably
ĠDisc overy
Ġconcent ration
Ġtac tical
ĠStruct ure
ĠSimilar ity
ĠQual itative
Ġocclusion s
prob abilistic
Ġearth qu
ĠApproxim ate
Ġpit ch
Ġrenew ed
Bayes ian
Ġprol if
Ġbil inear
Ġbread th
Ġdial ec
Ġannoun ce
Ġvolum es
Ġunderp in
Ġcybers ecurity
Ġspon tane
8 9
9 0
C V
F E
G C
I A
K T
R B
a ided
b oth
d on
g en
h igh
p owered
s entence
w ater
er al
en di
Ġp ity
Ġp ill
ro ut
Ġan ch
Ġd ose
Ġd ichotom
le ctive
Ġb ilingual
as ps
Ġpro te
ĠT urk
per to
if iers
Ġ( \
Ġmod ulo
Ġus eless
iz ar
ĠM P
ĠM ari
ĠS er
ĠS ud
ĠC loud
ĠD ar
ĠD ifferential
Ġqu est
ĠB al
Ġstr ange
ĠF l
ĠF actor
rib utions
Ġdes ider
ĠR out
ĠR ules
ĠR TS
ĠH RL
ĠH MM
Ġtr acing
Ġdis aster
Ġro t
ph ase
ĠL ife
tain ed
Ġpre conditions
Ġcomple ting
ĠN ational
ĠN orth
Ġy outh
ĠG RU
th ora
Ġpo etry
Ġexp ands
ĠâĢľ _
Ġdistrib uting
Ġcap sule
Ġind istinguish
Ġmin ed
Ġam or
Ġany body
Ġsequ encing
Ġapproxim ator
fy ing
Ġsyn apses
Ġconf ig
ĠOn to
com b
ult in
ov ie
ĠCon ventional
ĠRe venge
Ġret ros
ĠExperim entally
Ġrev ised
Ġlow est
ĠNe ighbor
con tinuous
Ġrelated ness
oid s
Ġcri ti
Ġcategor ize
Ġaff ine
Ġnecess it
Ġmon ocular
cl uster
Ġcoll apse
AR S
Ġevent ual
ĠY ork
ĠY oun
Ġread ers
ĠRes pon
Ġdown load
AC S
otyp e
Ġdistin ctions
Ġschedul ed
math bf
app a
Ġaccept ability
ĠGo al
Ġple thora
ĠDL V
Ġtermin al
Ġslow er
Ġvol t
ĠQu antum
Ġpol iteness
Ġpen et
ĠInter pre
ool ing
ĠOnt ologies
iqu es
Ġdoub ly
ĠAuto encoder
ĠMI P
Ġtab u
Ġdiscipl ine
Ġhop ed
ĠEv idence
Ġoccasion ally
ĠAlpha Go
Ġbip olar
Ġmultic lass
Ġcoinc ide
Ġoblig ed
Ġafford ances
ĠTP LP
Ġdeliber ation
Ġswe et
Ġswe ep
Ġrew rite
Ġsupplement ary
Ġcounterex amples
Ġsudden ly
Ġendeav our
Ġparametri zed
ĠAssum ing
Ġinapp ropriate
ĠEr ror
Ġinadequ ate
Ġol der
Ġargu ably
, \
- ,
3 2
7 5
9 5
G N
G ener
N LI
R F
S MT
T C
c s
d d
f re
n d
n el
o ked
s f
s ensor
w illiam
Ġs of
en o
at ching
is is
is ations
ro te
Ġw arning
Ġw rote
Ġf use
Ġf uel
ar di
Ġm ad
Ġb ra
as m
Ġre used
Ġre jection
om orphic
Ġn om
Ġn erv
us ers
ul ous
Ġl ift
Ġl ighting
Ġl iber
un s
un ting
ĠT M
ĠT s
Ġst ro
Ġst airs
Ġst aff
ch ar
Ġle ts
ĠI L
ter factual
ge red
Ġwh olly
ain ting
ĠA p
Ġsh ot
Ġun related
ĠS i
ĠS QuAD
Ġpa use
ĠC S
ĠC U
ĠC ur
ĠC AP
Ġcont am
ĠD ense
Ġnetwork ed
ĠF ive
Ġinter connected
Ġinter change
vi le
Ġcomple ments
duc ing
Ġgra dual
Ġreal izing
Ġdemonstr ator
Ġfin ish
ty ard
Ġhigh way
Ġsign atures
Ġcor rob
Ġdef enses
Ġpat ch
Ġpat ri
Ġj ourn
Ġgro wn
Ġadv ancing
ĠK n
ĠV GG
Ġprobabilistic ally
Ġformal isation
Ġaction able
Ġbl ank
Ġprom ises
ord inary
Ġvalid ating
Ġdri ves
Ġstochastic ity
oid al
Ġaff airs
omet ry
Ġregular ly
ensi tivity
Ġcontain ment
tit udes
ĠRes ear
Ġsepar ates
Ġprof ound
que e
Ġmotiv ating
iss on
Ġretrie ving
Ġgeomet rical
Ġfit ted
Ġ6 4
Ġchec ks
Ġorgan ize
Ġparticip ation
Ġgr asps
hard ness
Ġdeli vers
Ġclaim ed
Ġanalog ies
Ġdemand ing
Ġdecre ased
Ġconclud ed
Ġguarantee ing
Ġpay offs
ĠZ ero
Ġshap ed
Ġcut set
Ġimag ination
Ġgovern ed
ĠPer haps
Ġrefin ements
Ġphot os
Ġfix point
Ġcovari ate
Ġquantif ies
CR F
ĠBe havior
Ġcircumst ance
Ġkn apsack
Ġacad emia
Ġhon est
ĠMO OC
Ġconcent rate
ris k
Ġtut oring
Ġreform ulation
Ġcult ure
Ġsubstit ution
Ġhin ders
Ġversati lity
Ġapparent ly
Ġinterp ol
Ġdisag reement
sm ooth
ĠEng ine
Ġresil ience
ĠMu JoCo
Ġinev itable
ĠStrateg y
ĠTravel ing
interest ed
Ġware house
ocent ric
Ġjudg ement
Ġreconstruc ting
Ġmes h
Ġval ence
Ġalph abet
ĠImm une
ĠFitz william
E val
L D
N ow
Q U
S OM
e b
h is
h ost
k in
m ography
p edia
r ant
u ities
Ġ ut
in o
in put
en ch
or dered
Ġp ace
Ġc autious
Ġw arr
Ġin er
Ġin struct
Ġd rew
an im
it c
it ably
Ġb rib
Ġb are
Ġb isim
as c
Ġre ver
om ics
ur ies
Ġh ind
st o
Ġl as
Ġl ambda
Ġg aming
un ity
ĠT F
Ġst air
Ġal pha
id s
Ġle mm
ĠI B
Ġcomp ly
Ġsu p
form ative
ĠIn ception
Ġse at
ist ribution
ĠS afe
Ġr ing
ĠC OM
Ġch ord
ag og
ies t
ĠB oost
Ġrep airs
ĠP A
ten ing
Ġdis position
Ġrec tang
Ġrel ied
Ġoptim izers
ĠN ER
ĠG NNs
Ġsub structures
Ġfin er
Ġtrans mit
ik i
ĠU C
Ġstrateg ically
pon ential
ian ces
Ġhand crafted
Ġdep ict
ĠK ernel
ĠAn aly
Ġadap tivity
ult ural
Ġconver ted
Ġmean while
Ġcoun tenance
Ġact u
ĠJ ap
ĠCom plex
rop ic
ins on
Ġemploy ment
Ġsuit ably
Ġcent ered
read able
Ġequival ently
Ġsepar able
Ġcur ious
Ġdecompos es
Ġreturn ing
Ġfore sts
Ġfacilit ated
Ġdr one
Ġorgan izing
class ical
ĠPar allel
ĠSem i
ĠBen chmark
Ġmagn etic
Ġacceler ates
Ġinv itation
Ġ200 0
Ġinfin itely
Ġcorrespond ences
Ġconfir ms
Ġcompil ing
Ġbeg ins
Ġdifferenti ation
Ġcircum vent
mer ic
ĠColl aborative
be it
Ġmitig ation
min im
Ġcop ying
Ġauthor ity
Ġcoal itions
ĠReg ular
ĠPR O
Ġexceed ingly
Ġdrug s
Ġretain s
ĠPredic ting
Ġbottlen ecks
Ġpossess es
Ġsket ches
Ġmask s
Ġtac tics
ĠTyp e
Ġlayout s
ĠTheore tical
Ġcontrad iction
mar gin
Ġdegra de
ĠWork shop
ĠContext ual
Ġrew arding
Ġingred ient
Ġdread ful
Ġinterle a
anes e
Ġunav ailable
Ġentang lement
Ġunivers ally
Ġignor ance
Ġentertain ment
Ġbund le
Ġbreat h
Ġforg ot
Ġmanag ers
Ġwhis per
ĠIntu itively
Ġdesider ata
9 1
9 4
B L
L ite
M AS
b ot
b olic
b elief
c ode
f ix
f unctions
g ain
h y
k ey
l aw
m otion
n ary
r m
s pectral
t re
t ag
t wo
z uma
Ġa ug
in atorial
he ars
ti tious
Ġo ve
Ġp ock
Ġc od
ro us
Ġw is
Ġd imin
Ġm am
Ġre perto
et ed
Ġpro ud
Ġpro jective
Ġpro active
Ġh int
Ġh ints
Ġl ag
Ġex poses
Ġst ems
res ource
il le
em e
em an
tic ed
Ġwith d
ĠI D
am ps
Ġv ac
ĠA meric
ion e
uc hed
Ġun ary
Ġse ason
ĠM c
ĠM AC
Ġper taining
Ġcl asp
Ġmethod ological
ĠC M
Ġpar am
ĠD yn
ĠD CA
ĠD ouble
ĠD PLL
Ġnetwork ing
ĠF eed
ĠF isher
ĠP op
ĠP ost
Ġco ff
Ġco oking
Ġset tle
ĠH ill
ĠE arly
Ġinter conn
ĠL S
ex isting
Ġoptim ise
ĠG r
Ġsub rout
ha pp
Ġthere of
Ġ2 8
Ġma ze
Ġthem es
ĠEx tended
Ġestim ations
Ġsuccess ively
Ġlocal ize
Ġvisual izing
ĠCon clusion
Ġmaxim ally
ade h
Ġattention al
Ġent ry
Ġrev ise
ĠNe ut
con c
Ġstatis tic
Ġrecomm ending
Ġphys ician
Ġserv ant
Ġran ks
Ġneg atively
Ġillustr ation
Ġlik ed
Ġprot ect
Ġcent ury
Ġdeal t
Ġep id
Ġep istem
Ġ5 00
abet es
me an
Ġcur v
Ġcomprehen sible
Ġhist ories
Ġlink age
Ġcruc ially
ĠIm pro
ograph s
Ġ8 2
Ġparticip ated
Ġitems et
Ġcour tyard
ĠCol ony
crip tions
Ġdistingu ishes
Ġ200 6
Ġtermin ate
NF IS
Ġblock chain
Ġmarginal ization
Ġperiod ic
Ġinn ate
bal anced
Ġcircum scription
ĠPrevious ly
Ġidentif iable
Ġimag ined
with out
ĠPh ill
Ġallevi ates
^{ -
Ġpros pects
Ġped agog
ĠBe ing
Ġbin ar
Ġcommit ment
Ġdele tion
Ġexempl ify
Ġhur ried
Ġaxiomati z
Ġfaith fully
Ġundes ired
raw ing
EE E
ĠSequ ence
ĠAV s
ĠRO UGE
Ġow ing
Ġow ner
Ġinvent ory
prob ability
ĠEng ineering
arr ass
Ġconting ency
Ġprep ared
Ġpreced ence
Ġcolumn s
br and
ĠDB pedia
Ġadvoc ate
ĠDevelop ing
Ġclim ate
ĠFree base
Ġbrow sing
Ġslic e
ĠElect ronic
Ġepoch s
ĠCy ber
Ġadminist r
Ġfluct uations
ĠSchem a
ĠRet rieval
Ġly rics
Ġdub bed
Ġnucle ar
Ġmort ality
domin ated
ĠTech niqu
Ġcompass ion
Ġconsol id
ĠDeepM ind
ĠMultim odal
rais al
Ġcorrob or
ĠResear chers
2 6
4 8
9 3
A F
B B
C s
I E
M LP
O WL
R ec
R DF
c onstr
c ases
c ausal
d ef
d imension
e g
f ollowing
h abil
i j
n ear
o ul
r s
y e
} }
Ġt ile
Ġt ied
Ġs el
en et
or ch
Ġc ro
at tle
ro ph
Ġan ts
Ġan gry
Ġf ish
Ġm ag
le ts
Ġb low
Ġe B
el berg
ac on
im il
Ġh abit
ce an
Ġl osing
Ġg as
ĠT er
ig her
ĠI sing
ĠA ug
Ġint ension
Ġdat alog
ĠM ain
ĠM TL
Ġres ent
Ġres onance
ĠS M
ĠS qu
Ġimp ed
Ġimp utation
Ġat titudes
ag ents
ĠD r
ĠD BN
ĠF L
ĠF S
ĠR est
ĠH urst
Ġsol ar
Ġno ises
Ġrec overs
Ġinc idence
Ġinter dependent
Ġcons ult
ĠN AS
Ġacc umul
Ġme ets
ĠG od
Ġdist ress
Ġass imil
Ġanaly sts
Ġreal m
Ġprob ing
Ġver bs
Ġtrans it
Ġtrans cription
Ġcor tical
Ġind etermin
Ġind ifference
ĠU sers
Ġtyp ing
Ġobjec tion
Ġcol ors
ĠK R
Ġcharacter isation
Ġconf oun
Ġconf ounding
ĠV ery
Ġinterpre ter
ĠRe iter
ĠJ oint
Ġele ctions
Ġsk y
Ġcompeti tively
Ġel lip
Ġclos eness
Ġdiscrimin ators
Ġalign ing
Ġlife time
DA Gs
Ġ9 3
otyp ic
Ġdr if
Ġsugges tion
IS M
ĠMonte zuma
Ġderiv ations
Ġsoci ally
Ġconvex ity
Ġrecur rence
Ġdecl ared
Ġlif ting
rup t
Ġjusti fications
Ġpol l
Ġthresh olding
Ġdeliver ing
Ġmoment um
ĠMA X
Ġarri ving
Ġmitig ating
Ġlab elling
GD s
Ġ199 0
Ġadequ acy
Ġenumer ating
\' {
Ġattain s
observ able
ĠSol ving
CSP s
Ġlabor ious
att ack
ĠSy mbolic
ĠAPI s
Ġtu ple
ĠMinim um
win ner
ĠVe hic
Ġworkload s
ĠConf idence
ĠUAV s
Ġunin tended
system s
Ġcampaign s
Ġaro se
Ġstabil ize
program ming
fall s
ĠHT N
Ġmanus cript
Ġtrustworth y
ĠRecomm ender
Ġeg ocentric
ĠDig ital
station arity
Ġhouseh old
sour ced
Ġrestaur ant
Ġteamm ates
techn ical
Ġposter iors
Ġpherom one
Ġamor tiz
Ġnom inal
Ġnerv ous
B ERT
E V
F uzzy
H MMs
K A
O A
P PO
b inary
c ognitive
e valu
g ue
h our
i us
j an
j ust
l iv
m T
n ed
o e
s ome
Ġ :
in ely
he ther
re ements
Ġp an
Ġc ue
Ġc raw
Ġw el
Ġin efficiency
Ġin effective
Ġd il
Ġd ress
Ġfor ums
Ġl iqu
un te
ĠT ri
ĠW ide
Ġsu rely
Ġv ess
ab y
ain ted
Ġun realistic
Ġun eas
Ġun happ
ĠM izar
Ġres ort
fe atures
ĠC V
ĠC ar
ĠC AR
ĠD DPG
str ong
str ateg
ĠB ase
ĠB ern
Ġar tis
Ġag enda
ĠO h
ard en
ten tive
Ġhe d
ĠH A
ĠE D
ĠE ner
ĠL ord
Ġab and
Ġem ulate
duc ed
ĠG R
Ġhum our
th is
velop e
Ġtra it
Ġmin ds
Ġfunction ing
ou b
ens ed
Ġunc ons
uil t
Ġneed ing
Ġadv is
iter ation
Ġcharacter ise
Ġconf ident
Ġter nary
Ġminim ally
Ġu pl
Ġshe l
Ġcr isis
Ġworld wide
Ġprior ities
Ġindepend ences
ĠUn it
ĠJ uly
Ġele v
ĠCom prehen
Ġpres um
Ġadapt able
Ġrespect ing
ĠAr cade
Ġown ers
Ġintr actability
Ġlo osely
Ġhyper bolic
ĠSec urity
Ġ9 2
Ġ9 4
Ġcoordin ating
Ġdel ta
Ġ8 3
Ġalloc ated
Ġalloc ating
Ġinstr uc
Ġpert urbed
CA L
ES s
Ġmass ively
tif ies
Ġmanipul ators
Ġregion al
Ġple ase
DL s
ĠMet ropol
Ġstra tified
lay ered
Ġpol arity
ĠRob ots
ĠInter val
Ġprefer able
Ġcred al
Ġpred ecess
Ġgran ules
Ġsetup s
Ġcompr ise
Ġbur st
Ġga it
Ġmist ake
Ġextra ordinary
Ġoccup ied
Ġpress ing
BO A
Ġfraction al
ĠStruct ural
Ġfort un
Ġdiscretiz ed
inte gr
Ġsusp ic
Ġsty l
Ġsubstit ute
Ġreplic ate
Ġhin dsight
Ġstack ed
Ġtrig gered
regular ized
Ġreproduc ibility
Ġwall s
Ġcoinc ides
Ġadvertis ers
KB s
conf idence
Mark ovian
Ġdivers ified
Ġsn aps
Ġinev itably
intellig ent
Ġult ra
Ġaston ishment
Ġsubgroup s
squ ares
Ġtimet abling
Res Net
ĠDatab ase
Ġunim odal
ĠBand it
Ġmerg ed
Ġcoh ort
Ġunsu itable
ĠYoun g
Ġvolt age
fre eness
Ġaug ments
hears al
ĠDyn a
Ġcurv ature
habil itation
Ġsel dom
$ ),
4 2
B D
D DPG
P earl
S G
S U
T ext
X iv
a uth
c est
f ine
} {\
Ġ ?
Ġ **
Ġt ang
in ated
on tic
on ically
re f
Ġs tic
Ġo m
or c
or ms
Ġp y
Ġp owered
al igned
Ġf MRI
an o
Ġm iles
it arian
Ġb order
Ġn u
Ġfor aging
Ġl ived
Ġl ots
ver bal
Ġal tered
Ġal together
os c
Ġwe ap
ĠW in
ĠI Q
Ġus able
ter day
Ġv iv
ir ation
ĠA NNs
ĠA part
ĠA BC
Ġne oc
ĠS ing
ĠS ource
Ġsp ans
ĠC a
ĠC hess
Ġimp lying
ence ph
Ġpar ac
Ġpar sers
Ġar rays
ĠF ocus
ĠF uture
ĠF usion
ĠP T
ĠP ot
ĠP ort
ĠR ef
ĠR ank
ĠH IV
Ġpl ot
Ġpl ants
ĠE C
ĠE R
Ġro oted
ĠL im
ĠL ever
ĠG a
Ġdet erior
Ġhuman ity
Ġpo em
Ġpo inter
Ġfeat uring
Ġcomm od
Ġdef ect
Ġind ifferent
ou pled
ĠU se
ĠU CI
Ġsimul ates
vol ving
Ġhand writing
hem ical
Ġdep ic
Ġter ror
Ġformal ise
Ġformal ised
ĠQ oS
ci ent
Ġcorre ctions
Ġcorre cting
ĠAl gebra
SP I
Ġpop ulated
Ġlike wise
Ġschem ata
Ġview points
ĠMark ovian
Ġi ii
Ġcommunic ated
Ġtransfer ability
Ġself ish
gment ation
cl ock
Ġexperiment ed
Ġartic ulated
Ġyour s
Ġspecial ised
Ġlo ose
Ġtrack er
Ġdiscrimin ating
sh aped
ĠSe q
Ġobser ves
Ġprogress es
ĠX AI
Ġkind ness
Ġrest arts
oot ing
MA B
Ġjud ges
Ġrefle cted
Ġcontribut ing
Ġcontribut ed
Ġput s
Ġmal function
Ġposition ing
Ġregard s
Ġrelax ing
ĠSemantic s
Ġencour aged
Ġinsight ful
Ġcard inal
IC E
Ġdomin ate
ater al
OL O
Ġpropag ator
ĠMin i
ĠMin ecraft
comput ing
sp atial
Ġacyclic ity
ĠRel ation
typ es
Ġsho es
ĠPr inciple
Ġuncon trol
Ġimprec ision
Ġexempl ars
ĠRepresent ations
Ġfoot print
Ġproceed s
pe er
Ġorganis m
ambig uous
che str
Ġenfor ced
Ex p
Ġreconstruct ed
Ġstri ke
ĠAlpha Zero
Ġclean ing
Ġreform ulate
Ġtrip s
Ġexerc ises
Ġsubsum es
bl ack
Ġdepart ure
Ġadvertis ements
Ġther mod
Ġexcep tional
Ġur gent
Ġinterle aving
Ġaro usal
Ġroll outs
Ġsubmission s
Ġsad dle
Ġfruit ful
Ġsubsystem s
Pl an
Ġtherap y
ĠMech anical
ĠExplain able
Ġinsp ire
Ab I
Ġfost er
Ġtroub les
Ġtrunc ated
ĠAda Boost
thes is
Ġfem ale
ĠSud oku
ĠPhill ips
ĠVehic les
ĠEner gy
ĠMetropol is
enceph alog
, '
0 3
2 4
2 000
3 1
6 5
7 0
8 8
9 2
9 7
A NNs
D elta
G erman
I ST
S c
T hen
T CH
U E
U M
b o
c ast
f D
f ac
f rame
g i
g ro
g inal
h tm
m ade
o ull
p airs
r yp
t ability
v idual
v ectors
y our
z a
z es
} }$
Ġ |
Ġt ick
Ġt ender
Ġt aste
re ci
Ġs ni
Ġs ides
or ge
is tive
Ġw arping
Ġd omes
Ġm il
Ġb ow
Ġb anks
Ġre habilitation
Ġth rown
Ġn ice
us s
ac ious
im ents
im bing
ve hicle
Ġg ar
ut ton
Ġst ones
Ġal ert
ch oice
os ure
os sip
Ġmod ifies
am ber
Ġapp s
ess im
ĠA verage
ĠA SR
pl icit
red und
Ġun limited
Ġun labelled
Ġen forcement
ĠM K
ĠM DL
ure ly
ĠS ets
ad ratic
Ġr ated
Ġsp in
Ġimp air
Ġch ose
Ġch ances
Ġch urch
ĠD a
ĠD COP
Ġwhe el
ĠB DD
ĠB efore
ĠF A
ĠP res
ĠP ass
ĠP air
ten ding
Ġsc aff
ĠR am
ĠH PC
ple tion
Ġpl ag
ĠL abel
ĠN E
ĠN avig
ĠG it
Ġass et
Ġdem o
Ġdet r
Ġsub str
Ġprob e
cep ts
ip her
ason able
Ġsem inal
ld e
Ġpat rol
Ġbeha ves
Ġsyn onym
Ġextr active
Ġmem rist
Ġappl iances
Ġcompar ably
Ġvisual ized
Ġcr uel
Ġ3 3
Ġ3 5
agn etic
pro pag
Ġgl ance
Ġmy opic
Ġorig ins
Ġexec utes
Ġextract ors
Ġattack ing
Ġengine er
Ġve x
ĠSt reet
Ġpoly m
Ġcent rality
Ġsuper human
Ġfil led
Ġcontain er
Ġcondition ally
pr one
Ġprof iling
Ġconsequ ent
onsist ency
Ġdr inking
Ġnear by
Ġitems ets
Ġrout ines
Ġclin icians
ĠEm otion
Ġtruth ful
ĠPar tial
Ġelimin ated
ĠPl an
Ġ200 5
Ġattr act
Ġcompet ent
Ġvirt ually
Ġresol ves
itiz ed
Ġcompil er
Ġir relevance
Ġboost s
ĠRob ot
ĠSu pervised
Ġindex ed
Ġsat uration
aw areness
Ġiniti ated
Ġcop ies
Ġ199 5
ĠLP MLN
determin ism
ĠPR ISM
ĠAg ain
Ġvast ly
eng ineering
Ġmim ics
under stood
Ġexempl ar
Ġadm iration
ĠBl ack
Ġasymmet ry
Ġsucceed s
ĠPo isson
Ġarrang ed
Ġsubclass es
Ġwat ching
Ġsacrific e
Ġshad ows
Ġabund ance
Ġfuzz ing
Ġtens ors
Ġyes terday
Ġod d
Ġanxi ety
Ġdefici encies
ĠStack elberg
Ġfo rens
see king
ĠFore st
Ġschol arly
Ġdu plic
algorith m
Ġbon us
Ġsales man
ĠCoun terfactual
ĠArch ive
jug ate
endi x
Ġprote ins
ĠRout ing
Ġindistinguish able
Ġhind ered
sto chastic
Ġstair case
ĠNeut rosophic
Ġartis tic
oull i
( {\
+ \
A d
C NF
F NN
G amma
M a
O U
P ar
S NE
T O
_ .
b oost
f ron
g overnment
h anced
i ries
k i
m ove
m aker
n ected
p attern
r ations
r ace
s ites
Ġt a
ti ly
ti lde
er ves
Ġp essim
Ġf allen
Ġin h
Ġd ancing
an tical
an alysis
ar row
Ġm ig
Ġb ent
Ġb ell
ic z
Ġe go
et ing
Ġn ose
us ts
ec onomic
Ġh ide
ul ator
Ġl ens
Ġg reed
ut or
Ġcon d
Ġst ance
if iable
ĠI EEE
ge q
Ġapp rehen
Ġv ir
ĠThe ories
Ġse ated
Ġmet am
ĠS ensor
ĠS henoy
ĠS cheduling
Ġor acles
Ġcl utter
Ġr um
ĠC C
ĠC row
ĠD M
ĠD el
ep s
ific ant
ak s
âĢ ľ
ĠO rac
ĠP G
ĠP O
ĠP ower
Ġco ars
ĠR em
Ġsol icit
Ġtr act
Ġno body
ĠL A
ĠL F
Ġpre par
ĠN MR
Ġmulti scale
ĠG L
Ġass istive
Ġfin itely
Ġpo ems
Ġsign ed
Ġdesign ated
Ġconstrain ing
tr ansi
Ġmat ure
Ġj oy
su pp
ib ler
Ġidenti ties
ĠPro of
ĠK ull
Ġpri vile
ey ond
epend ence
Ġcontin uity
Ġsur faces
Ġmaxim ise
Ġrem in
Ġconver se
Ġser vers
Ġser iously
Ġkey word
Ġide ally
ĠWh ich
rid ge
Ġassoci ating
Ġdoes n
Ġabstr active
ĠUn supervised
emp t
aps ed
ĠAd vant
Ġinitial ize
Ġel usive
Ġcontr asting
Ġpass es
Ġread able
Ġge ological
Ġ4 8
Ġprof its
Ġdiscrimin ant
Ġcomprehen sively
Ġcontroll ability
Ġhist ogram
ĠTr acking
Ġdr ink
Ġ8 5
Ġ8 8
Ġz one
Ġgr ass
ĠSim ulated
Ġdirection al
oot hed
Ġlist ener
Ġabs or
Ġbig ger
DF s
Ġmatch ings
Ġconfir ming
ĠSp anish
Ġsenti ments
Ġemb arrass
ĠInter action
Ġprison ers
Ġspl its
heuristic s
Ġcy cl
be ha
ke eper
Ġpropag ated
Ġlot ter
Ġiniti ate
Ġhom es
ĠVari able
Ġpenal ties
Ġaccep ting
Ġaver ages
Ġfix ing
Ġarc s
Ġenumer ate
eng ine
Ġexcl aim
ĠLa plac
Ġdisentang lement
Ġharm ful
ĠBl ock
Ġhur ry
Ġinqu iries
Ġsusp icious
Ġcomprom ising
ĠVide os
Ġparagraph s
Ġencom pass
ĠRO BDD
Ġshif ting
Ġsubgo al
Ġtriang ulation
Ġdisag ree
Ġmel ody
Ġrecording s
Ġinstit ution
ĠSV Ms
ĠAD MM
Ġpit falls
Ġkinem atics
Ġentang led
Ġax is
Ġtun able
Ġles ion
Ġsyntac tical
Ġincl ination
Ġpragm atic
Ġaesthe tic
Ġamb ient
Ġmicrosc opic
Ġelig ibility
Ġaud it
ĠEff ective
Ġunch anged
Ġauthentic ation
ĠCond orc
Ġoverwhel ming
Ġearthqu ake
Ġprolif eration
Ġaxiomatiz ations
htm l
Ġsni pp
ĠCondorc et
+ ,
. \
3 5
6 7
B oolean
E HR
F M
K Gs
M on
R O
R ob
S F
T e
a ired
b atch
c an
c her
f il
f ocus
g ged
l ist
l ie
o tive
o herent
p et
r ating
s ession
t une
t oler
w enty
Ġt all
he im
en vironment
Ġf ocal
an aly
Ġm erc
it ure
Ġb urn
Ġre feren
Ġn a
im inal
ul as
Ġis su
Ġl uck
Ġg amb
Ġg reen
ĠT H
ĠT opic
ĠT esting
Ġst uck
Ġal tering
id ity
em i
ĠW ind
ot one
Ġapp raisal
Ġv iz
ain ed
ĠA N
ĠA CL
ĠA Box
um ph
Ġun de
Ġun fol
Ġun ambiguous
ich ing
Ġen su
ĠM or
ĠM ess
ĠM AT
ĠM aps
Ġmet al
ĠS till
ĠS AN
ĠS cal
Ġor chestr
fe ature
Ġcont est
op ing
op ed
ĠD rawing
ĠTh anks
ĠB ang
Ġar ity
Ġag ric
ĠF act
ĠP age
ĠP oker
ten d
Ġdes k
ĠR P
ĠH op
Ġdis order
Ġinc ap
Ġinter fe
Ġinter related
Ġro l
ug eno
iv ity
ĠL aw
Ġpre process
Ġmo od
Ġover ly
Ġtim eline
Ġout door
ill ot
Ġinformation al
ĠG al
ĠG MM
Ġgra ve
Ġgra des
Ġsub mit
ĠTo ol
Ġprovid er
Ġunc omm
Ġsa fer
ĠPro grams
tiv ation
Ġconc ur
Ġembed s
ling u
Ġsingle ton
Ġbi ometric
Ġcompar atively
Ġcluster ings
Ġresult ant
ĠJ ud
Ġpredict ability
Ġsampl er
Ġmis er
Ġsk in
Ġocc luded
Ġdoc tor
cl ustering
Ġmakes pan
Ġcent roid
ĠY es
Ġexpress es
Ġacqu ainted
Ġinfer ior
Ġ4 5
man y
Ġche er
optim ization
Ġtimes cal
Ġteam ing
Ġfore ground
Ġnever theless
ĠGener ally
fact or
fact ory
Ġfl ood
Ġcorrel ates
app ro
Ġbig gest
Ġauto epistemic
Ġple asing
Ġwin ter
CO Ps
Ġvol unte
Ġexch anged
Ġpubl ish
Ġboost ed
Ġtal ent
The y
ĠMA ML
Ġtw in
exp ression
Ġemphas izes
Le ibler
po lynomial
sp aces
osp atial
spec ification
ĠMod ulo
Ġspread ing
ĠPri ze
Ġpain ting
Ġcommit ted
sub ject
Ġcas ual
ĠIs abelle
Ġpict ures
ques tion
ĠMaxim ization
Ġmer it
Ġfavour ite
Ġtriple t
ĠCor pus
Ġfort night
ĠAss ist
person al
Ġcompens ation
no ise
ĠNumer ous
Ġconce ived
Ġdest ro
Ġstead ily
Ġdegra des
Ġencom passing
Ġstrug g
ĠConcept Net
Ġmultic riteria
Ġspik es
Ġdisadvant age
bre aking
Ġconvey ed
Ġsustain able
Ġunw anted
ĠPers on
Ġri ver
ĠQuanti tative
tify ing
Ġsupervis or
Ġillum ination
Ġconcaten ation
Ġdisturb ances
ĠConvers ational
ĠAltern atively
ĠCD CL
Ġsmartph ones
ivari ate
Ġdens ely
Ġrej o
Ġsubjec tivity
Ġenem y
ĠHamilton ian
Ġcongr at
Ġidi otypic
Ġrecruit ment
Ġdialec tical
Ġiner tial
Ġcoff ee
ĠBern oulli
ĠLever aging
ĠKull back
Ġtimescal es
" ),
? '
A ut
A ware
D ST
I PS
L L
M ed
M ulti
M iss
T ree
W C
W W
W alk
Y our
b ly
b its
c riteria
f ing
f ire
g ger
i at
i as
n atural
p ainting
r ates
r ules
t elling
u ated
in ence
on ious
re ction
re inforcement
re gret
ti fic
Ġs ingly
Ġs ectors
Ġp ione
Ġan cest
Ġf old
Ġd ust
Ġd ied
Ġd ream
an i
Ġto uched
Ġre ar
Ġpro st
ac tively
ĠT a
ĠT ower
Ġst eep
Ġal ike
Ġal beit
qu anti
ĠI BM
Ġcomp ounds
ĠA U
ĠA ust
pl ane
Ġun d
Ġun l
ĠM al
ĠM ac
ĠM ass
ĠM IN
Ġres emble
Ġres cue
ĠS AC
Ġcl icks
Ġcl iques
Ġsp ots
Ġk ill
ĠC am
ĠC HR
ĠC ooperative
Ġch a
Ġch un
Ġch ateau
ĠB I
ĠB re
Ġag gl
ĠO cc
ĠO DE
ĠF IS
ĠP V
Ġtask ed
ĠR M
ĠR NA
ĠR isk
Ġsol di
Ġtr icks
Ġinc idents
ĠL in
ĠL ib
Ġexpl ic
Ġab st
ex act
so red
ĠN ature
ati o
ĠG reedy
ong ue
Ġdisc our
yp othes
xim al
ann ed
Ġsem antical
Ġdef end
Ġind efin
ĠU pon
Ġunc om
iew icz
Ġdep ression
Ġsupp lied
ĠK E
Ġcaus ally
Ġtext ures
ĠAs sess
Ġcontin uing
Ġutil ise
Ġlat ely
Ġconver ging
ĠHe uristic
lud e
Ġbl ue
Ġlay ing
pro v
ffici ency
Ġgl oom
Ġrev ising
Ġprom otes
Ġpath ological
Ġrespon ding
ST D
Ġserv ed
ĠAd ditional
Ġregular ize
Ġhere in
Ġclos ing
Ġindic ated
pr ints
Ġprof ici
Ġlo ud
Ġche st
Ġpolynomial s
Ġconven i
Ġla un
MC S
MC Ss
Ġsw ap
ĠIm ag
ĠIm plement
)$ -
Ġ6 3
go als
Ġrich ness
Ġ8 7
Ġ7 8
Ġbal ances
Ġspect ra
Ġacceler ator
math sf
Ġlist en
text bf
dec ision
201 1
entral ized
ĠSp ark
Ġstra w
Ġtermin ological
Ġpip e
Ġport able
ĠDe ath
Ġperiod ically
Ġambig uities
Ġsmooth ly
Ġindex es
ĠConstrain ed
Ġden oted
MS E
Ġdon ations
ocabul ary
seud o
Ġradi ation
Ġencoun ters
Ġvocabul aries
Ġbiom ark
ĠOr der
MI L
We b
Ġdisplay s
Ġflu ency
Ġeleg ance
Ġdur ations
Ġpersu ade
Ġanticip ation
Ġconcent rated
Ġtriple ts
dist ributed
fin ite
ĠAss ignment
ĠSm all
Ġsympt om
Ne arest
Ġtoler ance
Ġscarc ity
Ġcopy right
ĠApplic ation
LA B
Ġphenotyp e
autom ated
autom atic
ĠME BN
Ġdefici ency
Ġrecr u
ĠTechn ology
Ġextrap ol
pop ulations
Ġecho es
ĠLi DAR
Ġrein for
Ġborrow ed
ĠAlex a
Ġsuscep tible
ĠEnc oder
ĠFil tering
Ġcos ine
ĠArchitect ure
ĠLiter ary
Ġstere o
Ġrhyth m
Ġbes ide
ĠOB DA
Ġpow ers
ĠSpec ial
Ġanch or
Ġut most
ĠJap anese
Ġforgot ten
Ġintension al
Ġdomes tic
ĠLaplac ian
illot ine
* .
B T
B DDs
D e
I TS
M NIST
P er
R el
R edu
S igma
V C
a verse
a zing
b ank
g on
g am
h ierarch
i ti
l ogene
m ill
m aps
m osp
n om
n ode
n umber
o tic
s parse
Ġs ized
Ġs arc
en y
Ġc ra
at tered
Ġw retched
Ġf ighting
ar ting
Ġm ultin
Ġb ul
Ġto x
Ġto mography
as iewicz
om er
ac tivity
ur s
Ġh ing
Ġh un
Ġh ouses
st airs
ul ly
ĠĠ Ġ
Ġl icense
Ġg ossip
ra wn
Ġon set
Ġal arms
Ġas cent
ĠW al
Ġle is
ĠI DA
am ents
ri er
ri ad
Ġv end
ir ds
Ġde arest
ĠIn fer
Ġun res
pos itions
ĠM us
ĠM IM
ĠM PE
ĠM ovie
Ġres idential
ĠS am
ĠS ingle
ĠS SS
Ġcl ues
tim ately
oc o
Ġpar king
ĠD av
ĠD ifference
all is
ram id
ĠB ord
ĠF ield
ĠF OR
ĠF RI
ĠP F
ĠP P
ĠP CG
Ġco NP
Ġdes p
ĠR T
Ġno ticed
Ġdis gr
Ġdis pro
Ġro ots
ug hed
Ġdec oders
Ġvari ances
our ing
ĠL BP
Ġcons ent
end ulum
ang le
ves ting
Ġover load
ĠG ramm
ĠG CN
ĠG abelle
Ġgra titude
Ġhum or
onstr uction
Ġreal izations
ail ure
Ġup coming
Ġrequ ested
Ġreg ress
fer red
ĠTo M
Ġ$ {\
Ġtyp ed
Ġben ch
Ġsa ved
ĠPro duct
Ġchar ming
mark et
ĠAn alog
Ġcharacter ised
oy al
ci enti
Ġra il
Ġcorre cted
ĠCon t
Ġcr iminal
ind ed
Ġ3 00
Ġend owed
oint ment
ĠHe bb
Ġheuristic ally
ĠLe vel
imin ation
agn itude
Ġback up
Ġpath finding
ĠNe ur
Ġdiscover ies
Ġmis ery
Ġsimpl istic
Ġbefore hand
AI R
ĠY OLO
Ġ4 9
Ġsegment ed
ran ch
Ġcur ated
AC T
ogn izing
Ġsw arms
Ġdel icate
erior i
Ġ6 7
Ġsuff ering
Ġsuff ered
Ġ8 4
ĠSim ulations
Ġrest ore
Ġrest oration
Ġconsum ed
emb ling
math rm
ili ation
Ġ200 4
Ġinfin ity
log ical
Ġbr and
Ġnonlinear ity
Ġsoon er
itiz en
Ġtypical ity
Ġpay ing
ĠInter p
In deed
Ġfall ing
Ġfall acy
ĠIns tit
ĠCo ordin
Ġelic iting
tis m
Ġpropor tions
Ġpropag ates
Ġgovern ments
ĠHer brand
ĠCr uc
ĠPer cep
Ġaid s
Ġsole mn
ĠExpl oration
Ġpros per
ĠNew s
ĠMI LP
VR P
Ġneuro evolution
Ġproceed ings
Ġanticip ated
pe ak
Ġhur t
ĠComb inatorial
ĠGe orge
Con v
Ġcontrad ictory
Ġhin der
Ġjo ints
Ġphy logene
ĠPo ly
Ġincur red
Ġincur ring
ĠMinim ization
disc rimin
ĠGu ided
ĠPartic ularly
Ġnotice able
Ġbill ions
Ġdispar ity
Ġconting ent
Ġminor ity
Ġmarry ing
Ġcer tific
Ġbir ds
Ġignor ant
ĠUp per
Ġsell er
Ġpin point
Ġillum in
Ġsyntac tically
ĠAre a
Ġtow ers
Ġmetaph or
Ġquar ter
Ġsuscep tibility
Ġelder ly
Ġsynerg istic
uk asiewicz
ĠAccur ate
Ġshoul der
ĠContr ary
Ġmaneu ver
ĠIde ally
Ġincon ven
Ġgenu ine
Gener al
ĠTs allis
ĠAp ache
ĠCAP TCH
Ġreperto ire
Ġparam ount
ĠAug ust
ĠRest ric
Ġcommod ity
Ġsnipp ets
Ġconveni ently
Redu ce
0 5
A ll
B eta
C at
G L
I DS
M an
O b
O f
S tr
U n
W hen
a e
a que
c ooperative
d ig
d ynamic
g g
g ames
h ad
h ang
h ouses
i ation
l ance
l ooking
m et
n es
o is
p ixel
r ust
s it
s atisf
s afe
s aur
u pp
w ing
w ill
} (\
Ġt ension
Ġs en
Ġs le
Ġs and
Ġs ick
Ġp ian
Ġp ounds
Ġc ul
Ġc asting
al gebra
es c
Ġw and
Ġf are
Ġin ferential
Ġin ferencing
ar ming
Ġm u
Ġb ask
Ġre vers
Ġre versal
Ġn iching
Ġfor cing
Ġg rip
Ġg rie
Ġg host
ĠT able
Ġex er
id ly
ch ip
os is
Ġbe ats
ĠI DE
ĠI PC
Ġcomp ressing
Ġapp reci
Ġv ent
Ġde ontic
se y
um ann
Ġint end
Ġint ense
Ġsh ar
Ġsh ock
Ġse es
Ġres embles
Ġper man
Ġor bit
Ġk iss
di vergence
ĠC at
Ġpar sim
Ġch ron
ĠD I
ĠD epend
ĠB A
ĠB ra
Ġar ts
Ġag reements
Ġstr anger
ĠF PT
ĠP it
ĠP OS
Ġdes erve
ĠH E
ĠH in
Ġno v
Ġno ble
Ġdis like
ĠE c
end ation
Ġover s
ĠG V
ĠG aussi
ĠG GP
aus ible
Ġver tical
the ory
the ta
tern ally
tern oon
ib ration
oo le
ough t
ĠPro f
ĠPro per
ĠPro ximal
Ġformul ates
tig m
Ġnatural ness
gr an
Ġmem etic
ult ure
ĠAs ynchronous
Ġinf ants
Ġatten ding
ĠCon tin
Ġsec tions
Ġsur passing
Ġmaxim in
Ġquanti z
Ġquanti zed
Ġkey board
know ing
Ġpath ology
Ġhy d
Ġloss less
ĠCh o
ĠCh oice
Ġcal m
Ġworks pace
Ġtri umph
Ġequival ences
ism ic
Ġdiagnos ing
Ġqual ified
Ġ4 2
Ġ5 4
Ġmark er
ĠSe a
ret ely
Ġresearc her
Ġargument ative
Ġteam work
Ġinteresting ness
Ġdraw ings
Ġdel ine
IS E
Ġmonit ored
class ification
Ġ7 1
Ġ7 6
ĠSP I
ĠTrans port
Ġinterven e
Ġinterven tional
Ġrepe ating
201 2
ĠQu ick
Ġair space
Ġpol ar
Ġpubl ishing
Ġdecentral ised
ĠDNN F
ĠDoc ument
ĠThrough out
RE C
raf ting
Ġperm itting
Ġgovern ance
Ġconfirm ation
ĠClass ifier
Ġradi ologists
Ġdrop s
ĠQues tions
ĠOr d
ĠOr dered
ĠComm unity
Ġpros pective
Ġdevi ate
Ġexceed ing
Ġhorizon tal
Ġsho em
Ġflu ents
Ġdam aged
VR G
Ġcommit ments
function al
Ġmanufact ure
Ġadm ire
Ġpersu aded
Ġpursu ing
Ġaccommod ates
Ġmimic king
ĠThird ly
Ġinher its
Ġexhaus tively
ĠEs s
MAP F
Ġaccum ulation
ĠCPU s
Ġaf ternoon
Ġarrang ements
Ġconserv ation
ĠIC U
Ġ198 8
Ġreproduc ible
Ġoblig ations
Ġedit or
Ġdeliber ately
Ġmel odies
do ors
Ġhosp it
Ġarti sts
itud es
Ġpreced ing
Ġinterrup tion
ĠInf luence
Ġinj ury
Ġexpos ing
ĠDevelop ment
Ġunav oid
Ġprogramm ers
Ġest ate
adap tation
Ġtravers ing
Ġmisclass ification
Ġmanus cripts
Ġfif ty
Ġschol ars
ĠMathem atical
Ġleak age
meas ures
Ġelectro encephalog
support ed
ocr acy
Ġwrap per
Ġpharm ac
Ġelucid ate
Ġfic titious
Ġcub ic
Ġprerequis ite
deg ree
Ġspontane ous
Ġdichotom y
Ġpenet ration
uns ford
Ġlas er
ĠBoost ing
Ġove res
Ġuncons cious
Ġdetr imental
Ġmemrist or
ĠAdvant age
ĠBang la
Ġincap able
ĠBord a
$ ^
% -
/ .
3 6
7 6
A O
B ot
E EG
H RL
L o
P CA
R s
R ST
S AN
U T
V alu
Y C
a pped
c irc
d at
e es
f acts
f acing
i asing
l ations
l ers
l oss
l eness
m id
m otor
m eta
o I
o ices
p olicies
p ooling
s ingle
u ary
w is
w ar
y er
y ear
~ (
he tor
re ts
er ni
Ġthe saur
Ġp on
Ġc ube
es ian
Ġw ig
Ġw ins
Ġan ger
Ġf el
Ġf ati
Ġd ining
Ġb anking
ic o
Ġe ars
Ġth row
et ween
om atic
om otor
Ġpro c
Ġpro state
ac cess
ac cept
ec ution
Ġh ots
Ġh itting
st udy
Ġcon ferences
Ġcon jugate
ĠT S
id ental
id ata
Ġas certain
Ġcomp ile
Ġsu ms
ri ble
Ġde formation
ĠA CE
um ps
og rad
ĠIn dependent
Ġun fortunately
Ġun fold
ĠM MD
ĠS und
ĠS RL
ĠS wit
ĠS outh
Ġper mitted
Ġcl ing
Ġsp are
Ġad mitted
ĠC AS
ĠC SI
ĠC ycle
op es
Ġch ip
Ġch urn
Ġev il
ass o
ĠD rop
ĠD erb
ĠD endritic
ĠB er
ĠB ound
ĠB right
ĠB usiness
Ġag g
ĠO OD
ĠF ire
ĠP ur
ĠP resent
ĠP ark
ĠP ast
ĠP ub
Ġco ol
ten s
Ġsc anning
Ġop aque
ĠR I
ĠR AM
ĠR anking
ĠH EX
Ġpl ots
Ġinter ior
Ġfe e
ĠL ow
ĠL icense
lic able
ni an
vi ve
Ġoptim ised
Ġwork ings
ĠG BP
ĠG AIL
Ġfram ed
Ġunder lie
fic ing
Ġsub linear
Ġsub problem
Ġpos it
Ġpos session
Ġfin ished
the y
Ġcomm ut
Ġintro duct
Ġdef ensive
ha red
ise ase
Ġchallen ged
Ġso ul
Ġcombin ator
Ġj ury
su perv
ĠEx act
Ġparticular s
ogni tively
Ġdi abetes
Ġchar ging
Ġenc ryp
anis m
Ġprac tic
Ġfact ual
Ġnatural istic
Ġlocal isation
Ġinf requent
SP s
ys hire
Ġ3 1
Ġcolle cts
eep ing
ax ter
Ġachieve ment
ĠRe le
Ġprom ised
sc apes
Ġoff load
Ġproduc tive
ĠMark et
Ġmy riad
Ġabstr acting
Ġaltern ates
Ġaltern atively
ĠRL S
Ġdescrip tor
Ġpres cribed
Ġiter ates
Ġaff irm
cl imbing
ĠAd am
AR E
Ġdev ising
Ġge o
Ġcalcul ates
AP S
Ġfour th
Ġtrack ed
Ġrece iver
ĠDes cent
Ġrepl anning
Ġmarg ins
Ġcirc le
Ġcollabor atively
Ġnormal izing
PS IS
Ġdel ighted
ars a
wh o
Ġrecogn ised
Ġ8 6
Ġcour age
Ġgr ate
Ġgr ace
class ifier
Ġ7 4
rob ust
Ġsurvey ed
Ġentail ments
Ġconsum e
Ġconceptual ization
pa ired
Ġrevision s
Ġ200 2
ĠStr ong
Ġir res
ĠMa pping
RE D
ĠOb jective
Ġ199 9
.. .,
Ġtail or
Ġste pping
CB R
Ġpenal ized
Ġcheck er
Ġretain ed
Ġdark ness
Ġoccup ation
Ġexempl ified
Ġconv iction
Ġprem ature
ĠMO BA
CF R
En t
cor por
ĠDisc rimin
Ġdiction aries
ĠEvalu ations
Ġasser tion
atter ing
Ġassemb led
Ġworth y
ĠTheore tically
inte ger
AG I
ĠDet ecting
Ġsusp ected
Ġelabor ated
sib ilistic
Ġcorrup tion
Ġconform ant
Ġwave form
trans lation
ĠInd ex
ĠInd ust
Ġdepart ment
Ġadvertis ement
ĠConf lict
Ġinvent ed
ĠAtt ack
Ġdefender s
Ġinstant aneous
ĠPers onal
Network s
inst ance
Ġextrap olation
Ġbuy ers
Ġreject ed
ĠEp istemic
ĠDem onstr
ĠIdenti fying
Ġmir ror
ĠCLE VR
Ġinhib it
ĠIni tial
ĠAssoci ation
Ġconfron ted
Ġcardi ac
Ġpiv otal
Ġsup per
conc ave
ĠTechniqu es
Ġcorrobor ate
fac eted
redund ant
Ġta ught
nom ially
ĠGaussi ans
ĠDerb yshire
ĠBright on
Ġintroduct ory
3 4
5 7
8 4
9 6
A A
A h
B i
B ER
C PS
D N
D Q
E CT
F T
G T
G en
H N
L i
M o
N ER
N AS
P rob
b on
c king
d it
d rop
e vent
f air
g el
h idden
h mann
l ong
p ected
r d
r l
s ign
t esting
v ide
{ }
Ġ ic
Ġa venue
re view
Ġp et
Ġc umbers
Ġc eleb
Ġc ognitively
al ian
es ter
at o
Ġf ol
Ġf ab
Ġf aint
Ġf iber
Ġd y
Ġm ale
it oring
le q
Ġb ore
Ġb ayes
ic ine
Ġre tr
Ġre tention
Ġth ro
Ġth ick
Ġn ic
im m
im ed
im aging
od ied
ul ent
Ġg ym
Ġg arden
Ġcon junctions
ĠT ab
ĠT Box
ĠT GDs
ch arge
ch anging
os om
am ine
ĠA f
ĠA CO
ach able
Ġdat es
Ġsh ip
pos ing
Ġac ute
Ġen velope
ĠM N
ĠM ay
ĠM ind
ĠS av
ĠS IM
Ġcl arity
Ġr ust
ĠC op
ĠC ertain
ĠC QA
ĠC OR
ĠC onsistency
and ache
ĠD LP
Ġob liv
all ow
ĠO ld
ĠO CR
ĠF ully
ĠP ars
ĠP sych
Ġco in
rib un
Ġhe ap
ĠR ub
ĠH TM
ĠH igher
ĠH unsford
Ġdis till
Ġpl ural
ĠE A
Ġro of
ĠL M
ĠL oc
ĠL ater
ĠL IME
ex ponential
ĠG S
ĠG T
Ġdem ocracy
art ed
Ġtrans ductive
Ġreg ulate
Ġtra versal
Ġcap s
Ġconstrain s
tr ue
ĠU b
ĠU l
ynam ical
Ġcol ored
su per
Ġconcep tion
Ġmeas ur
Ġsm oothed
ĠK DD
Ġconf ined
Ġfact o
Ġquer ied
Ġminim ise
Ġins ensitive
Ġinf am
Ġindiv isible
Ġent reat
Ġent rance
Ġprom p
Ġmemory less
eti tions
Ġhard est
con tained
ĠUn til
Ġvalid ates
ĠJ eff
ĠCom plexity
Ġpe ace
Ġstochastic ally
Ġevery where
ick ed
Ġref ines
Ġsecond ly
Ġadapt ations
AN FIS
ĠAr t
AR I
Ġfeed ing
Ġfil m
Ġge ospatial
Ġlook up
Ġ4 00
Ġrisk y
Ġtrack ers
ps ilon
Ġess ay
ĠSe e
ĠSe gmentation
Ġsynthes izes
ĠEliz a
ret urn
Ġrepl aces
Ġfore head
ĠTr ack
Ġbus y
Ġcirc ular
Ġintern ally
Ġestablish ment
Ġchec ked
AS R
Ġevol utions
Ġcrow ded
Ġclin ically
Ġlikelihood s
ĠPar ticip
ĠPar ameter
ĠCl in
ĠSem Eval
Ġcarri es
Ġcontextual ized
Ġacceler ators
Ġdiag onal
Ġprototyp ing
Ġinv asive
CO CO
201 3
201 9
Ġbeh alf
Ġexc el
ĠAll ocation
Ġvol ati
NF OR
rec ognition
LE X
Ġport ra
Ġgen res
ĠMo tion
ĠMo ore
Ġspars ely
parameter ized
Ġdiv iding
ĠConstrain ts
uck et
ĠMA B
be ing
OP T
Ġrepro duction
Ġiniti ative
Ġimag inary
Ġlab our
Ġstory telling
aut onomous
sp eech
Ġcount able
ĠExpl o
Ġmedi ated
200 7
Ġphot ographs
Ġdisplay ing
Ġportfol ios
Ġvisit or
Ġvisit ors
Ġunf ores
Ġmedic ation
OI Q
Ġexpans ions
ĠTyp ical
Ġmaster y
Ġfulf illed
Ġrepair ing
accur acy
Ġelse where
Ġtrig gers
ĠDis junctive
Ġdegra ded
Ġincur s
Ġaffection ate
Ġunre asonable
Ġmonot onically
Ġtriang le
Ġwat ched
ĠGu illotine
ĠSW RL
Ġrecip es
Ġcitiz ens
Ġmiddle ware
evolution ary
ĠHam ming
ĠDetermin ing
Ġinj uries
ĠAssum ption
inst ead
ĠCompar ing
intellig ence
Ġdog s
Ġprevail ing
ĠDire ct
ĠIndi an
det ection
Ġtor que
ĠGU I
ĠAdv ances
ĠMix ture
Ġanteced ents
versi al
Ġpeculi ar
Ġdefe at
Ġreconf iguration
Ġresemb lance
ĠExplan ation
ĠCour t
Ġsweep ing
quee ze
itc hen
Ġliqu id
Ġvess el
Ġunhapp y
oub ted
Ġfortun ate
ĠWin ograd
ĠNavig ation
Ġexclaim ed
Ġinterfe re
lingu istic
Ġdisgr ace
Ġphylogene tic
ĠRestric ted
Ġunavoid able
Ġcumbers ome
ĠSav age
0 6
2 7
5 00
A re
B e
D ri
E O
G As
I Q
J C
K F
O ne
P AS
S o
S ch
T ube
W E
W ER
\ _
a a
d est
d efin
f l
f lu
g s
i pp
l n
l iers
l log
m em
m ining
o ints
r ule
s ocial
s chitz
t exts
t actic
t au
z heim
Ġt urb
Ġa ided
en ari
Ġc aching
es pecially
at eness
is en
ed ing
ro g
Ġw ore
Ġan th
Ġan cient
Ġin jection
Ġin exp
Ġd ot
Ġd oll
Ġm and
Ġm ud
Ġm ouse
Ġb AbI
Ġre vol
Ġre ceptive
el p
Ġn ut
us ually
im p
ur ances
Ġh ither
Ġfor um
Ġl od
Ġl anes
un es
ĠT ex
ĠT ests
ver sion
per fect
em es
ĠW hether
ĠA im
ĠA CS
her ic
ĠIn form
ren gth
red uc
Ġsh aking
pos itive
Ġse p
Ġse vent
Ġse ismic
ĠS ep
ĠS LS
ad a
Ġcl ock
Ġcl ips
Ġr ights
Ġsp her
Ġsp ark
ĠC ategor
ĠC entral
Ġcont acts
Ġat mosp
ag ues
ĠD on
ap ing
ĠB el
ĠB eta
ĠB eyond
Ġag encies
Ġrep ar
ĠF B
ĠF R
ĠP seudo
Ġdes tr
ĠH ot
Ġdis per
Ġdis posed
Ġinc ome
Ġrel ief
Ġpresent ly
Ġpresent ations
ĠL amb
vi a
Ġpre condition
ĠN V
ĠN Ns
ĠN amed
ĠG ated
ĠG NN
we b
Ġdisc ard
Ġgeneral ises
Ġimpro per
Ġprog nos
ail ed
Ġexp ed
the ning
angu ages
Ġsome one
strain ts
ik es
Ġdistrib utive
Ġreg iment
ampl ed
Ġfunction ally
til le
ĠU N
ĠU r
ĠU til
Ġautom otive
Ġid le
line arities
Ġsupp ress
ĠAI s
ĠAn not
ĠAn nealing
Ġconf ess
Ġconf used
ĠV is
ĠV OC
par ty
gr id
com pleteness
Ġinterpre ts
Ġvisual isation
Ġarg uing
ĠAl zheim
ames e
RL A
Ġquestion na
ĠLe ast
Ġsatis ficing
ĠRe ward
Ġexplor ations
ĠRec ursive
Ġback track
Ġopen ly
Ġcompos ure
AT S
ĠJ ohn
jec tives
ĠCh ange
Ġsitu ational
Ġshort ly
Ġmon etary
ĠAd ap
ĠSt udent
Ġpoly nomially
round ed
Ġfil tered
ath y
Ġrecommend s
ĠY ah
Ġindic ative
Ġdiagnos tics
Ġsumm oned
Ġ5 7
Ġmark s
Ġnavig ational
Ġcle ver
ĠDec omposition
Ġinform atics
Ġsw apping
gl obal
medi ated
sy mmet
des cription
Ġsignal ing
Ġhead lines
iven ess
Ġproject ing
Ġred istribution
Ġ7 7
ĠCl uster
rob en
Ġpert inent
equ al
equ ival
equ ilibrium
Ġadj usts
Ġhope fully
ES S
Ġmass es
Ġjud ged
Ġded uced
ĠPl anner
Ġdecl are
Ġbr ittle
ĠGP s
Ġattr acting
Ġwin ners
201 4
ash ion
Ġir re
Ġpay ment
Ġremark s
Ġemb ody
Ġemb rac
Ġgen omic
Ġuns ol
ĠZ adeh
hat t
ĠMa jor
Ġden ote
Ġbreak s
ĠTree bank
ĠWik idata
Ġmanif olds
Ġemphas izing
Ġgran ulation
ĠPh ysics
rient ed
Ġstim ulate
eff ects
Ġaccep ts
Ġcompl ain
MI LP
Ġorient ations
Ġcovari ates
ĠPr ison
OT A
ĠAc ross
ĠRepresent ing
ĠFe atures
Ġpersu asive
Ġpick up
normal ized
predic tion
Ġsucceed ed
DNN F
Ġenfor ces
ĠCor relation
Ġlexic ons
Ġ25 6
ĠSL AM
MD B
ogen ic
uel ing
ĠEs timation
Ġinver ted
Ġoppos ition
ĠJac ob
Ġreproduc ing
Ġwave let
Ġenrich ing
Ġenrich ment
bre vi
Ġpra ise
Ġce re
Ġisol ate
Ġadjac ency
ĠApproxim ation
ĠImport ance
Ġcomment ary
Ġguess ing
ĠBas tille
Ġhaz ards
Or gan
ĠPos sibilistic
Ġest e
Ġimpression s
Ġdecou pling
Ġang les
ĠMobile Net
Ġinterview s
Ġtrustworth iness
Ġdegener acy
Ġrow s
Ġfurn iture
Ġsmartph one
Ġpredomin ant
Ġfat al
Ġbug s
WO Z
Ġstem ming
ĠCent er
Ġrememb ered
Ġunsatis factory
Ġwis dom
Ġmag ic
Ġdrif ts
Ġinstruc tional
Ġsuspic ion
Ġpy ramid
Ġneoc ortex
Ġparac onsistent
beha ved
engine ered
Ġunfol ding
Ġconcur rency
Ġmiser able
Ġsoldi ers
Ġbiomark ers
Ġpian o
Ġfab ric
Ġbayes ian
ribun al
Ġunfores een
ĠAlzheim er
$ ).
) }
6 1
A g
B ench
C lass
D on
E B
F CM
G NN
K L
L TL
L STMs
N ET
P M
P lay
Q G
R D
S at
S RL
S AR
S mar
W iki
X AI
b an
b as
b ow
b ots
b ooks
b efore
c r
c ar
c over
c oding
c oll
c ycle
c loud
g ates
g ences
h ots
k ind
l or
l able
l ock
l arge
l ustering
m ers
m agnitude
r ho
s ec
s ch
t ax
v in
v it
v ate
v ocabulary
w ild
w iche
y mbolic
Ġt iny
Ġa str
in ally
in ference
ti an
Ġs ending
Ġo cean
or ne
Ġc raft
at us
ro gram
Ġw et
Ġw ise
Ġf lying
Ġin painting
Ġd ine
Ġd ull
le te
Ġb ird
ic on
ent h
ation ally
om a
om i
om ogeneous
Ġn iece
Ġh ab
Ġh iring
st ant
Ġl iver
un ov
ĠT em
ĠT set
Ġst orm
ch at
Ġbe ating
Ġas leep
ĠW ill
ĠI F
ĠI V
ĠI LS
Ġ( $\
am ely
Ġapp endix
ri zation
Ġv oices
Ġlearn ability
ĠA ctions
ĠA LE
ĠA ugmented
pl aces
Ġne arer
ĠIn corpor
Ġint ens
work s
Ġse ren
ĠM M
ĠM em
Ġmet ab
Ġmet ers
Ġmet ale
rom e
Ġres orting
Ġres erve
ĠS F
ĠS enti
ĠS SA
ĠS ymmet
ĠS IFT
Ġsy ll
ad d
Ġcl o
Ġr hetor
Ġpa ve
ener gy
Ġad di
ĠC ra
ĠC irc
ĠC MA
op ter
Ġpar ted
Ġch rom
ĠD SS
ĠD EM
ĠD oom
Ġqu oti
ep tical
ĠB atch
ĠB idirectional
Ġar te
Ġar isen
ĠO O
ĠF i
ĠF CA
ĠP M
ĠP LP
ĠP AS
ĠP CR
Ġsc ored
ĠH o
Ġdis sem
Ġdis junctions
Ġinc oherent
Ġbet ting
Ġrepresent able
ĠL ook
Ġoptim ism
Ġpre cious
ĠN K
ĠN or
ĠN TL
Ġmo tive
Ġacc idental
Ġunder water
Ġass urances
Ġfin et
enc ers
ail s
Ġcomm ission
Ġdef ending
ha ve
Ġexist ed
tr ons
por tional
Ġ$ (\
Ġcol on
ĠIt alian
elf ond
Ġimplement able
Ġbas ically
Ġsm iled
ĠK in
Ġdefin able
ĠV A
ĠFor ce
wor lds
Ġlocal izing
Ġstand alone
Ġformal izes
Ġformal izations
com ponent
pir ation
Ġbi oc
uzz ification
Ġ3 4
Ġrem ed
ĠFin ite
Ġquanti le
ĠRe gret
Ġbl og
Ġlay s
ĠRec ognizing
Ġback end
Ġsoft ly
sequ ential
sequ ences
ĠUn iform
Ġte a
Ġact uation
AT P
Ġcommunic ative
Ġsampl ers
emp ty
ger y
Ġemploy ees
Ġcri tics
anc er
Ġfail ing
Ġrespect able
ĠAd d
omet rics
Ġperson nel
Ġsuper set
AI S
Ġannot ating
Ġmathem atic
ne ural
Ġ5 9
optim ally
Ġresearc hed
ĠLog ical
Ġcross ed
Ġcooper ating
Ġcooper atively
Ġinform ativeness
Ġconfigur able
Ġdocument ed
Ġrecogn ise
Ġrecogn izes
AS E
Ġfl ights
ĠCl ark
Ġpersonal ize
ĠSP N
math it
Ġlet ting
MA US
Ġded uc
Ġded uce
Ġanalog ue
Ġ200 3
Ġjus tifies
DS S
Ġbr ute
dec omposition
Ġtax onomic
Ġresol utions
Ġimm ense
Ġredund ancies
Ġcomplic ations
Ġleg i
ham ed
Ġden otes
IT TI
tis ed
Ġcut s
Ġadjust ments
Ġwa ves
Ġ199 7
AL C
sp eed
LI B
Ġaver aged
Ġconject ured
typ ed
Ġmanage able
ĠHierarch y
Ġtab ling
Ġhon oured
Ġdistil led
ĠFe w
Ġdisentang le
Ġmask ing
Ġharm onic
Ġmer ges
Ġorganis ations
Ġstri ve
Ġreform ulated
PT W
ĠIter ated
ĠIter ative
Ġsing ing
Ġbag s
Ġaccompan ying
Ġseed s
disc ounted
Ġtouch ing
ĠAtt ribute
Ġunobserv able
Ġmemor ization
af ety
Ġemail s
ĠEqu ilibrium
Ġclim bing
Ġdisp atching
Or der
Ġrad ar
Ġrad ical
Ġinapp licable
Ġenterpr ises
mo tivated
Ġsupervis ory
represent ation
Ġpronoun ced
ĠMB RL
Ġdecou pled
Ġunfair ness
Ġles ions
Ġundert ake
ĠFP GA
ĠAlex Net
ĠFil ter
Ġlean ing
Ġanatom ical
Ġpropri etary
ĠIncre asing
ĠIncre mental
Me ans
Ġmultipl iers
ĠDep ending
ĠFed erated
Bl ack
Ġavat ar
Ġcriti que
Ġnecessit ates
char acter
Ġjourn al
Ġbisim ulation
tre me
constr uct
Ġconfoun ders
Ġamortiz ed
ĠFocus ing
gro unds
ĠRam sey
Ġpessim istic
Ġapprehen sion
ĠOrac le
Ġprepar ing
focus ed
toler ant
Ġissu ed
ĠMAT LAB
ĠPage Rank
Ġdestro y
ĠAust ral
Ġaggl omer
prov ided
ĠCruc ially
ĠPercep tron
Ġirres pective
ĠAf ric
Ġspher ical
Smar andache
ĠTem ple
ĠTset lin
! âĢĶ
% ).
* )
/ -
0 7
6 8
7 8
C ome
D O
D ist
E I
E m
F i
G u
H D
H asting
I NFOR
M in
M PC
N G
P AC
Q P
Q ues
R AN
S B
S k
S u
S em
U N
U CT
W M
a j
a id
c d
c el
c ard
c lic
d ensity
f usion
f ields
f alse
g rowing
h al
h un
h um
o tional
p rice
r u
r ors
s at
t led
u um
z ert
| \
} ),
Ġt read
Ġt ongue
Ġa kin
re port
Ġs orts
Ġp al
Ġc atch
is er
Ġf ut
Ġf iring
Ġin ception
ar ter
ar ray
ar vis
Ġm ent
Ġb orn
as ions
Ġre ti
Ġre duct
Ġre ception
Ġre ordering
Ġe at
Ġth rew
Ġth irty
Ġn omin
us hed
Ġh at
Ġh iding
st ates
st reet
ul er
ul ators
ith ic
Ġl ingu
Ġl ively
ĠT arget
ĠT AC
ĠT SC
Ġex ternally
Ġwe ep
Ġas hamed
ĠW i
ĠW ave
qu al
qu ery
Ġle ct
Ġv en
form al
ĠA uth
se par
se parable
pl acement
ĠIn c
Ġun balanced
ĠM PI
ĠM ID
Ġmet are
Ġmet acon
Ġres idence
ĠS LU
ĠS entence
ad s
Ġper cept
Ġper pet
Ġr u
Ġr ides
Ġr iding
Ġsp ur
Ġsp here
ĠC E
ĠC over
Ġcont our
Ġcont empt
op tion
Ġpar k
Ġsystem ic
ĠD ual
ĠD NF
str ument
all s
ĠB B
ĠB axter
ak a
ell ow
ĠO L
ĠF rank
ĠF requency
ĠP ET
ĠP PL
ĠP aper
ten tional
Ġnot ed
ĠR D
ĠR i
ĠR ap
ĠH L
ĠH or
ĠH ar
ĠH ex
ple t
Ġdis ser
Ġdis reg
Ġdis charge
Ġpl ate
Ġinc ident
ĠE F
Ġbet a
ug al
Ġdec ent
ph one
ĠL inguistic
Ġab rupt
Ġpre comput
ĠN amely
Ġacc ounted
ĠG elfond
Ġfram ing
Ġdem oc
Ġimpro b
Ġpr uned
aus ality
ile y
put able
erv ed
Ġsome body
Ġtrans mitted
Ġdo zen
ik ing
Ġwor n
Ġtra pped
Ġmin ib
tr ust
yn chron
Ġbeha ving
Ġprogram mer
Ġsm o
ob s
Ġph ones
Ġadv ise
Ġsupp or
Ġsupp lier
ĠAn ti
ĠAn om
ear ance
par tial
ĠFor ward
Ġsimple x
Ġconc ave
Ġminim ality
Ġthree fold
Ġinf ancy
Ġconsist ed
Ġstandard ization
Ġer g
Ġlong standing
Ġsur vive
Ġ3 6
Ġ3 8
omm erman
Ġkey s
pro t
pro of
Ġback grounds
sc al
con straint
ĠUn its
Ġpoint wise
Ġextension al
Ġed its
Ġshort cut
Ġaff air
Ġexperiment ing
Ġpoly tree
Ġregular izers
Ġinitial izations
Ġspecial ize
Ġcontain ers
Ġparallel s
Ġparallel ized
Ġindic ation
Ġreview ers
ĠEl imination
Ġsegment ations
Ġ5 1
Ġ5 6
Ġweb p
optim ized
Ġincom parable
Ġtimes cale
Ġconven tion
Ġalign s
Ġguid eline
Ġla ughed
Ġbus es
ĠMulti agent
otyp es
Ġ6 8
struct uring
Ġsuff ice
Ġlinguistic ally
Ġschedul er
Ġbusiness es
Ġgr anted
ĠSim pl
MT L
Ġrefle ctions
Ġattr action
201 0
process or
AM P
ĠAll en
Ġinvolve ment
Ġdomin ates
ĠYou Tube
Ġspars eness
Ġinn ocent
fortun ate
Ġdiv ides
Ġviol ating
Ġcred ible
plic ation
Ġeconom ical
Ġbudget s
Ġequal ities
Ġsurro gates
Ġorigin ating
OP E
Ġcorpor ate
Ġemphas ized
Ġneut rality
ĠPh ys
Ġradi us
Ġ199 2
eck er
ĠNo vel
Ġtag ged
Ġcoal itional
ĠComm unication
200 5
200 6
Ġsho e
SL AM
Ġpain ful
unt u
ĠLa ur
Ġcli pping
Ġdead line
Ġubiqu ity
Ġsubmodular ity
OI s
cor rect
Ġneighbour ing
Ġcalib rated
ĠEvalu ating
ĠNL G
Con text
PT IME
mat ched
Ġinclusion s
Ġelabor ation
interpre tation
ĠRE INFOR
worth y
worth iness
Ġcomfort able
Ġshif ted
sm all
Ġrecip ro
ĠMe asure
ĠSV HN
ĠMap Reduce
Ġce ased
Ġhot el
control led
Ġharness ing
itz en
Ġdisambig uate
comm unication
Ġsustain ed
Ġunw illing
ĠTO PSIS
Ġplug in
gra de
Ġpul se
Ġson ar
Ġsell ers
Ġprol ong
Ġinser tion
Ġbo ast
Ġtravers ed
ĠIntegr ated
ĠPlay ing
ĠAF L
SV Ms
ĠBa iley
ĠDatab ases
meas ured
impro vement
Ġflaw s
Ġke yp
Ġcasc ades
Ġfores ee
Ġprop ensity
Ġanteced ent
sens ory
incre asing
Ġcontradic tions
Ġcontro versial
Ġinterdepend encies
develop ed
ĠMari a
ĠDar win
ĠRespon se
Ġwarr ant
Ġlemm as
Ġinterlea ved
Ġsubrout ine
Ġpedagog ical
Ġmil est
ĠPair wise
Ġgreed ily
Ġmetam odel
ĠMess age
ĠHop field
ypothes is
Ġunres olved
ĠHebb ian
ĠInterp olation
ĠInstit ute
Ġorbit al
Ġchron ological
tigm ergy
Ġquantiz ers
ĠTransport ation
Ġfel icity
ĠSund ay
Ġplural ity
Ġmeasur able
ĠYah oo
Ġquoti ent
ĠPAS CAL
Ġlegi timate
Ġagglomer ative
Ġmetare asoning
Ġdisser tation
ĠREINFOR CE
. ),
/ ~
2 8
5 1
8 1
A LE
C omm
D i
D oc
D ata
G e
G AI
H M
H ub
I o
K R
L ab
M ap
N R
P r
P rolog
U G
U p
W ith
W ol
b m
b rain
b orn
d les
g rative
h ou
j oco
l as
l if
m ix
n is
n ov
n orms
u ber
w a
z er
z ens
Ġ ul
Ġt y
Ġt ie
Ġa qu
he tic
he ld
re asoning
ti um
Ġs igm
en al
Ġo mn
or tium
Ġc ache
al ignment
Ġin timate
Ġin exact
Ġd B
Ġd ressed
ar ling
Ġb osom
Ġe ld
Ġth rowing
el ing
ec tious
im ation
ur day
ul ting
Ġfor ty
Ġl ic
Ġl amp
Ġl ends
Ġg rain
ut ual
ĠT V
ĠT ake
Ġex ac
ol i
Ġst ating
Ġal oud
per t
em at
os ity
os ition
Ġwe igh
Ġas ynchron
ĠA st
ĠA ce
ĠA RC
Ġby pass
pl us
um ed
ĠIn dia
Ġsh oot
Ġun ivariate
Ġac ted
Ġse iz
ĠM AN
ĠM PC
ĠM TE
ist or
ĠS a
ĠS an
ĠS it
ĠS MS
ĠS ept
ĠS arsa
Ġsy llog
ad versarial
oc cer
ĠC ard
ĠC MO
ĠC itizen
igh th
Ġcont empl
op en
Ġdata points
ag ements
ĠD Q
ĠD om
ĠD BNs
ĠD PP
ap unov
ĠB ro
ĠB SP
ĠB ook
ĠB ootst
ĠF ac
ĠF aster
ĠF OL
ĠP rom
ĠP ong
ĠP ublic
Ġco he
si an
Ġsc attered
ĠR S
ĠH ER
ĠH ave
ĠH undred
Ġsol itary
Ġtr uck
Ġdis m
Ġdis abilities
Ġrec alled
ĠE U
ĠE th
ans ion
ĠL ex
Ġab brevi
Ġem ig
vi ally
Ġoptim ising
ĠN a
ĠN othing
Ġover fit
Ġfun ct
Ġmulti ply
Ġunder lies
Ġreal isation
Ġver acity
Ġpo ison
Ġgraph ic
Ġdistrib utes
Ġinte grative
rol ls
Ġtra il
Ġtra ders
Ġnon etheless
Ġind ign
Ġpat ron
ens en
Ġany where
ĠU ML
-- âĢľ
pon ents
ĠEx tending
Ġunc or
Ġbelie ving
Ġph on
ĠPro ced
ĠPro positional
ĠK ITTI
ject ory
Ġlim b
Ġequ ivari
Ġadap tion
ĠV an
pir tes
ĠCon ceptual
Ġcr ash
av ailable
pro duc
ĠNe umann
ĠJ ust
ĠJ arvis
Ġmis specification
Ġsk eptical
Ġserv o
LP s
Ġsuit es
Ġpoly trees
Ġregular izing
Ġassess es
Ġnorm ality
less ly
Ġopp osing
vari ables
Ġdra ft
ne ighbor
Ġ4 4
Ġ4 6
Ġfar ther
brid ge
Ġweak est
Ġdiscrimin atory
Ġhyper tree
sh ort
Ġconven ience
Ġhist opath
Ġ9 1
gl ass
Ġdel icacy
ĠX GB
Ġ8 1
ĠASP IC
des c
OMDP s
Ġrout inely
Ġcover ings
Ġmagn itudes
Ġconsum es
crip tive
Ġcomposition ally
mis sible
ĠTrans formation
MA X
ĠMC S
Ġmal ign
Ġneu robi
ĠPre cision
ĠGP T
Ġcomplement ed
MM D
ĠML N
ĠOptim isation
ĠAfter wards
ĠSome times
Ġexc ited
ramm atic
Ġcompan ions
rup ed
Ġpay ments
ĠDe v
Ġmic rob
OM ED
Ġviol ent
serv ice
ĠCo q
Ġquad ruped
aw yer
RT A
Ġmitig ates
Ġiniti atives
OC s
Ġwa ited
min imal
ĠCr iter
Ġaccompl ishing
Ġwish ing
determin ed
Ġanim ation
Ġphilos op
ĠReg arding
ĠRel ax
Ġaver sion
MI P
Ġmedi ator
Ġga oler
ĠNew ton
Ġadvers ely
Ġdam ages
ĠMI L
Ġkn ife
Ġenjoy ment
Ġdele ting
sub modular
Ġfoot ball
learn er
Ġdistil ling
Ġmask ed
amp ed
Ġsearc hed
ĠDisc rete
Ġorganis ation
Ġprofit able
Ġfavour able
Ġfaith fulness
Ġtut or
Ġoffic er
Ġesc ort
Ġjo ining
Ġstay ing
Ġaccum ulate
Ġtwe et
Ne w
Ġparadox ical
Ġundec idability
Ġfool ing
Ġinaccur acies
Ġce iling
Ġca ution
cut set
Ġpun ct
ĠExtr acting
ĠMu joco
Ġdisapp ointment
Ġnoun s
Ġdiscon nected
ĠTe am
Ġmonol ithic
chec k
Ġpeak s
Ġpronoun s
ĠSN LI
Ġdisturb ance
ĠSuccess ful
Ġundert aken
Ġmanifest ations
Ġdece ived
Ġdelight ful
Ġanonym ous
Ġskew ed
Ġsong s
ĠAdv anced
ĠProv iding
ĠSat urday
Ġcontro vers
Ph i
phr ase
phr ases
Ġvisu omotor
Ġmad am
Ġstro ke
ĠAmeric an
Ġresent ment
Ġellip sis
Ġstic k
Ġweap on
ĠPot ential
ĠGit Hub
Ġpolym orph
Ġforens ic
Rob ot
Te X
Ġuncomm on
Aut o
ĠBre ak
ĠAssess ment
Ġsarc asm
Ġleis ure
Ġperman ent
Ġparsim onious
ĠContin ual
Ġaffirm ative
ĠUb untu
ipp oc
Ġprognos is
ĠUr ban
Ġhab its
Ġimprob able
Ġsmo other
ĠLaur itzen
Ġeld est
ĠSept ember
1 01
6 3
6 4
7 2
7 9
A tt
B Ms
C Ns
D id
D NF
G MA
K C
L F
O ut
P D
P i
P o
T F
T orch
V A
V F
] )
a ith
b en
b les
c up
c tives
c asting
d ifferent
e or
g uments
h ooting
l ane
n at
o ols
s ur
t w
Ġ ...
Ķ âĢĶ
Ġt actic
re ference
er as
er ce
Ġs an
Ġs orrow
en za
Ġo log
Ġp ent
Ġp icks
Ġp endulum
Ġc oded
ro of
ro ute
Ġw ors
Ġin vention
Ġd anced
Ġd rank
Ġd ressing
Ġd irty
Ġd arling
Ġm ountain
Ġb acter
Ġb old
Ġb ooking
as ant
Ġre strain
Ġre hearsal
el and
Ġn eck
ac tical
ec hes
im ages
ur ated
Ġh al
Ġh it
Ġh ippoc
st atic
ul atory
Ġl i
Ġcon e
ĠT C
ĠT om
ver aging
res sible
Ġbe aring
ĠW at
ĠW AR
ĠW ild
ĠI II
Ġmod us
Ġmod ulation
for s
ab etic
ĠA O
ĠA v
ĠA w
ĠA chie
ĠA erial
ĠA LM
ĠA MP
ĠA BA
ĠA priori
ĠA HP
ĠA NFIS
Ġby passing
se lected
Ġun fortunate
pos al
ĠM Q
ĠM am
ĠM AD
Ġres ur
Ġres pected
ĠS pl
ĠS AR
Ġk NN
ĠC hem
ĠC LP
ĠC ox
ĠC EG
ĠC umulative
der ived
ag on
ag ger
ĠD ub
ĠD own
ĠD ilemm
ĠD FA
ĠB est
ĠB IC
ĠO x
ĠF F
ĠF ields
ĠF oul
ĠP ac
ĠP enn
si le
Ġdes ira
ĠR ate
ĠH P
ĠH ard
Ġpl enty
Ġclass room
Ġinc red
ĠE As
ĠE MR
enti ty
Ġro ck
Ġrepresent atives
Ġdec on
Ġrel uct
Ġfe ars
iv able
ph y
ĠL ayer
Ġman ages
ni h
Ġab lations
Ġpre jud
Ġpre fix
ĠN umber
Ġtim ed
Ġmulti player
Ġmulti sets
ĠG abor
ĠG As
ĠG TD
Ġunder go
Ġsub t
cep tible
ĠâĢ ĶâĢĶ
Ġlog it
ip ulation
Ġspec ulate
Ġdeep ening
Ġtra ine
Ġtra dem
ou ch
acy clic
ib rated
Ġsequ ent
ĠEx treme
Ġunc overed
Ġprogram med
pre m
Ġsele ctions
ĠPro posed
ĠK NN
perform s
Ġconf id
Ġconc isely
Ġminim izer
Ġunderstand ability
ĠQ U
ĠQ BF
Ġconsist encies
ĠCon tent
SP Ns
Ġcr imes
Ġmaxim a
Ġ3 7
av oid
ĠLe wis
lud es
Ġrele asing
ĠRe ason
Ġsens ed
ĠWh ilst
Ġback doors
Ġill ness
Ġill usion
Ġrespon ds
Ġassoci ates
con t
con straints
ane ously
ĠThere by
Ġparameter izations
Ġdetermin ism
Ġref utation
Ġattack ed
alle y
Ġlik es
back ward
Ġcoll apsed
Ġcent ric
Ġel astic
oper ation
requ ently
Ġcontr asts
Ġrestric ts
ĠAt tentive
Ġread iness
Ġtransi ent
ĠRes olution
Ġparallel izable
Ġdiagnos ed
Ġmeaning fully
ne ut
Ġ4 1
Ġ4 3
Ġ4 7
Ġaccess ing
Ġsegment ing
Ġtraffic king
Ġ5 5
Ġlo ved
AC O
Ġconven tions
Ġobser vers
ugment ation
ĠDec entralized
ĠTr ansi
ĠMulti WOZ
Ġgeomet ries
Ġcustom ization
Ġsw ift
Ġlight ed
ĠX OR
Ġ6 1
Ġrecogn izer
Ġrecogn izable
ograph ically
Ġsuff ices
DD QN
Ġrational es
Ġfl ag
Ġfl av
Ġ7 3
Ġroad map
mon th
Ġpersonal ities
ĠSh ape
Ġda unting
Ġneu rolog
Ġ200 1
Ġgrid world
Ġcompet ency
Ġexc use
Ġdeb t
Ġtermin ating
ĠApp lied
Ġfr ust
Ġfr ightened
Ġaudi ences
rec ursive
ĠQu adratic
ĠDe feasible
domain s
Ġconstit uting
AD MM
ĠInter face
bal ancing
Ġformer ly
The se
Ġgover ning
Ġidentif iers
ĠCo al
Ġevid ently
ĠOb ser
ĠAlgorithm ic
Ġadjust able
ĠPh ysical
GP s
ĠSo ho
comput able
comput ational
Ġauthor ities
ĠLy apunov
Ġhar ms
po ly
Ġfill s
Ġbar gain
'' ,
EC M
Ġcompl iant
Ġreplay s
typ ically
ĠMod elling
Ġenumer able
ĠPr inc
Ġideal ized
ony ms
Ġpus hes
Ġuncon ditional
BS s
Ġeleg antly
ĠLa zy
Ġintention ally
Ġpercep trons
cor re
Ġprincip ally
Ġtac it
Ġlater al
Ġsch ools
Ġsym path
rep ancy
AG O
pati ent
Ġdro ve
ĠSur ve
Ġtum br
Ġstack s
sib ilities
Ġsurrounding s
ĠMinim ax
Ġvan ity
disc rete
Ġobvious ly
Ġcoinc idence
Ġtoler ant
Ġadmis sibility
co ordin
approxim ate
Ġreserv ed
ĠMe as
Ġmemor ize
Ġacknow ledge
Ġparaphr ases
Ġparaphr asing
Ġunin formative
control ler
Ġrenew able
Ġpun ishment
Ġdivers ification
Ġod ds
Ġquiet ly
ĠBas ic
Ġri val
Com put
Ġrad ically
Ġalter ation
ĠExp ected
ĠSuccess or
Ġjudg ements
ĠAltern ating
Ġreconstruc ts
Ġbat tle
Ġbat ches
ĠIdenti fication
Ġvic tim
ĠMathem atics
ĠDire cted
Ġleader board
Ġthin ks
Ġinhib ition
ĠSign ificant
Ġbless ing
Ġincentiv ize
Ġresist ance
ĠEar th
ĠOrgan ization
nam ely
Ġmyster y
Ġrecomb ination
ĠIntr usion
bur g
tu ple
Ġrelie ve
ĠFactor ization
ĠDense Net
Ġbrib ery
ĠComprehen sive
Ġsnaps hots
Ġuncontrol led
ĠPres ident
Ġmig ration
Ġlotter y
Ġdisagree able
ĠWind ows
Ġunl uck
ĠMIM IC
accept able
ĠSwit ch
Ġoffload ing
Ġceleb rated
Ġdy adic
ĠTab u
ĠJeff rey
ĠParticip ants
oubted ly
roben ius
Ġunsol vable
ĠJacob ian
ĠSenti ment
Ġrhetor ical
Ġarte facts
Hasting s
ĠDilemm a
ĠFoul on
Ġtradem ark
' )
) ~
+ /-
6 2
7 7
A LM
A BC
B y
D oom
E As
F L
F CN
H OL
I O
K P
L R
L a
L et
L ayer
N OR
O O
P B
S m
S AC
U D
U AVs
V L
W ill
W OR
W here
W orld
Y WOR
a round
b a
c le
c ount
d r
d y
f oot
f ections
f illing
g one
h n
h or
h aring
k ward
k ins
k ernel
m aster
r im
r oring
s s
s ent
s el
s ite
t ech
u ven
v ar
v est
v are
v acy
w as
w ind
y cl
Ġt igh
in ct
in verse
re stricted
er ies
Ġp ale
Ġc itation
Ġc ater
al most
es tion
Ġw arn
Ġw ik
Ġan tig
Ġan aph
Ġf er
Ġf ight
Ġf ond
Ġf olding
Ġf uses
Ġin valu
Ġd l
Ġd w
Ġd im
Ġd endritic
an ab
it ter
it ect
Ġb lu
Ġb ins
Ġb ars
Ġb reed
as hes
Ġre ass
Ġre structuring
ac ular
ac tiveness
ec ke
im ming
ur ities
Ġh acking
st ra
od ynamic
ul try
Ġis omorphism
ĠT or
ĠT urn
ĠT aken
ĠT wenty
ĠT ribunal
Ġst agn
Ġal ive
res earch
ig er
ĠW ER
ĠW arping
ot echn
ĠI G
Ġcomp ressive
ab str
ain ing
form ulas
Ġby product
uc ks
Ġint ends
Ġsh ame
Ġsh ield
Ġun p
ĠM D
ĠM atch
ĠM utation
ĠM US
Ġres ampling
ĠS I
ĠS l
ĠS TL
ĠS tein
ĠS queeze
ĠS afety
Ġr ud
Ġr ang
Ġpa ves
Ġsp ring
Ġk itchen
Ġad here
ant al
ĠC B
ĠC ritic
ĠC AD
Ġdata flow
ĠD ark
ĠD ynamics
ram etric
ak ed
Ġar Xiv
Ġag itation
ĠO N
ĠO CT
ĠO WA
ĠF D
ĠF ault
ĠP E
ĠP a
ĠP i
ĠP le
ĠP ommerman
Ġco at
Ġco ined
Ġco exist
ĠR ational
ĠR oom
ĠH S
Ġtr usting
Ġalgorithm ically
act al
Ġro ver
Ġdec ode
ud ence
ĠL D
ĠL R
ĠL udi
Ġab norm
up date
ĠN CS
ĠN MF
Ġmo on
duc ting
ici ously
Ġmulti linear
Ġmulti disciplinary
Ġmulti sensory
ĠG B
we ak
we ighting
Ġdisc arding
Ġimpro v
yp roof
Ġapplic ants
Ġpos ing
enc oding
te am
put e
Ġcor oll
Ġdef uzzification
ven tive
Ġnon determinism
Ġam ple
Ġobjec tions
lement ary
Ġatt ributions
over l
Ġsm iling
Ġsa ves
ĠK u
bed ded
Ġvis iting
Ġenc l
Ġsyn d
reat ment
Ġif f
ĠV i
ĠV ia
ĠV RP
Ġfact ory
Ġfact oid
ĠQ MDP
ci ation
Ġinf ectious
uzz le
ĠCon junctive
DP s
ĠAl ignment
Ġtop ical
ribut es
Ġquestion er
Ġlinear ity
ĠRe view
Ġbl ending
Ġhelp ed
Ġeng agements
pro p
pro tein
Ġback wards
Ġgl anced
respon ding
Ġrespon sive
ĠNe ighb
ĠNe arest
ST N
ST P
con stant
ĠJ an
ĠCom pl
ĠCom ponent
Ġparameter ize
Ġmis sed
ĠCh ina
Ġpres upp
Ġuni versi
lo or
Ġens embling
Ġneg atives
Ġpur pos
Ġconstruct ors
ĠSt ream
Ġpoly ph
AR T
Ġvehic ular
Ġbro ke
Ġacqu ires
Ġhypothes ized
Ġsince re
Ġappropri ateness
Ġ5 8
Ġfactor ized
alth y
Ġche aper
Ġhyper n
Ġhyper spectral
Ġcle aring
Ġimpact ed
Ġcounter s
Ġcounter intuitive
Ġdeploy ments
DA M
MC C
Ġcollabor ating
Ġsw ing
ĠIm p
ĠIm plicit
Ġbroad cast
oph ysical
Ġscienti st
Ġsubject ed
Ġmess enger
Ġz oom
ters ection
Ġgr im
Ġgr acious
ĠPar tition
Ġ7 2
mon ary
mon otone
ĠCP T
emb ly
CA D
Ġdepth s
Ġfav ors
Ġfav ored
Ġpsych iat
ime tic
ĠSp iking
Ġtermin ates
Ġactiv ated
IM IT
Ġhol es
Ġexperi encing
Ġexch anging
Ġdifferenti ally
Ġair port
ĠDe zert
Ġgen ome
ĠMo ving
Ġleg s
iction ary
Ġviol ates
OL A
ĠCo NL
Ġeconom ically
Ġden ial
Ġperce iving
RE AM
be havior
Ġhom omorphism
GP U
Ġradi al
Ġ199 1
Ġ199 6
Le arn
Ġhistor ically
ĠST E
erge tic
Ġemp owered
Ġemp athy
Ġdiver gent
ĠCart esian
Ġcheck ers
200 2
200 9
osp ital
Ġfix ation
Ġcovari ances
spec tion
ĠMod ified
Ġaw a
Ġaw kward
ĠCT C
Ġprioritiz e
Ġstraightforward ly
Ġswit ches
Ġmid st
EN T
Ġload ed
Ġoccup y
Ġexempl ary
ĠAc tivity
Ġrewrit ten
Ġrewrit ings
Ġinten tional
ĠLa place
Ġsket ching
Ġnegoti ate
Ġfoot steps
Ġproceed ed
Ġmultiplic ations
Ġpursu er
ques tions
Ġiden tically
Ġhop eless
Ġprofit ability
ris tive
Ġinher ited
Ġdro pping
through put
Ġpoin ters
ĠRobo tic
Ġreplic ation
Ġcomprom ises
ĠDS mT
Ġpoli tics
Ġconform ance
Ġaccompan y
ole m
Ġconduc ts
Ġtoler able
Ġoblig ation
bl ock
Ġafford ance
Wh o
Ġfulfill ing
Ġtourn aments
Ġfinger prints
othe rap
Ġinterrup ted
ĠLo op
ĠLinked In
Ġadvent ure
Ġtour ist
general ized
Ġprogramm atic
Ġexcess ively
ĠCompar ison
Ġslic es
ĠBack ground
htt p
multi ple
cap acity
ĠSN OMED
Ġunsatisf iability
Ġax es
Ġult rametric
Ġtrades man
Ġfif th
ĠTR PO
Ġtow er
Ġthread s
Ġdegener ate
ĠChe cking
At tention
ĠIndi vidual
Ġlaugh ing
Ġpredomin antly
impro ving
Ġelig ible
ĠSci ences
Ġdiscern ment
Ġanatom y
ĠLif ted
Ġreflex ive
ĠAppro aches
Ġconvincing ly
lar ative
Ġobsc ure
ĠExplan ations
understand able
Ġmur m
Ġavat ars
Ġvisu o
Ġannounce ments
Ġunderpin ning
Ġactu ators
hy per
Ġpock et
Ġpock ets
eman nian
ĠConclusion s
Ġepid emi
Ġconsolid ation
Ġwel come
Ġdil ated
Ġpredecess or
ĠGa ze
Ġpatrol ling
ĠCrow d
Ġagric ultural
fing ered
ĠKE YWOR
Ġlaun ched
hierarch ical
Ġmultin omial
ĠInfer ring
ĠMus ic
Ġbask et
ĠDepend ency
Ġshoem aker
ĠEss entially
Ġhospit als
superv ision
Ġthro at
ĠExplo iting
texts c
Ġinexp ensive
Ġhither to
ĠTex as
ĠSep ar
ĠPrison er
ĠIncorpor ating
ĠKin ect
Black well
Ques tions
Ġfut ures
Ġnomin als
ĠRi emannian
Wol fe
Ġcontrovers y
ĠOx ford
vare psilon
Ġinvalu able
ĠLudi i
Ġuniversi ties
ĠCoNL L
ĠKEYWOR DS
! --
+ .
2 1
3 8
4 4
A UC
B ank
C an
C ut
E l
G NNs
G AC
M ar
M DL
S utton
V ery
W ild
a el
a wn
b us
b ling
d ated
e ties
g ene
i ro
k ov
l lo
l ands
m ber
n ings
o ceptive
p ic
p aced
t ope
t ake
u tility
v ation
w er
y in
y roid
} _
} ^{
Ġ uttered
Ġa er
in tr
in formed
ti a
Ġs ends
en hanced
en sored
Ġthe at
or ous
Ġp ign
Ġc in
Ġc ir
Ġc ab
Ġc up
Ġc ake
al ous
is hers
is odic
ro ducing
Ġw ot
Ġf ur
Ġd ared
ar a
ar atus
Ġm as
Ġm onsieur
it or
Ġb ands
ic ed
Ġre ferential
om ed
om pos
ec ycle
im odal
Ġh ack
Ġg ly
Ġg am
Ġg ently
Ġg lean
Ġg rained
Ġg rew
Ġcon desc
ra pped
ĠT ak
ĠT imes
Ġst ret
Ġst ars
res p
Ġbe ars
Ġas c
ĠW ar
ĠW ang
ĠW SC
ĠW ords
ot o
ĠI TS
ĠI RT
Ġapp aratus
ĠWe ak
ĠWe ight
ir ms
Ġwh isp
iz ard
ĠA M
ĠA TL
ĠA DFs
pl ore
ĠIn vestig
red uction
Ġun paired
Ġun equal
pos sible
ĠM H
ĠM el
ĠM ich
ĠM ag
ĠM ill
ĠM DD
ĠM IT
ĠM utual
Ġres idents
ĠS al
ĠS BP
ĠS models
ad ditive
Ġcl er
Ġr ationally
Ġsp ort
Ġk ing
fe ree
Ġad ditions
oc ardi
di verse
ĠC K
ĠC are
ĠC TL
ĠC NL
ĠC ooper
ĠC eleb
and er
Ġpar ting
Ġpar don
Ġch art
ag gle
Ġev ader
ĠD F
ĠD over
ĠD ensity
ĠD omin
ĠD ES
ĠD OL
ĠD isease
ign ments
all ing
ĠB R
ĠB ases
ĠB attle
ĠB irds
Ġar med
Ġag es
ĠO the
ĠO BDD
ĠF it
ĠF ortun
ĠF ull
ĠP al
ĠP ati
Ġdes per
Ġdes tin
ĠR us
ĠR ST
ĠR BP
ĠR ao
ĠH it
ĠH ol
ĠH orizon
ĠH ypothesis
Ġtr if
Ġtr ucks
Ġno is
Ġdis h
Ġdis placement
Ġrec ourse
arch ing
arch itect
ĠE mb
ĠE CG
ĠE cho
act ors
ĠL L
ĠL T
ĠL ength
ĠL anguages
ex tended
up on
Ġtrain er
ĠN T
ĠN ove
ĠN ote
ack al
Ġout bre
ĠG O
ĠG reat
ĠG old
Ġgra y
Ġgra tified
Ġdist ressed
Ġunder gone
Ġwas ted
Ġevalu ators
Ġsub tr
Ġsub structure
Ġsub categor
ail ing
ĠâĢ ĺ
Ġlog ged
Ġsome where
Ġtrans duction
Ġdo zens
Ġreg ulated
Ġinte gers
rol ine
Ġtra dition
Ġtra verse
Ġnon stationary
Ġam bi
Ġam az
Ġam azing
Ġmat urity
Ġso il
ĠU SA
Ġtyp ology
Ġj am
Ġstrateg yproof
ĠEx change
Ġprogram me
Ġintellig ences
Ġsm oke
Ġdi abetic
ob ao
ĠPro portional
ĠK D
ĠK ent
Ġpri ze
iter bi
ĠAn gry
ear th
Ġsyn sets
Ġconf identi
ĠV T
par tic
Ġter rit
Ġminim isation
Ġminim izers
Ġunderstand ings
ĠQ C
Ġins ensi
Ġins urance
ci ously
Ġshe ep
Ġutil ising
ĠCon dition
DP R
RL S
ax i
ĠHe art
Ġent h
ĠRec ords
Ġgl ancing
Ġprom otion
arc raft
de vice
con quer
ĠUn manned
ĠJ us
ĠJ ensen
Ġpres cription
Ġref und
Ġcompeti tiveness
Ġocc asions
Ġcategor izing
Ġpost ing
agnos is
Ġnam ing
ĠEn tail
Ġcent re
oper ator
Ġdev ote
AI N
Ġprec ip
Ġread s
ĠRes Nets
Ġprof essions
linear ity
Ġlo an
Ġlo ving
Ġfactor ial
Ġmark ers
man agement
Ġhyper text
Ġhyper plane
ĠInt el
AC L
Ġcross bar
ĠMon itoring
DA S
DA s
Ġbus h
rel ax
ĠX ia
Ġ6 9
struct ural
ĠEm erg
Ġmonit ors
ok en
ĠSim ult
Ġrealistic ally
Ġ7 9
Ġcompact ness
ĠCol lective
ĠDef ense
head ed
Ġelect ron
tif ier
ĠPre ference
Ġdemand ed
Ġrelax es
Ġscientific ally
Ġcomplement ing
Ġwin ding
Ġexc it
itiz ation
Ġdeb ris
Ġactiv ate
Ġinvari ances
Ġvol unt
Ġdifferenti ating
ĠQu asi
Ġpol ite
ĠDe LP
Ġleg acy
Ġunit ary
Ġhouse keeper
PO S
Ġpred ator
Ġfall acies
Ġden ot
SC s
aw l
Ġorigin ated
ĠOb jects
Ġmanif ests
organ ize
LS H
Ġwa ist
ĠSc ot
ĠSc ene
Ġgran ularities
CB S
sp ring
Ġsil icon
Ġdiver gences
Ġpenal izing
ĠRel ations
Ġallevi ating
Ġdevi ates
Ġmac ros
200 8
Ġmorph ologies
Ġmorph isms
Ġspread s
Ġprioritiz ing
Ġdam p
Ġkn itted
observ ation
Ġdele ted
Ġbrother s
mal ian
Ġneuro imaging
Ġcurric ula
Ġ15 0
Ġconcent rates
ows ki
predic tive
Ġsort ed
Ġinqu ired
aff ected
Ġfulf il
Ġoccasion al
})$ ,
ĠControl led
ĠGe org
Ġfriends hip
Ġinspir ing
Ġtum ors
ump ing
Ġdegra ding
St ack
ĠCA RLA
Ġtremend ously
Ġdisag gregation
ĠGu ess
Ġfle ets
Ġtestbed s
Ġproportion ally
crib e
Ġlogarith m
Ġbackb ones
Ġhost s
Ġclar ifies
ĠEqu ation
ĠEqu ations
Ġstreng thening
Ġconting encies
Ġdiscrep ancies
ĠMR F
ils son
Ġphenotyp es
ĠSH AP
ĠRough ly
Ġunivers ality
Ġconstitu ents
pop ulation
Ġeigen value
tail ed
ĠStrateg ies
Ġinser ting
Ġinser ted
Ġtableau x
Ġdistr acted
ĠOut lier
Ġaston ished
Ġrein force
pot entially
Ġeager ly
Ġmetaph ors
Ġprevail ed
Ġarch ive
Ġforb idden
Ġsynerg ies
Ġhouseh olds
Ġnod ule
ĠCell ular
Ġcrypt ography
Ġcasc aded
Ġwrap pers
Ġobfusc ated
ĠEar lier
Ġdeleg ation
Ġsti r
ĠHand ling
Ġmaneu vers
Ġnur se
Ġgall ant
ĠEDA s
Ġconceal ed
Ġreconc iliation
Ġimpati ence
ĠFair ness
ĠDar wiche
Ġretros pective
cluster s
ĠInterpre table
Ġsof tened
Ġinterchange able
ĠCOM PAS
Ġwithd rawn
Ġsettle ments
Ġadministr ator
Ġassimil ation
Ġpoll ution
Ġuneas iness
strateg y
Ġaband on
Ġupl o
Ġ** *
ĠPT IME
Ġdepic ted
Ġthermod ynamic
Ġtroubles hooting
Ġtick et
Ġimpair ment
fron t
fil ter
Ġgamb les
Ġensu red
Ġrol ling
Ġvolunte ers
expression s
Ġancest ral
ĠTa obao
ĠCAPTCH As
Ġexer tion
Ġkiss ed
Ġovers ight
Ġfati gue
ĠDrop out
Ġobliv ious
ĠUl timately
Dri ven
aa S
enari o
Ġsep sis
Organ izing
Ġmetale vel
ĠAustral ia
ĠAfric an
ĠAnom aly
Ġul tr
Ġexac erb
Ġseiz ure
ĠAw areness
ĠPrinc ip
anab i
Ġwhisp ered
ĠOthe llo
ĠNove mber
Ġambi tious
Ġconfidenti ality
! '
' ve
, ...,
/ (
0 8
0 9
3 9
5 8
A ct
D ial
D CA
E s
G Q
G V
G MM
H O
H ard
I DE
J T
K M
N ever
N othing
Q S
Q BF
R OC
R NA
S cript
S ugeno
U AV
V P
V iew
_ .âĢĿ
a Net
b el
b ases
b uilding
c il
c ube
c oupled
c rafting
d el
d ue
e rer
e volving
f ile
f ixed
f lict
f ailure
h im
i que
l on
l iness
m ixed
o op
p at
s l
u ating
u tism
w edge
z oidal
Ġt ent
Ġt and
Ġt rop
Ġt ips
Ġa iding
in ous
in duced
on age
ti ers
er a
Ġo mitted
Ġp ari
Ġc ared
al ed
es tim
at able
at urally
is he
ed ding
ro oms
Ġw edding
Ġf og
Ġf ib
Ġf iction
Ġin tim
Ġin vers
Ġd ys
an a
an qu
ar tificial
it t
Ġb ab
Ġe X
Ġth r
et o
et ting
Ġn esting
Ġpro actively
Ġh ub
st akes
ly m
ul ed
Ġl ing
Ġl iability
Ġl asso
Ġg amma
un ciation
ra di
ra tiz
ĠT ro
ĠT et
ĠT ues
ĠT ars
Ġex it
Ġst ared
Ġal iasing
id i
ĠW M
ĠW N
ĠW ood
ĠW alk
ĠI r
ĠI DP
ri ti
Ġv on
ĠThe ta
ain able
Ġde fic
ĠA DD
ĠA veraging
ren tices
Ġsh ining
Ġsh uff
Ġun ve
Ġun ig
Ġun aware
Ġun feasible
Ġun awareness
Ġun affected
ay ing
ĠM W
ĠM ond
ĠM RE
Ġmet er
ĠS K
ĠS us
ĠS NN
ĠS ample
ĠS oci
ĠS NNs
ĠS hared
ĠS occer
Ġr acing
di p
di alog
ous ing
ĠC hen
ĠC TP
Ġgener ous
Ġpar a
Ġch amp
Ġch amber
ĠD ynamical
ap ore
ĠB L
ĠB in
ĠB ag
ĠB NNs
ĠB road
ĠB ott
Ġag ile
ĠO pp
ĠF E
ĠF ine
ĠF und
ĠF robenius
ĠP B
ĠP U
ĠP DP
ĠP ixel
ĠP DE
ĠP SA
ĠP DM
ĠP oole
Ġco aching
Ġop i
Ġdes erves
ĠR oyal
ĠH all
ĠH abit
ĠH anabi
Ġsol vability
Ġdis ple
ĠE ver
enti a
Ġinter mit
Ġinter relations
Ġinter rog
Ġfe ared
ud ge
Ġvari eties
our cing
ĠL p
ĠL SH
tain s
ĠN ear
ĠN ilsson
Ġmo tives
ill s
ĠG ro
ĠG row
ĠG AC
Ġdist urbed
Ġunder m
Ġass ists
Ġass emble
of ten
Ġsub networks
Ġaut oc
Ġpo ured
ip e
Ġintro spection
ast rop
rol l
Ġnon linearities
Ġind ul
Ġam us
Ġam id
por tion
ĠU tility
Ġobjec tively
Ġloc k
Ġinst alled
Ġbelie ves
Ġbelie vable
ian a
Ġdep ri
Ġsupp osing
ĠK OS
ĠK aggle
Ġconf luence
ĠV alid
ĠV OI
ĠV iterbi
par tition
Ġter rible
Ġminim ising
Ġstand point
Ġextr actions
ĠQ ue
ĠQ SM
Ġmem ristive
Ġbest owed
Ġutil itarian
Ġinf ra
Ġinf ected
Ġspe eches
not e
Ġlead ers
Ġcorre cts
Ġmake up
Ġreduc ts
Ġ3 9
Ġend point
Ġquestion ing
ĠRe ference
Ġsto ol
Ġret inal
ĠRec all
Ġprom pt
Ġprom inence
raph ic
Ġrespon sibilities
con ducting
Ġprin ted
Ġte eth
Ġsent ential
Ġliter atures
ĠJ ury
Ġele ven
ears on
Ġevery one
Ġref use
Ġemploy ee
Ġserv ants
Ġaff lic
lex ible
Ġillustr ations
Ġtri vially
Ġsimpl ifications
greg ate
Ġartic ulation
oper ative
ĠAt tor
Ġplan es
Ġplan etary
Ġread mission
Ġep ile
Ġaccess es
Ġfar m
Ġ5 3
ran ked
Ġfactor izations
Ġweak ening
Ġpati ence
ps y
Ġcritical ity
iss ance
Ġunknown s
ender s
ĠNP C
specific ally
ĠTr ue
ĠTr uth
Ġcontrast ed
Ġrecogn ising
ograph ics
Ġ8 9
Ġfl our
geb ras
Ġclin ician
Ġtruth fulness
ok es
class es
Ġsummar isation
Ġcarri ages
Ġblack box
Ġbenefit ing
ĠCP Ts
Ġdiag rammatic
CA M
math tt
Ġmut ations
Ġlist ed
mis sive
pa rent
Ġanalog ues
Ġinv ested
Ġmodular ized
iec es
Ġmatch making
Ġrough ness
ĠMet ric
etermin ed
au x
Ġgeometric ally
Ġaxiom atis
Ġyoun gest
IF F
Ġextrem es
Ġdeclar atively
Ġuns uccess
ĠZ hang
Ġcomplet es
Ġsus pect
Ġren t
Ġren de
Ġimper tin
Ġimper fections
Ġpred etermined
Ġsix th
Ġsix ty
Ġcat astrop
AE I
Ġsophistic ation
expl an
Ġorigin ate
Ġmanif ested
MS s
ĠDA gger
IN E
ĠSc ale
Ġexchange able
ID s
ĠPh ilos
Ġcop ing
Ġ199 4
ĠNo ise
ĠNo isy
Ġhar vesting
Ġhistor ic
MR F
Ġsil ly
Ġsil ently
ĠExpl icit
Ġdoub ts
Ġauthors hip
Ġfron tiers
Ġmicro array
Ġten nis
Ġscr ut
Ġphot ographic
ĠPr inci
VR PTW
ĠCons ortium
ĠAb duction
Ġload s
ĠMean ing
Ġcritic ized
Ġcritic ism
ON E
amp ered
ĠMar ginal
Ġpick ed
ĠDisc overing
pe zoidal
ĠComb ined
Ġaffor ded
Ġinqu ire
Ġintrusion s
ĠDet ailed
lim it
ĠEs tim
sem i
DT W
ĠText ual
identi fied
199 3
199 5
199 9
Ġaccomplish ments
Ġparadox es
ĠMinim al
ĠTransform ers
cre ative
ĠTP TP
Ġexplos ive
Ġfraud ulent
Ġfool ed
crib ing
ĠAtt emp
Ġharness ed
ĠSk olem
comm unic
Ġfinger print
Ġphysi ology
ĠServ ices
occur rences
Ġphenotyp ing
ĠSH IQ
Ġroll out
Ġdefici ent
Ġadvoc ated
Ġwonder ful
Ġcreat ures
Ġcreat ors
Ġdeform ations
Ġdisapp ointed
Ġparametri zation
Ġtit les
Ġhor ror
Ġsleep ing
ĠOper ations
Ġdiscon tin
ĠQuanti fied
ĠEurop e
Ġdisp atch
Ġbrow ser
Ġextrap olate
Ġcros sw
Ġpin yin
ĠSU MO
Ġsupervis ors
ĠEd ward
lies t
ĠVer ification
Ġstrengthen s
ĠTravel ling
Ġmisclass ified
ĠLi u
ĠLike wise
ĠDiag ram
Ġdiscl osure
Ġvox els
Ġdece ive
ĠRecomm endation
Ġvic inity
ĠConv Net
Ġarch ives
Ġthank ful
ĠVAE s
Ġpragm atics
Ġforb id
semantic s
li que
sour cing
ĠCLE AR
Ġtroub led
ĠSign al
ĠIni tially
Ġshr ink
ĠLif schitz
ĠNormal ized
syn tactic
Ġinject ing
ĠDri ving
Ġendow ing
Ġblame worthiness
Ġram p
Ġho ly
incre mental
Ġenvision ed
Ġmyster ious
uni versal
Ġemission s
Ġrememb rance
Im age
ĠCre ating
Ġimpati ent
ĠNS GA
Ġpill ars
ĠMari o
Ġeventual ities
Ġliber ty
Ġstro kes
Ġpatri ots
Ġjourn als
ĠMOOC s
asc ular
Ġrectang ular
Ġinterlea ves
Ġdimin ishing
Ġbinar ized
Ġadministr ators
ĠCV aR
Ġpredecess ors
ĠSing apore
ĠCa roline
Ġgar ret
Ġcond ensed
Ġprivile ged
appro x
Ġpainting s
Ġpione ered
Ġcha os
Ġgloom y
Ġprofici ency
ĠImag enet
Ġreinfor ced
satisf iability
ĠHin dsight
Valu e
access ible
Ġagg ressively
ĠPub Med
Ġencryp ted
Ġgrate ful
vide o
ĠCop eland
ĠPars onage
ĠRub ik
Ġinfam ous
Ġportra it
Ġanth rop
Ġlod ging
ĠAim ing
Ġrepar ameter
Ġcere mon
ĠCra zy
Sem antic
ĠAuth or
Ġdemoc ratiz
Ġminib atch
Ġerg odic
Ġrecipro cal
Ġkeyp oints
Ġasynchron ously
ĠDom ineering
Ġemig rant
nat ured
ĠAchie ving
ĠSAR SA
Ġtumbr ils
ĠSwitch board
overl apping
Ġpign istic
Ġcab in
ĠFortun ately
architect ure
ĠGeorg iana
Ġtand em
rentices hip
ĠAttor ney
) \
- /
0 4
2 9
3 3
5 2
7 1
7 3
7 4
8 2
= =
? ,
B CI
D a
E F
F D
F CA
G DL
H I
I PC
I ON
L ens
L BP
M AT
M AN
M odel
M AC
M iner
N C
N LU
O s
Q M
R ep
R BM
S et
S equ
S ee
S henoy
T W
V e
W I
W R
\ &
] -
a verage
b id
b led
b ird
b uilt
b etween
c oun
c urrent
c hemical
d ense
e ach
f o
f aced
g rain
g ans
g iving
j ac
k ian
l ating
m ary
m ological
o G
o tics
p gl
r action
r ather
r ants
s il
s hip
s cience
s pread
s ensitivity
t ures
t of
u ple
u tical
v asive
w al
z or
z il
} _{
} _{\
Ġt ended
Ġt elling
Ġa le
Ġa ward
in formative
on en
re aching
re ferred
ti ative
Ġs ale
Ġs ender
Ġs tigmergy
or tions
or tical
Ġp ressed
Ġc ogn
Ġc ited
al tern
at ern
at ched
is ot
is sing
ed ed
ed el
Ġw ag
Ġw icked
Ġf ate
Ġf ric
Ġf ishing
ar gument
Ġm ari
Ġm AP
Ġb ib
ic ists
ent ric
as hed
as cal
as cent
Ġre position
Ġre description
et ti
om p
im en
im eter
Ġh aptic
ul ative
Ġl ion
Ġl ament
Ġl ighter
Ġg own
Ġcon dem
Ġcon quer
un it
un ge
ĠT im
ĠT ay
ĠT we
ĠT TP
ĠT orch
ol f
Ġst ain
Ġst up
Ġst ark
Ġst aring
Ġal arming
id ar
il t
per ception
per iod
em erg
em bedding
os er
ig lot
Ġwe aring
qu et
qu est
Ġle agues
ĠI ran
ĠI CA
Ġmod ulated
am ental
Ġcomp lying
Ġapp end
ri an
Ġv ictory
ab out
ĠA ren
ĠA ST
ĠA Fs
og ood
ach ie
work ers
Ġun even
Ġun acceptable
ay off
ĠM ob
ĠM TD
ĠM RC
ĠM aker
rom agnetic
Ġres h
Ġres id
Ġres ide
ĠS Y
ĠS ent
ĠS te
ĠS Ne
ĠS pectral
ad o
ad ers
Ġr iders
Ġsp ending
Ġk ick
Ġad ults
ari ous
oc ol
ĠC as
ĠC red
ĠC up
ĠC ong
ĠC ha
ĠC ould
ĠC ASP
ĠC ounting
ĠC ON
Ġcont ours
Ġch it
Ġch im
ag i
ĠD D
ĠD ed
ĠD AC
ĠD ESs
ĠB F
ĠB S
ĠB r
ĠB ros
ĠB ounded
ĠB DI
ĠB ridge
ĠB ranch
ĠO S
ĠO NE
ĠO PE
ĠO riented
ĠF T
ĠF ollow
ĠF itting
ĠF CN
ĠF EV
ĠP ut
ĠP olicies
ĠP ANFIS
ĠP awl
Ġco evolutionary
rib ery
Ġsc rap
ĠR eli
ĠR BF
ĠR TE
ĠH I
ĠH ome
ĠH int
ĠH aw
ĠH CI
Ġtr aced
Ġtr anqu
Ġdis asters
Ġrec k
Ġrec tifier
ĠE duc
led ged
Ġdec or
ĠL O
ĠL em
ĠL ine
ĠL ittle
ĠL ocation
ĠL iber
Ġcons olation
Ġcons ole
Ġnew er
Ġab omin
ex amine
Ġpre ventive
ang ers
Ġform idable
ust ed
ĠN OT
ves que
Ġover flow
Ġover arching
Ġmulti level
ati v
ĠG AM
ĠG rad
Ġdisc arded
Ġknowledge able
Ġdist antly
olog ic
olog raphic
ace utical
Ġdem on
th us
th inking
Ġreal s
Ġreal ised
Ġreal izes
Ġreal ism
Ġreal izable
Ġpr isons
aus s
Ġaut onomic
Ġdemonstr ators
Ġver ifies
te acher
ail ment
ark ing
Ġintro s
Ġsome how
Ġtrans m
Ġtrans cripts
Ġsem iring
Ġup ward
Ġrequ is
Ġdef er
Ġdef ence
Ġfunction als
amet ric
yn olds
Ġher s
Ġmat h
Ġma zes
ĠU L
Ġj ackal
Ġinst all
vol ent
Ġid emp
Ġunc overing
Ġgro under
Ġobserv ables
Ġoper ated
Ġhand ed
Ġdire cting
Ġsm ell
Ġph ishing
ĠPro te
Ġsupp liers
ĠK e
ĠK LM
hed ral
Ġobtain able
Ġequ ational
Ġsyn the
ĠV oting
Ġfact oring
com pl
com patible
com positional
Ġra zor
Ġshe ets
Ġshe ll
Ġinvestig ators
Ġcontin uation
Ġsec rec
Ġenti tled
Ġlabel ings
Ġlong est
Ġmaxim ising
ploy ment
Ġpop ulate
Ġend ed
ĠExper ts
ĠLe Net
ĠLe ague
ĠLe hmann
Ġsens ation
Ġret ina
pro jection
pro posed
Ġback propag
sc rib
sc oring
Ġcoun ted
Ġview ers
Ġtechn ically
ĠNe gative
ST L
con tr
ĠUn ity
ĠJ une
ĠCom position
ĠCom pletion
Ġ- >
ins ky
Ġcomputer ized
Ġpres criptive
Ġcri es
Ġexec ut
Ġparti ality
Ġinflu encers
Ġcar go
Ġneg lecting
ĠAd ding
ĠAr ist
ĠSt able
ĠSt age
ĠSt ud
ĠSt one
Ġlik eness
Ġprot ecting
Ġcoll apses
Ġsuper ficial
Ġaccount able
ĠMan ager
ĠMan hatt
ĠMan ipulation
Ġpass ion
ĠRes idual
Ġbro wn
Ġtre mb
Ġexam s
ne g
pr il
Ġprof ess
Ġmark ing
man ip
Ġche ek
Ġcle arer
Ġcounter measures
ĠOp tion
ĠOp tical
Ġla unch
Ġkernel ized
Ġsubstanti ate
Ġcare er
Ġcare less
Ġ6 2
Ġorgan ic
Ġorgan izes
Ġdid n
Ġrich ly
Ġz ones
Ġgene tics
Ġquick er
Ġhapp ily
Ġhapp ening
Ġtruth fully
Ġlength y
Ġgr ant
ĠPar ad
Ġrest oring
Ġreconstr uctions
ĠCl ause
Ġcarri er
Ġfra g
Ġselect or
Ġcorrel ating
Ġdig raph
Ġrecur ring
ĠMC DA
Ġinv ite
Ġbot tle
ĠKnow ing
Ġperturb ing
Ġinfin ites
Ġec ological
ĠGo edel
Ġpsych ol
Ġeth n
Ġeth ically
Ġopportun istic
ĠML Ns
dire ct
Ġencour agement
ĠSp ohn
Ġtermin ologies
Ġinvari ably
Ġlif ecycle
rec ogn
Ġair line
Ġsl ack
Ġimm ers
Ġdistinguish able
Ġcou ples
Ġspars ification
Ġleg ged
As s
Ġsum ming
Ġmargin ally
PO P
ĠGeneral ization
IT H
ĠLuc ases
Ġdon or
ĠMat lab
fol io
Ġhom eless
Ġ199 8
Le Net
ĠPer t
ĠST V
Ġcoherent ly
po le
ĠRel ated
gu ably
ĠComm it
Ġcompl iments
Ġmac rosc
Ġmedi ation
Ġbur ied
ĠMax Ent
Ġspread she
Ġenjoy ing
Ġcolor ings
Ġdele te
ĠAc ad
Ġoverhead s
Ġtempor ary
Ġunf ounded
Ġbit ter
Ġnegoti ating
Ġmultiplic ity
En c
Ġanticip ating
Ġharm on
Ġharm ony
Ġasser t
Ġfavour ably
ĠSoft max
Ġinqu iring
ĠFr anc
dist ance
ĠEv idential
Ġprev ision
athe tic
pati bility
Ġreform ulations
ĠCan ada
Ġcult ures
Ġwild fire
mar ginal
Ġconce ive
RU s
ĠTask s
Ġcomprom ised
Ġcorrup tions
ĠIC MAUS
Ġconform s
ĠRO SS
Ġshed ding
Ġincorrect ly
** *
ĠDo ing
ĠDo es
Ġ198 5
Ġ198 9
cre ated
Ġtoler ably
Ġtriang ular
trans fer
ĠWork ing
ĠSW ES
Ġdeliber ate
Ġsupplement ed
Ġmemor ability
Ġfulfill ment
Ġarti st
Ġfuzz iness
Ġdread ed
Ġrenew al
comm ut
To e
Ġpun ch
ĠInf o
Ġstabil izing
Ġstabil izes
Ġacquaint ances
ĠEmbedding s
ĠAbstr action
VAE s
Ġtis sues
ĠCR Fs
Ġcer tified
Ġshop s
Ġplug ged
Ġsuccinct ly
ĠOper ating
Ġphone tic
ĠTechn ically
Ġcompress es
ĠLTL f
mn iglot
}^ \
ĠPattern s
ĠSN R
Ġbil ateral
Ar tificial
cell ation
ĠLag range
Ġware houses
Ġfif teen
Ġampl ify
Ġampl itude
Ġannoun ced
ĠConvers ely
Ġtutorial s
eas y
Ġalph ab
Ġrecol lection
Ġrecol lected
ĠPy Torch
Ġnod ules
Ġrestaur ants
ĠAccur acy
Ġke eper
Ġcrypt ographic
Ġshr inking
ĠSci enti
ĠGra dients
Ġhazard ous
Ġobfusc ation
Ġpharm aceutical
ĠConn ection
Ġtrigger ing
Ġearnest ly
Ġinject ed
ĠDistribution al
Ġenem ies
ĠSupp ose
Ġhall mark
Ġimpr ison
ĠRo ad
ĠDAR PA
Ġprerequis ites
Ġcatalog ue
Op en
link ed
Ġmur der
Ġrot ations
Ġblank et
Ġmam malian
Ġlag ged
ĠMc C
ĠFeed back
Ġsubrout ines
Ġepistem ological
mean ing
ĠeB ooks
Ġaccumul ates
Ġindetermin acy
attack s
evalu ation
Ġburst ing
Ġstyl ized
Ġsnaps hot
Ġ** ***
Ġtang ent
Ġnu ances
ĠLim ited
ĠMK NF
Ġscaff olding
Ġtract ably
transi tion
Mon seigneur
Ġna ively
ĠAN Y
Ġpreprocess ed
ĠAssist ant
Ġcongrat ulations
Ġprost hetic
Ġindefin ite
Ġhing e
ĠDav is
Ġcertific ates
Ġrevers ed
Ġgrip per
Ġshar ply
Ġdeline ate
dat aset
ĠCycle GAN
Ġcommut ative
Ġcaps ules
Ġmand atory
Ġnut ri
Ġatmosp heric
ĠUtil izing
Ġmetab ol
Ġmathematic ians
Ġsuppor tive
Io U
UG IN
ĠCMO S
Ġdism iss
produc ts
Ġphilosop hers
New ton
aith fulness
Ġbacter ia
Ġli vel
Ġunluck y
foot note
Ġsynd rome
Ġpolyph onic
Ġcir cul
ĠTak agi
ĠEntail ment
ĠPrincip al
ĠTues day
ĠPSA W
ĠHabit at
Ġintermit tent
pgl af
tof ore
Ġfric tion
Ġmari time
Ġbib li
ĠAren a
ĠFEV ER
ĠPawl ak
Ġidemp ot
Ġsecrec y
ĠManhatt an
) ).
) ),
) ---
. âĢĻ
4 7
A W
A DE
B ig
B io
C l
C AS
C MA
C Qs
D BN
F F
F ree
F PS
F DT
G AIL
H L
H y
J ac
K now
K ey
K DD
M ay
M IN
N MF
P ER
P ray
S ent
S um
T ra
U L
V D
V O
b in
b ecause
b org
c it
c am
c ity
d win
e er
e ither
f ar
f light
f ledged
h as
h ole
i vers
k et
m as
m ech
m odes
m inded
o V
p her
p air
p ick
s pl
s ided
s awyer
v ous
w alk
Ġ 000
Ġt id
Ġt orn
Ġt iles
Ġa pt
in di
in ks
he t
re ated
ti ms
er ted
Ġs ed
Ġs igh
Ġs now
Ġo mission
or ig
Ġc ens
Ġc rop
Ġc rown
al gam
es timation
is ive
is eness
Ġw ww
Ġan isot
Ġf erv
Ġf ier
Ġf ired
Ġf anc
Ġd well
an tive
ar Xiv
it age
le ctions
le gal
ent er
ent ure
as ound
el ior
Ġn ation
us i
im ag
Ġh anging
Ġh ull
Ġh BOA
Ġl oses
Ġl amps
Ġg low
un k
ra tically
ĠT B
ĠT E
ĠT ut
ver ty
ver sible
Ġst ays
Ġal armed
id iv
per ing
per haps
qu ire
Ġmod ulate
Ġmod ulating
Ġus ages
am ili
ter ous
ri a
Ġv ig
ir relevant
iz z
Ġde position
ĠA B
ĠA E
ĠA gre
Ġne at
og rams
ĠIn tersection
Ġun ions
Ġun ited
Ġun idirectional
Ġun interpretable
ĠM ir
Ġmet eor
rom an
Ġres umed
ĠS n
ĠS ad
ĠS ix
ĠS DP
ĠS AS
ĠS DDs
ĠS utton
ĠS ugeno
Ġper me
Ġper ipher
Ġor gans
Ġr ac
Ġsp o
Ġk appa
Ġad herence
ĠC Q
ĠC le
ĠC ly
ĠC ut
ĠC os
ĠC onstr
ĠC raw
ĠC DC
Ġcont ri
op t
op ilot
Ġdata point
der son
Ġpar as
Ġpar ish
ĠĠĠĠ ĠĠĠ
Ġev ade
ĠD u
ĠD er
ĠD AS
ĠD IM
ĠD CNN
ĠD EL
ĠD COPs
Ġqu o
Ġqu it
ap sing
Ġwhe els
ĠB V
ĠB ip
ĠB CI
ĠB Ts
Ġag gressive
ĠO AEI
ĠO mniglot
Ġrep aired
ĠF W
ĠF if
ĠF aces
ĠF ron
ĠF ML
ĠF unctions
ĠF requent
ĠP ros
ĠP RI
ĠP earson
ide al
ide finite
si veness
Ġhe sit
ĠR BM
ĠR atio
ĠH a
ĠH i
ĠH en
ĠH eter
Ġdis k
Ġdis ability
Ġdis jun
Ġdis gu
Ġdis similar
Ġdis abled
Ġdis posal
Ġrec ency
Ġrec idiv
Ġpl ague
arch y
ĠE I
ĠE P
Ġinter loc
Ġro used
Ġbet ray
Ġdec imation
Ġfe ver
ĠL and
ĠL oss
ĠL AM
ĠL TE
ĠL STD
ĠL ukasiewicz
Ġexpl oding
ang ular
Ġform ations
ĠN O
ĠN ob
ĠN umbers
Ġover t
Ġmulti valued
Ġacc r
Ġacc used
ĠG SM
ĠG TSP
Ġdist ortions
Ġunder going
Ġgeneral ising
Ġdem ographics
th read
Ġsub network
Ġsub optimality
Ġver ifiable
Ġpo verty
ail ability
Ġexp ort
Ġeffici encies
pec ified
Ġtrans pl
Ġtrans position
Ġtrans criptions
Ġenv is
Ġdesc end
Ġdef ective
chie f
Ġmin es
fer ing
Ġam end
Ġam elior
Ġthere in
ĠU CP
vol ume
ĠEx ample
ric ulum
Ġsm iles
ator ies
Ġph i
Ġdep arts
Ġcontext ually
Ġsupp ressed
ĠK ron
iter ative
ond uct
ĠAn g
Ġenc ycl
ear ing
Ġsyn onyms
Ġdefin itive
tig uous
ĠV enture
Ġfocus sed
Ġconc luding
Ġconc retely
fore st
com mon
com mit
com pletion
Ġspecific s
ĠQ MR
Ġcontin uum
Ġutil ises
Ġbenchmark ed
ĠCon cepts
ĠAl low
ĠAl most
SP OT
Ġcr ude
ind ex
ind ependence
Ġsur rounded
Ġconver ged
ax y
Ġfac et
ĠLe vesque
ĠRe ading
ĠRe ynolds
pro per
Ġent ropic
Ġprom oted
sc ores
sc reen
Ġoff ensive
Ġoff set
Ġoff spring
Ġpath ologies
erg ies
respon se
ĠNe g
ĠNe ither
ĠUn ion
Ġsubs ume
Ġcompos able
Ġmis fort
Ġmis specified
Ġglob e
Ġdetermin ate
gest ed
ĠCh urch
Ġsk ipping
Ġexplain er
anc a
Ġneg ated
cl usive
ĠAd ditive
mb ol
Ġtri age
ĠSt ock
ĠSt udy
ĠSt rength
Ġbenef ited
pri vate
Ġsuper intelligent
Ġsuper conducting
AR D
Ġspecial ist
med ian
AI D
Ġannot ator
Ġfeed s
Ġprec urs
ĠMan ufact
Ġread ability
Ġge os
Ġsepar ator
Ġsepar ators
Ġdra f
bers hip
Ġtransform ative
Ġ5 2
Ġcur ation
AC H
Ġlast ed
Ġart works
Ġfeedback s
Ġhybrid ization
ĠMon t
Ġconsequ ential
Ġcollabor ators
Ġcustom izable
ĠIm ages
ĠIm aging
Ġconnec tive
oph ily
oph ysics
Ġparticip atory
Ġz er
Ġfl atter
Ġpropositional ization
Ġrest s
Ġrest ed
Ġrest less
Ġrest ored
label s
Ġmarket place
ĠCl osed
Ġcover t
Ġfree way
rob ots
Ġtransl ator
ĠCP LEX
theore tical
MA ML
Ġinv isible
Ġneu rop
Ġattr activeness
Ġtax is
Ġrepe ats
ser ver
Ġdeb ts
ĠSp e
Ġhol der
Ġaxiom atically
mod ality
mod ified
Ġir radi
Ġfr ight
Ġblock ed
Ġpay load
Ġport ray
Ġdeclar ation
Ġemb race
Ġgen omes
Ġinteract ed
Ġbid s
In t
The ta
Ġclaus al
ĠCo ecke
Ġden y
Ġden oun
Ġperce ives
Ġquad ro
Ġbreak down
ĠAutom atically
Ġorigin ates
Ġmitig ated
Ġrepro ach
Ġdon ate
Ġdon ors
IN G
sim ulation
reg ulation
Ġoverl aps
ĠSc oring
ĠMat erial
ĠPh ase
Ġgrounding s
Ġstim ulation
ĠLP A
Ġtail oring
Ġanim ated
ĠPer ception
Ġemp athetic
ĠReg ulation
Ġdiver ge
Ġoperational ize
ĠComm onsense
Ġfron tal
200 4
Ġfix ations
Ġquantif iable
ĠMod ular
Ġarc ade
ĠCT BN
ĠRandom ized
dis joint
right arrow
PL AN
ĠDi versity
Ġenjoy ed
sol ver
sol vers
Ġbu ying
Ġexcl usion
Ġunf amili
Ġadm ired
ithme tic
Ġpercep ts
ĠDisc repancy
Ġtrace ability
exper imental
Ġtro jan
Ġant agon
ĠBi LSTM
ĠGe ometric
Ġsusp ense
MD N
Ġcompens ating
Ġsubstit uting
ĠPrior itized
\" {
Ġjo ins
interpre t
viron ments
Ġinver t
Ġinterp olate
Ġcorrup t
Ġrevis ited
group s
Ġconve ys
ĠIC LP
Ġunn atural
Ġrespond ents
St ar
He re
He alth
ĠInd ependence
ĠFour th
Ġafford able
approxim ately
do es
Ġsett ling
ĠSV D
Ġhost ed
Ġneighbourhood s
vis or
Ġlie u
Ġur ged
ĠRed istribution
Ġunnecess arily
ĠMR Fs
comp etitive
Ġreus es
occur ring
ĠCR F
Ġsuccinct ness
Ġpul ses
ĠOper ation
general ization
rab ble
Com plete
ĠPos sible
ĠCompar isons
Ġpurch asing
ĠTechn ologies
ĠES N
Ġalter ations
ĠExp Time
represent ed
Sh ot
col or
Ġwood en
prehen sile
Ġsatell ites
Ġtransaction al
Ġbootstra pped
ĠIntegr ation
ĠProt ection
ĠProt ocol
ĠWiki SQL
Ġang ular
squ ared
road s
maxim ization
maxim izing
Ġvolum etric
Ġeager ness
Ġincl ined
Ġtimet able
Ġimmun ological
Ġvic tims
ĠConv Nets
Ġlean ed
Ġflaw ed
AB s
Dec oder
ont ology
ĠFunction al
Ġteamm ate
Ġshoul ders
Ġrid ic
ĠGen ome
Ġresist ant
ĠDri ven
robi ologist
Ġdict ated
ĠEX P
ĠEX PTIME
Ġcontradic ting
Ġcongr u
ĠLearn er
Ġblur red
implement ed
Ġresemb ling
Ġobsc ured
tu ples
Ġkne e
Ġrelie ved
Ġspontane ously
ĠBal dwin
Ġconfig ured
Ġliber al
ĠSi amese
Ġcontam ination
Ġpatri ot
Ġinterpol ating
Ġrectang les
Ġvac ant
Ġinterconn ection
Ġinterconn ections
ĠMain tenance
Ġpan el
Ġuneas y
Ġowners hip
Ġom ni
ĠPass ing
Ġinh abit
ĠCC CP
Ġcycl ists
Ġaudit ory
analy tic
Ġdesk top
Ġcheer ful
Ġstrugg les
Ġfold ed
Ġund oubtedly
Ġchun k
ĠOcc am
ĠLib rary
Ġvend or
Ġvend ors
Ġdispro portion
cienti fic
Ob jective
Str uct
Ġnov o
ĠProper ty
Ġhyd ro
ĠCho quet
Ġmanufacture rs
Ġelectroencephalog ram
Ġthesaur us
Ġhots pot
Ġwaveform s
Ġnic ely
JC AI
ĠInform ally
ĠAdap tation
ĠMajor ity
sec ond
Ġsyll able
Ġremed ies
ĠAdd ressing
Ġmetacon flict
Ġrides haring
strument al
Ġprecomput ed
Ġconvention ally
Ġsigm oid
Ġpoison ing
Ġuncor related
Ġequivari ant
ĠXGB oost
Ġmalign ant
ĠBreak out
Ġreluct ant
neut ral
Ġneurolog ical
Ġsympath y
ĠMeas uring
Ġtigh tening
Ġwik is
Ġcoroll ary
ĠCompl Ex
Ġpurpos ely
otherap y
Ġglean ed
ĠCeleb A
Ġdestin ations
ĠEmb odied
Ġamaz ement
Ġgallant ry
Ġaxiomatis ation
Ġunsuccess ful
ĠPrinci ples
ĠTay lor
ĠLiber ty
Ġrequis ite
Ġsynthe tically
Ġrecidiv ism
Ġmisfort une
- $\
4 9
; âĢĿ
A pp
B SP
B Fs
C he
C QA
F rom
F irst
F IT
F rench
G a
H ome
H uman
K NN
K HS
L in
L ib
L IME
M at
M ult
N B
N U
O PS
P y
P oint
Q SAT
Q oS
R un
S K
S NN
T ask
T EN
U R
W D
Z Doom
^ *
b ag
b ounds
b rows
c is
c tivity
d ani
f el
f am
g ress
g ior
g utenberg
h ome
i ar
k its
l am
l uster
l ists
m ail
m etric
n m
n u
n umer
o ved
p ots
r ide
r ans
r anging
s uccess
v s
v y
v as
v ag
v ais
Ġt ort
Ġt ast
Ġa utism
in ate
in ations
in ten
in ently
in complete
in vasive
on est
re stric
Ġs id
Ġs quee
or al
or ni
or ganis
Ġp ython
Ġp iti
Ġp ouring
Ġc u
Ġc urb
Ġc ares
al g
at ches
ed ges
Ġf al
Ġf etch
Ġf irms
Ġd ry
ar guments
Ġm ounted
le m
le et
le ene
le gged
Ġb ile
as a
as is
Ġth yroid
et ter
et tes
el esc
Ġn ogood
ac ognitive
ec tively
im itation
Ġh os
Ġh ampered
st ar
st udent
ul ties
Ġis omorphic
Ġg ent
Ġg arn
ut ch
un ning
ra ge
ĠT W
ĠT rip
ĠT CP
ĠT REC
Ġex agger
Ġst rain
id u
id en
il ation
em acher
ig uring
ĠW id
ĠW est
ĠW ashing
if fic
if old
if orni
ot a
Ġle ap
ĠI A
ĠI ML
for th
Ġsu ic
Ġsu prem
ri ous
Ġv ibration
ir teen
ab a
ab s
Ġde x
Ġde ed
ĠA A
ĠA mb
ĠA DL
ĠA DF
ĠA CT
ĠA BS
se ver
ach ter
ĠIn nov
Ġsh rie
Ġcan c
Ġun ple
Ġun learning
Ġun weighted
Ġun anim
Ġen ding
Ġen lar
ĠM ak
ĠM ask
ĠM arch
ĠM ars
ĠM ET
ĠM orph
ĠM ountain
Ġmet ro
ĠS B
ĠS MP
ĠS EM
ĠS ensitivity
Ġper f
Ġr ub
Ġpa used
Ġsp ared
Ġk not
Ġad mission
Ġad jectives
ari a
ari ance
ĠC ore
ĠC ost
ĠC hic
ĠC aps
ĠC CP
ĠC SM
ĠC opy
ĠC onsistent
ĠC ancer
Ġimp over
Ġimp aired
op ard
Ġpar ses
Ġch oc
Ġch ips
ag o
ĠD H
ĠD N
ĠD en
ĠD EC
ĠD enn
ĠD VS
ĠD iff
ĠD KT
Ġob so
ĠB ac
ĠB ounds
ĠB DDs
ĠB itc
Ġar rest
Ġag ing
ie re
ell ation
ĠF ort
ĠF erm
ĠF ake
ĠF CM
ĠF leet
ĠP H
ĠP AR
ĠP PS
ĠP DL
ĠP ray
ĠP LS
ĠP OI
ard on
Ġco ins
Ġsc attering
Ġnot ing
Ġhe s
Ġhe lic
Ġop tional
Ġdes ires
ĠR DP
ĠR ock
ĠH PO
ĠH ano
Ġdis lik
est yle
Ġinc umb
ĠE B
ĠE iter
ĠE ye
enti st
Ġinter facing
Ġdec ks
Ġdec oded
Ġrel ig
iv il
ph atic
ĠL V
ĠL DS
ĠL ID
ĠL isp
Ġcons ulting
lic e
ex ec
ex ample
ex tension
tain able
vi ation
end ered
up enn
ĠN A
ĠN LU
Ġover lay
Ġmulti stage
Ġmulti winner
ill ion
ĠG M
ĠG as
ĠG ive
ĠG IS
Ġgra vity
we rer
Ġdisc erni
Ġunder specified
Ġhum ble
th an
Ġpr unes
Ġfin est
Ġpo ols
Ġpo ultry
Ġprog nostic
Ġwhere ver
Ġpolic e
Ġtrans duc
Ġsem ime
Ġreason ed
Ġdef y
Ġexten sibility
Ġreg rets
Ġtra der
Ġexist ent
Ġind isc
Ġnovel ties
yn thesis
Ġbeha ved
ĠU s
ĠU RL
ĠU AI
ĠU CF
int ro
Ġway points
ĠEx am
ĠEx cept
Ġgro ss
line arly
Ġbas in
Ġbas ing
Ġintellig ible
ĠK oh
ĠK appa
Ġequ ipping
hen ce
Ġconf idential
ĠV al
ĠV iew
ĠV BS
par tially
wor n
Ġconstr ued
Ġconc ert
ey e
Ġbi op
Ġbi asing
onom ical
Ġtext book
Ġappl iance
Ġshe er
Ġshe et
Ġshe pher
ĠAs ymmet
Ġutil isation
Ġinf requently
Ġatten uation
ĠCon vergence
DP P
Ġsec ured
Ġsec rets
Ġsec urities
Ġtool kits
uous ly
Ġ3 60
Ġrem inded
Ġwould n
Ġstep wise
ĠLe e
ĠLe g
ĠLe ader
Ġkey phrases
ost atic
Ġret in
Ġret ro
pro ject
Ġback ups
Ġprom inently
Ġcoun sel
Ġproced urally
ĠMark up
con cepts
Ġsubs ampling
Ġsubs ymbolic
Ġmed it
Ġcommunic ates
Ġrun times
Ġ\ %
Ġparameter ised
Ġmis use
Ġloss y
Ġed ition
Ġed itions
ĠCh ild
ĠCh annel
Ġdoc tr
ĠDeep F
Ġcategor isation
Ġless er
lex ive
Ġmon o
Ġmon adic
Ġspar ser
cl ause
Ġpoly tope
Ġperson as
Ġprot ested
Ġregular isation
Ġcoll iding
Ġcoll apsing
AR M
Ġspecial ists
Ġclos es
Ġprec a
Ġprec lude
ream ing
play ers
ĠY OU
ĠY AGO
ĠRes net
Ġparallel ize
Ġparallel izing
Ġdetail ing
Ġcorresponding ly
Ġqual ification
Ġturn key
though t
pr in
pr uning
Ġprim ate
Ġ5 12
Ġdown ward
Ġdown stairs
Ġweak en
Ġweak ened
Ġhyper cube
sh ire
sh ape
optim izing
Ġrece ip
Ġground work
igur able
Ġhist ograms
Ġrepl ies
Ġsubst antive
MC P
Ġcollabor ations
Ġcustom ize
ĠGener ator
wh y
ĠX CS
Ġ6 00
Ġsuff ix
Ġfl ash
ĠEm otional
Ġred ef
label ing
ĠBen ch
Ġpersonal ised
Ġsurvey ing
Ġsoci otechn
ĠSh o
ĠSh ould
Ġfav oring
Ġfav oured
Ġconnected ness
Ġjud ging
OR CS
Ġinterven ing
Ġcontribut ors
pa per
Ġinv oke
log ging
DS L
text tt
dec re
Ġcompet ences
Ġexc luding
au vais
ĠSp oken
Ġlif estyle
ĠSearch ing
ĠMAP D
Ġwr t
Ġfr actal
Ġdifferenti ated
Ġair ports
Ġold est
Ġpubl ishers
ĠDe b
Ġwant ing
Ġcomplic ates
Ġdomin ating
Ġmic ros
Ġfalse hood
NI T
PI QN
Ġleg is
ĠProb Log
Ġimper ceptible
SS L
asp ing
PC s
Ġsat urated
In f
Ġsix teen
Ġmention ing
Ġquad ratically
Ġoutl ook
Ġoutl ining
ĠAutom ata
ĠDist Mult
model ing
Ġhands om
Ġmeet ings
Ġlab s
LS I
oin ting
ĠSc ore
ĠSc rabble
Ġexchange ability
ID IA
ĠPh i
ĠPh y
comput ation
Ġradi ology
AL A
Ġtag ger
Ġhar ass
Ġencoun tering
Ġmechan istic
eta h
Ġdiver ging
Ġpenal ize
Ġrecall ing
Ġallevi ated
ĠOr ig
Ġexceed ed
Ġmicro phone
Ġarc he
Ġaw ake
ĠBe havi
ĠBe auvais
Ġextra vag
Ġsubsequ ences
entang led
ĠPredic tions
conn ections
ĠDi agnosis
Ġ12 0
Ġattain ing
Ġpossess ing
Ġdele gate
ĠDifferent ly
Ġheavi er
ĠAb out
Ġeye brows
Ġdur ative
Ġconv ince
ĠLady bird
Ġcas ts
Ġwalk er
Ġfragment ed
Ġproceed ing
Ġdisentang ling
Ġanticip atory
Ġcalib rate
pe ech
Ġhop ing
ĠCor rect
ĠCor rection
Ġing en
Ġarithme tical
Ġregul ating
Ġ25 0
ĠControl ler
FS s
ĠCO BR
ĠGard en
Ġball s
Ġinstrument ation
Ġunexpected ly
Ġesc aping
Ġbip ed
ĠChallen ges
ĠRE ST
Ġstay ed
ĠPo lynomial
Ġconform ing
Ġstring ent
ĠLocal ization
lin ks
Ġ198 7
Ġmultic ore
Ġseed ing
NE AT
Ġconduc ive
Ġcorner stone
ĠCal iforni
Ġedit ors
Do F
Ġfear ful
Ġfool ish
ĠSA F
Ġmel an
Ġjustify ing
Ġveloc ities
Ġinaccur acy
Ġmemor izing
ĠSyn thetic
ĠSyn tax
Ġur g
ĠRed uced
Ġendeav or
Ġapart ment
Ġod ometry
Ġreus ability
eter is
Ġphenotyp ic
Ġadvoc ates
Ġinj ured
Ġwear ables
Ġparametri ze
chain ing
ĠStack ed
gra du
Ġpul led
Com p
ĠPos itive
Ġregist ered
ĠCompar ative
Pro ject
Ġeigen vectors
ĠDT s
Ġcous ins
Ġspam mer
Ġap olog
Ġmisle ad
ĠFramework s
Ġdecou ples
Ġdistr actors
ĠConc ern
ĠConc retely
Ġabnormal ities
ĠAny time
ĠHealth care
ĠIntegr ating
Ġstakehol der
auti ously
ĠJava Script
Ġbund les
Ġjump ing
maxim um
CD CL
Ġrain fall
Ġdu ties
Ġbreat hing
ĠMech anism
algorith ms
ĠBa idu
ĠAff inity
Ġtimest amp
Ġtimest amps
Ġfost ering
exist ence
rig id
ĠArchitect ures
Ġtemp o
ini tial
Ġbless ed
context ual
ĠDataset s
Ġincentiv izes
Ġrid ge
ĠCity scapes
Ġdiscern ing
Ġwilling ness
ĠConn ected
Ġdiss oci
ĠOrgan izing
Ġram ifications
acc eler
Ġencaps ulated
Ġbic ycle
Ġbic lustering
ĠIntr insic
Ġchief ly
bur gh
ĠDAR TS
Ġreconc ile
Ġkne es
ĠDST C
Ġgenu inely
Ġannounce ment
gen re
Ġconfig ure
ĠNeighbor hood
Ġdownload ed
Ġwarning s
Ġbra ve
Ġbra king
ĠCur iosity
Ġcontam inated
Ġrever sible
Ġepid emic
Ġepistem ology
dimension ality
ĠeB ook
ĠSqu ares
ĠFL OPs
Ġaccumul ating
Ġconfoun der
Ġcraw led
Ġhed ges
ĠED ML
Ġaband oned
Ġupl ift
Ġpresum ed
Ġstyl istic
auth or
Ġom itting
osc opy
Ġweap ons
ĠAlgebra ic
Ġcardinal ities
Ġuncontrol lable
Exp Time
Ġvir uses
Ġremin is
Ġembarrass ment
Ġinstitution al
Ġburn ing
Ġunde res
ĠScal able
Ġrol led
Ġvolunte er
Ġrear rang
ĠMass ive
Ġcha ise
Ġuncom fort
ĠImplement ation
Ġrecru iting
Per haps
eny i
Ġtox ic
Ġtox icity
Ġhing es
ĠMovie Lens
ĠDav id
ĠGramm ar
Ġcertific ate
Ġinconven ience
Un der
met hod
Ġwand ering
Ġoveres timation
Ġpon ens
Ġunfold ed
Ġpractic ability
ĠDiscrimin ant
Ġinhibit ory
ECT OR
Ġthick ness
imed ean
Ġpromp ted
ĠClin ical
Ġvolati lity
ĠLamb ek
ĠNV IDIA
Ġquestionna ires
equival ent
Ġeste em
Ġseren dip
Ġbioc hemical
Ġdeduc tively
construct ed
cd ot
ĠWave Net
Ġspur red
ĠRap idly
plet ely
Ġprolong ed
Ġmilest ones
ĠSit uation
ĠMam dani
Ġresur gence
Ġdesira bility
Ġtraine e
Ġbargain ing
dr ug
Ġantig en
Ġanaph ora
Ġbreed ing
Ġstagn ation
Ġabnorm ality
Ġhypern ym
ĠPati ent
Ġdesper ate
Ġultr asound
Ġtrop ical
Ġintim acy
ĠWalk SAT
Ġamus ement
Ġamid st
Ġwag ering
Ġinfinites imal
Ġpsychol inguistic
ĠFranc isc
Ġalphab ets
roman agement
ĠHeter ogeneous
ĠManufact uring
Ġneurop sych
Ġunfamili ar
gior gi
ĠDenn y
Ġobso lete
ĠHano i
ĠCaliforni a
$ ^\
% ),
' d
' re
) (
) =
) ]
) }$
1 000
4 1
4 3
5 6
8 3
? ".
B re
B el
B ack
C og
C LP
C DC
D es
D is
D LP
D AC
D BNs
E Ns
F G
F R
F V
F W
G ES
G rad
G RU
H er
H ER
H ave
H OM
I G
I DF
I RT
J udge
K D
L izzy
M achine
O DE
P N
P ut
Q I
R BP
S ec
S peech
T emporal
T IME
V Ms
W ord
W SC
X OR
a ves
a way
a zed
b ay
b age
b ench
b ranch
d id
d ose
f igh
f MRI
f loor
g ar
h i
j umping
k o
k NN
k eeping
l ate
l our
l ook
m ac
m ind
m ake
n n
o es
p rom
p uzzle
r ified
s izing
s orted
s ampled
v id
w ave
y es
Ġt am
Ġt ap
Ġt ending
Ġt iling
Ġt elesc
in ating
in formatics
on a
on ary
he ard
re ating
re plic
ti fications
er ting
Ġs in
en act
Ġp il
Ġp anc
Ġp ENs
Ġc ock
Ġc ave
Ġc ensored
Ġc eteris
es is
es tern
at oms
at omic
at tentive
Ġw il
Ġw ound
Ġw ake
Ġw isely
Ġan ne
Ġf u
Ġf ove
Ġf olly
Ġf ishe
Ġd ign
Ġd end
Ġd ances
Ġd rought
Ġd ying
an sive
an alog
ar um
ar rative
Ġm m
Ġm onom
Ġm amma
it in
le ader
Ġb aby
Ġb ucket
Ġb ikes
Ġb orne
Ġb imodal
ic ation
ic ial
Ġre acting
Ġre actor
Ġre design
Ġe cc
Ġn ights
ac qu
im it
im port
im plicit
Ġh ollow
st ers
st anford
od ge
ul man
ith ogenic
Ġl unch
Ġg al
Ġcon tiguous
un ification
Ġon board
ĠT A
ĠT al
ĠT it
ĠT ur
ĠT PO
ĠT ourn
ĠT otal
Ġcom for
Ġst ocks
id or
ig ure
Ġwe ary
ĠW o
ĠW ed
ĠW rit
ĠW ASP
ĠW SD
ĠW izard
qu adratic
ĠI M
ĠI Ds
ĠI MDB
Ġ( '
Ġ( ~
Ġ( {\
ge x
ge ometric
for ced
Ġcomp ounding
Ġapp ointed
Ġapp renticeship
Ġmodel er
Ġv ocal
Ġv alley
Ġwh ir
Ġde ference
ĠA SC
ĠA bs
ĠA BM
ĠA SI
her n
pl ess
pl anes
pl ausible
uc ting
ĠIn put
ĠIn tensive
ĠIn duction
ren eur
Ġint act
Ġint ensities
Ġdat ing
Ġsh ots
Ġun defined
Ġun measured
Ġen active
Ġen ergies
ĠM ail
ĠM art
ĠM aster
ĠM agnetic
Ġmet ering
Ġmet acognitive
Ġres cheduling
ĠS MC
ĠS LI
ad dle
ad just
ad missible
Ġper c
Ġr us
Ġsp ac
Ġsp inal
Ġsp aced
Ġk illed
di ag
ĠC N
ĠC ome
ĠC As
ĠC ritical
ĠC ube
ĠC ausality
Ġimp ul
Ġcont ention
op tions
op ting
Ġshow c
Ġat e
ag g
ag in
ĠD ra
ĠD iv
ĠD CS
ĠD anger
ĠD SL
ĠD UC
ĠD ictionary
Ġqu itted
Ġqu bits
ĠB C
ĠB E
ĠB ad
ĠB art
ĠB NN
ĠB lo
ĠB ox
ĠB uck
ĠB SD
ĠB riti
Ġar range
Ġag itated
ĠO ct
ĠO cean
ĠF re
ĠF lu
ĠF arm
ĠF alse
ĠF etch
ĠF ailure
ĠF SCs
ĠP J
ĠP f
ĠP ID
ĠP Time
Ġco ugh
Ġco aches
Ġsc ul
Ġnot ations
Ġhe x
Ġhe ro
Ġhe ightened
Ġperform ers
Ġdes erved
ĠR ich
ĠR MP
ĠR MSE
ĠH C
ĠH D
ĠH u
ĠH ashing
Ġdis ordered
Ġdis belief
Ġrec ons
ort al
Ġro ar
ug ues
Ġrepresent ativeness
Ġrel ocation
Ġhas te
Ġhas tily
ĠL am
ĠL ang
ĠL ou
ĠL ower
ĠL abor
ĠL SA
ĠL OLA
Ġnew com
ex ists
ex ecution
tain ment
Ġem ulating
Ġpre y
Ġpre emp
Ġpre tend
ĠN IPS
ack et
Ġover taking
Ġout ward
Ġmulti spectral
ĠG ram
ĠG ree
ĠG AI
ĠG ES
Ġgra ys
Ġdisc om
Ġdisc ards
Ġunder line
ds ourcing
Ġpredic ated
Ġdem entia
Ġreal ise
ire cted
Ġsub sequence
Ġcomplex es
Ġcomplex ion
Ġpos til
Ġexp ressible
the m
Ġthan ked
Ġlog ging
Ġgraph ically
Ġgraph oid
ann ers
Ġrequ esting
ik elihood
Ġcor di
Ġcor rid
Ġcor ners
antic ip
Ġspec ulative
ha ired
Ġreg is
Ġnon sense
Ġnon verbal
Ġind eb
Ġam algam
yn c
Ġ$ [
Ġimport ed
ĠU ber
erm arking
Ġj e
Ġautom ates
Ġautom obile
vol ve
Ġid ios
Ġ1 01
ĠEx tension
ĠEx ponential
Ġunc overs
vious ly
sw it
Ġsm arter
als y
ob i
pre T
pre c
uil der
uil ty
ĠPro P
ĠPro tein
Ġadv ising
Ġsupp ression
ĠK T
ĠK y
ĠK end
ĠK GE
ĠK eras
Ġchar ged
Ġmultiple x
Ġequ als
Ġgu ine
ĠV L
ĠV SL
Ġfact ories
udi o
com par
pir atory
Ġplay testing
Ġinterpre tive
Ġbi ometrics
ĠQ SAR
onom ics
Ġins ol
ci ences
Ġra y
Ġra ging
Ġbest ow
Ġutil ised
Ġinf ection
Ġcommon place
ov ascular
Ġrandom ised
Ġatten tively
DP S
Ġreduc ible
Ġcr ashes
ount able
ind stone
ploy ing
Ġcolle ctives
Ġpop ul
Ġend points
Ġquestion ed
ax is
Ġfac ulties
Ġrele v
Ġbl ends
Ġret we
pro file
Ġent rep
Ġback ed
Ġrev ived
sc ales
Ġcoun ty
Ġmy ocardi
ST A
con ceptual
Ġfollow ers
Ġ$\ {
ĠJ en
ĠJ ob
ĠCh ief
Ġref usal
Ġiter ate
Ġsk illed
Ġsitu ate
Ġattribut ing
Ġpost conditions
Ġcar bon
Ġneg ations
cl ose
ĠAd ver
ĠAd opting
ĠAr c
ĠAr tic
ĠAr guably
omet er
Ġpoly g
ĠEn hanced
ĠEn vironments
Ġartic ulate
Ġinitial izing
Ġel bow
Ġown ed
med ia
Ġdev il
Ġhyp e
Ġhere tofore
Ġintr u
ĠMan aging
Ġge ared
Ġqual ifications
AP I
ĠHere in
pr inciple
Ġvector ial
Ġdecom p
ML ET
Ġcur rents
Ġfundamental s
ĠSe lecting
Ġincom prehen
ĠLog istic
ĠOp tions
Ġretrie ves
Ġla z
Ġrepl icated
ĠDec iding
rel la
otyp ical
Ġcentral ised
Ġdr um
Ġsw imming
Ġsteps ize
Ġflow ing
Ġappear ances
ĠX ap
Ġkind ly
Ġalloc ates
Ġrout ers
Ġfl ocking
Ġfl ipping
Ġhead ing
Ġhapp iest
IS A
cal ibrated
ĠSim ulator
Ġroad way
Ġkin odynamic
ĠSP P
ĠDef in
Ġfav ours
OR E
tif iable
Ġanalog s
Ġinv oked
Ġemotion ally
Ġdecl ined
log arith
Ġear liest
DS E
Ġbig ram
Ġpsych ophysics
Ġattr actor
Ġwin ds
ĠComp ression
ĠOptim izing
Ġtend encies
Ġexc luded
ĠTra jectory
ĠSp y
Ġstra tification
Ġtermin ated
Ġcompil ers
Ġslow s
AM E
Ġsal ience
Ġexperi ential
Ġir rational
Ġir reduc
Ġwr ist
CP F
Ġaudi ble
Ġspeak s
IF O
IC U
Ġremark ed
Ġgen otype
ĠZ AP
\% ,
ĠInst ance
Ġdeliver ies
Ġtal ks
ĠMa ze
inter val
inter active
IT Y
Ġcat aly
exp and
Ġrecommender s
RT E
Ġgovern s
sim ulated
reg ions
with standing
Ġhom ogeneity
Ġpack ets
ĠClass ifiers
lec ular
Ġmechan ically
MR Fs
Ġste er
Ġste pped
Ġbene ath
len eck
Ġfavor ite
'' .
MO G
Ġten ants
200 3
CN L
Ġga its
ĠMod ule
Ġenumer ated
ĠPr uning
Ġhear tily
EL L
Ġpractition er
Ġpus hed
Ġuncon ventional
Ġattain able
observ ed
sol ved
ĠNon monotonic
ĠAc qu
ĠAc cess
ĠAc tivation
Ġtempor arily
posit ory
ĠLa TeX
Ġoption ally
Ġcyber ne
Ġdead ly
Ġwire head
learn ers
Ġsearc her
Ġaccommod ating
Ġasser ted
Ġassemb lies
ambig uation
Ġimit ator
ĠEv ents
ĠStruct ures
ris tian
})$ .
Ġaxiomati zed
Ġprohib its
ĠCan onical
Ġcontrad ict
mat rix
Ġreplic a
Ġreplic ating
Ġnarrow ing
Ġeight een
Ġscrip ted
ĠDis til
Ġrevis its
199 2
Ġsac red
Ġrecon na
Ġtransparent ly
Ġwat ches
ĠCal cul
Ġsynchron ized
Ġdepart ments
Ġremember ing
Ġcoach man
umb led
ĠFrame Net
ĠMe ek
Ġclar ifying
conf lic
Ġcitiz eness
ĠPe er
How ever
Ġfuzz ification
Log ic
ĠSk etch
ĠRed dit
ĠSS G
ĠLo opy
Ġadvoc ating
ĠStatis tics
ĠSch ool
Ġpul monary
Ġdiscon tinuous
Ġprogramm able
program med
FO MC
Pro duct
Ġworkshop s
Ġscan path
Ġdecay ing
Ġbuy er
ĠExp ression
Ġpeak ed
Ġwarm ly
Ġwarm th
adap ted
ĠConc urrent
ĠMed ian
ĠMed icine
ĠGerman y
Ġbatter ies
Ġdiscl aim
Ġdiscl osed
ĠEp isodic
ĠExplain ing
ĠExplain ability
algorith mic
Ġmes hes
Ġbon uses
ĠDem and
Ġimmun ity
Ġimmun ology
ĠEnc oding
Ġinsp ected
ĠSchem e
ĠRepublic an
ĠBand its
ĠMF CC
Ġfals ification
Ġrhyth mic
Ġham mer
Ġreflex ivity
Ġsti ff
Ġprop ensities
ĠRad emacher
Ġdisrup tion
TH OR
uni que
Ġoscill ations
Op tim
Ġunderpin nings
CV aR
ĠSer ies
Ġconfig uring
Ġnecessit ate
ĠKn apsack
Ġinstruct or
Ġring ing
Ġchord al
Ġwithd rew
ĠAmeric a
ĠPost eriori
ĠTer ms
ĠTer preT
ĠSqu are
ĠFS Net
Ġconsult ation
Ġindetermin ate
aby tes
Ġpresum ably
auth ored
Ġnu anced
Ġdeterior ates
Ġterror ism
Ġmalfunction ing
Ġtick ets
Ġscaff old
Ġplag iar
Ġsubstr ate
Ġsynonym ous
Ġvex ed
Ġvex ation
Ġduplic ate
Ma xim
pattern s
ĠRem ark
Ġsolicit ude
Ġlotter ies
Ġreferen ced
ĠTH IS
Ġagric ulture
ĠFact ored
Ġstrugg led
Ġrejo ined
Ġpione ering
Ġabst ention
Ġindefin itely
Ġextrapol ated
Ġbul k
ACT AL
ĠCoordin ation
Ġprosper ous
Ġillumin ate
Ġmaneuver ing
Ġsen one
Ġsle pt
Ġcul min
algebra ic
Ġgrie ved
ĠBra zil
Ġnov ices
Ġpharmac ists
mid t
Ġhots pots
ĠTS K
Ġcling o
ĠPur pose
Ġgrace fully
ĠIndust ry
ĠDemonstr ation
Ġsevent y
ĠFR ACTAL
Ġdisper sion
Ġembrac ed
vit ational
Ġclo ze
Ġaddi tively
Ġdissem ination
Ġblog s
Gu ided
card inality
hun gry
Ġtread mill
report ed
Ġment or
Ġreti red
Ġlect ure
Ġven ue
separ ability
ĠMID I
Ġpercept ually
Ġwebp age
Comm erce
Doc tor
Ġomn is
ĠAst robiologist
Ġservo ing
Ġolog s
phy si
Ġswift ly
ĠCoal ition
ĠSurve y
Ġrud iment
ĠVi ZDoom
ĠJan uary
ĠGaze bo
Ġcin emat
Ġgly ph
ĠMich ael
ĠRus sian
Ġinsensi ble
ĠCondition ing
ĠScot land
Ġtent ative
Ġpari bus
Ġdefic it
Ġopi oid
ĠPhilos oph
Image Net
Ġchim ney
ĠProte ge
compl iant
manip ulators
Ġidempot ent
Ġtid ings
indi vidual
Ġfanc ied
ĠAgre ement
ĠKron ecker
commit ment
Ġtast es
Ġsid est
Ġchoc olate
ĠBitc oin
Ġincumb ent
ĠAsymmet ric
decre asing
Ġharass ment
ĠSAF ARI
Ġreminis cent
Ġuncomfort able
ĠFrancisc o
figh ters
ĠpENs emble
ĠTPO T
ĠTourn ament
ĠBriti sh
ugues e
ĠLabor atory
Ġgrays cale
Ġindeb ted
Ġidios ync
Ġentrep reneur
Ġreconna issance
$ )-
' ),
) /
) ^
+ $
- (
. âĢĶ
0 2
5 3
6 9
= \
? ",
A m
A gain
B rain
B LE
C or
C ap
C our
C OR
C lim
D G
E P
E uclidean
E PP
F e
F act
F OL
F PR
G ym
G IS
G TSP
H op
I W
I LS
K S
K W
L ion
L ike
L ocal
M u
M PO
N av
N MR
O B
O z
O ur
P V
P redic
P olicy
P PS
P ET
Q R
R ule
S il
S qu
S MC
S peak
S pirtes
T Ns
T ake
T EC
U I
V ER
X T
[ $\
a ro
a ze
b ad
b ral
b ands
b iased
b ribery
c f
c ence
c end
c row
c ustom
c riter
c ardi
c opter
d p
d og
e re
f are
f its
g n
g ued
h an
h igher
j a
j us
k appa
l iter
l asting
l ocation
m etry
n b
n oun
o P
o pp
o ordin
o herence
p m
p y
p ed
p tic
p resent
p hem
p MRI
p ayoff
r uctive
s tic
s pect
s erial
t opic
t leness
t ouch
u til
v irtual
w en
w il
w ired
w hether
y l
z illa
z adeh
{ (
Ġ umb
Ġt ion
Ġt ide
Ġt ip
Ġt ier
Ġt rolls
Ġa in
in el
in qu
in ds
in als
in stein
on o
on line
he res
Ġs our
Ġs izing
Ġs word
en st
Ġo st
or h
Ġp BC
Ġp etition
Ġc autiously
al am
al ism
al gebras
es ti
at yp
at ron
Ġw os
Ġan ew
Ġf id
Ġf olds
Ġin a
Ġin separable
Ġd ined
Ġd ueling
an onym
Ġm ot
Ġm uff
Ġm asters
Ġb rit
Ġb att
Ġb owed
Ġb orders
Ġb ought
Ġto s
Ġto oth
ent ailment
as y
Ġre b
Ġre venues
Ġre ranking
Ġth irteen
et e
el ian
el zon
Ġn atively
Ġn iche
Ġn ieces
ac ion
st ance
st ack
st atis
st ering
Ġfor k
Ġl est
Ġl ux
Ġg ear
ut ability
ow ers
Ġcon j
Ġcon formation
Ġcon fer
Ġcon gested
un o
un known
ra ti
ra us
ĠT G
ĠT L
ĠT T
ĠT U
ĠT DD
ĠT AM
ĠT rained
ĠT HE
ĠT iny
Ġex its
ver b
ver ted
Ġst ably
Ġst ained
Ġal erting
id ate
em y
ch i
os a
ig hed
ig ible
Ġas piration
ĠW I
qu ing
ot on
ĠI CL
ĠI ME
ĠI FC
ĠI JCAI
am ard
am ond
ĠWe ib
Ġsu fficiency
Ġv ow
Ġv ign
Ġv enti
Ġare n
Ġare na
Ġwh ist
form ing
form ula
ĠA le
ĠA OM
ĠA MR
ĠA ugmentation
her ing
Ġit iner
uc ose
og LeNet
ach ability
Ġdat atyp
Ġsh one
Ġsh ake
Ġun ite
Ġun acc
Ġun modified
Ġun anticip
Ġen act
Ġen abl
ĠM om
ĠM ove
ĠM edia
ĠM EC
ĠM ultic
ĠM ARS
Ġappro ve
Ġappro ved
ĠS il
ĠS her
ĠS ens
ĠS olution
ĠS ok
ĠS IC
ĠS leep
ĠS MIL
ĠS OTA
Ġcl ub
Ġcl ergy
Ġcl ipped
Ġcl othing
Ġr ug
Ġr attle
Ġpa using
Ġsp ine
Ġad ept
oc ate
di versity
ĠC and
ĠC AT
ĠC ustom
ĠC oding
ĠC CA
ĠC BS
Ġimp uted
der iv
Ġch in
Ġch ore
ĠD G
ĠD y
ĠD id
ĠD PS
ĠD ifferentiable
ĠD ueling
Ġob str
Ġqu as
Ġqu itting
ep per
ĠTh reat
all ocation
ĠB M
ĠB FP
ĠB etween
ak y
Ġar ist
Ġar row
Ġag rees
ie u
ie ve
ĠO d
ĠO PF
ĠO wing
Ġrep ul
ĠF U
ĠF V
ĠF a
ĠF ar
ĠF ra
ĠF PS
ĠF oot
ĠP TA
ĠP ooling
ĠP ascal
Ġsc atter
Ġhe l
Ġperform ant
ĠR um
ĠR ay
ĠR ole
ĠH M
ĠH as
ĠH om
ĠH us
ĠH un
ĠH ans
ĠH aus
ĠH DP
ĠH MC
ĠH SI
ĠH earth
ĠH UGIN
Ġtr u
Ġdis d
Ġdis g
Ġdis ks
Ġrec tified
Ġpl as
Ġpl ateau
Ġpl ithogenic
Ġall usion
ĠE E
ĠE igen
Ġro de
Ġro stering
Ġdec line
Ġdec isive
Ġrel ay
Ġfe es
ud ed
ĠL ie
ĠL ake
ĠL DL
ĠL IT
ĠL ooking
Ġman kind
lic ation
ni k
ex cept
end ations
end elzon
so ever
Ġform ality
wo od
ĠN AT
ĠN OR
ĠN EX
ĠN aturally
Ġover sampling
Ġout ages
Ġfun ding
ati ze
ati zation
ĠG K
ĠG all
ĠG erm
ĠG LM
ĠG amma
ĠG rowing
ĠG overnment
ĠG CRF
ĠG auss
th ree
Ġdet achment
Ġsub word
Ġsub game
Ġsub populations
cep tions
ever se
Ġpos its
te enth
Ġexp enses
Ġexp ansive
the ir
Ġcomm itting
Ġcomm uting
ĠâĢľ --
erv ative
art ment
Ġsem ic
Ġsem ig
Ġup stream
Ġwor ry
Ġdef ended
Ġdeep ened
ha zing
Ġtra uma
Ġtra pezoidal
Ġnon standard
Ġnovel s
tr ace
Ġmat rim
por ting
Ġcombin ational
ens ur
Ġany more
ĠU G
ĠU I
ĠU T
erm ost
atis fied
Ġcol ours
ier ger
Ġj un
Ġj ew
get ting
su it
Ġatt ach
ĠEx ecution
Ġques ts
Ġoper ands
Ġdire cts
Ġsm odel
ob an
Ġsa v
Ġsele ctivity
ub ility
ĠK raus
Ġchar ges
Ġvis itation
Ġequ itable
Ġconf using
ĠV ol
par tite
gr ids
Ġformal ises
com ed
com ponents
Ġreward ed
Ġbi ologists
ĠQ P
ĠQ R
ĠQ CSP
ĠQ BFs
Ġeven ly
Ġtext books
Ġins ects
Ġins ensitivity
ci ally
Ġra gged
Ġinf ant
Ġcommon ality
Ġcommon alities
Ġcorre ctive
ĠCon volution
DP Ps
ĠAl t
ĠAl together
SP ECTOR
Ġcr u
Ġcr ack
Ġintegr als
Ġsur m
Ġsur gery
orm al
Ġdepend ability
Ġend ogenous
Ġquestion able
ĠFin ancial
level s
ĠLe gal
ĠRe in
ĠRe volution
Ġextend able
Ġbl ended
Ġret rained
pro ving
ĠRec onstruction
Ġback jumping
Ġgl imp
sc ape
sc aling
Ġpath ologists
raph y
Ġindividual ized
Ġrespon ded
ĠNe go
Ġi C
ord an
Ġfollow er
Ġmed ial
AT L
ĠJ e
ĠJ ames
ĠCom positional
Ġpe g
Ġmis con
Ġconstruc tiv
ĠCh ow
ĠCh ristian
Ġpres ume
Ġpres criptions
Ġref resh
Ġsk ipped
Ġcompeti tor
Ġpair ing
Ġword nets
Ġcategor ial
Ġexec utor
Ġpost d
abl eness
Ġshort age
Ġinflu enza
cl osed
cl osure
ival ence
Ġfas cin
ĠAd minist
ĠAr tif
ĠSt at
ĠSt ory
greg ated
Ġprot ects
Ġcent res
Ġsuper market
AR C
AR P
oper ators
ĠMan ual
Ġaggreg ations
ĠY elp
Ġplan et
Ġlower ing
Ġexpress ly
Ġtre ll
Ġsumm ed
Ġfactor ize
Ġmark up
Ġconvers ely
Ġche ating
{\ '
Ġincom patibility
paramet rization
Ġdecompos ability
Ġinteresting ly
ustom ed
Ġkernel ization
MC DM
rel ative
rel iability
vent h
ĠGener ic
Ġnormal ize
Ġpriv ately
Ġsw aps
Ġdel uge
tiz ed
Ġstream line
}$ ($\
Ġevol vability
ĠASP MT
des cent
Ġmess aging
Ġrout er
Ġsymmet rical
ĠSim on
ĠSim plex
Ġmus cle
Ġred ist
Ġderiv able
ĠShe ep
Ġphenomen al
Ġbounded ly
ĠCol lection
ĠCol umn
Ġtransl ational
Ġtransl iteration
Ġmissing ness
ĠBen nets
box es
ĠCP F
ĠCP I
Ġsoci ology
Ġspect ators
Ġspect rogram
Ġspect acular
ĠSP L
Ġlist ing
ĠSh ad
ĠSh achter
ES N
Ġda wn
Ġfriend liness
ĠPl atform
ĠMC DM
Ġinfin itary
Ġcorrespond ent
Ġwrit es
DS mT
Ġbig raph
Ġposition ed
Ġpsych ologically
Ġpsych ologists
Ġvirt ues
ĠComp act
Ġexc ludes
Ġforec asters
Ġdeb ated
ĠSp aces
Ġbeg ged
DE L
DE M
Ġpip es
CT L
CT P
CP A
Ġtable top
Ġdifferenti ates
Ġtransport ability
Ġextrem al
IC s
Ġtravel ed
Ġtravel ers
Ġmarginal ized
Ġfeel s
Ġgen omics
Ġmic romanagement
Ġmaterial isation
Ġeduc ators
Ġinstanti ating
\% $,
Ġchild hood
feas ibility
bal ance
PC G
uck oo
In ter
ĠCo L
Ġden oting
ĠRep e
Ġarri ves
Ġarri vals
exp ansion
ĠOnt ological
expl icit
abul a
19 88
ĠLong est
sim pl
reg ion
ĠSc ott
Ġ20 48
Ġaccompl ishes
Ġtight ness
ĠVari ance
AV E
band it
Ġstim ulated
Ġhar vest
Ġtell s
Ġpenal izes
hel or
Ġdoub ted
Ġbiom imetic
An sw
Ġthreat en
Ġthreat ening
Ġembod ies
spec ial
Ġaw ful
ĠBe am
ĠNew comb
ĠCT D
ĠAL ICE
Ġhear ts
Ġresidual s
ĠPri vacy
SR OIQ
cons cious
under line
ĠSub jective
sol ve
Ġoccup ants
ĠAc cept
ĠAc tivities
Ġrewrit ability
LU E
sub set
ĠSol ver
Ġfed eral
En d
cor tical
cor relation
ĠDisc ourse
Ġprincip als
Ġinsu fficiently
board s
Ġhop s
Ġsucceed ing
Ġscre ens
Ġworth while
Ġaffor ds
ĠUni verse
Ex per
dist ortion
fin der
rew ka
rep air
Ġaxiomati ze
ĠBi om
ĠSm ets
ĠCO G
ĠNL C
ĠAct ually
Ġball oon
mat ches
Ġchemical s
no isy
Ġreplic ability
interpre ted
BF NN
Ġinver tible
ĠIS O
ĠDS m
NS GA
Re LU
Ġconve ying
identi f
199 4
Ġreproduc ed
ĠSw ed
ĠFO ND
ĠLat tice
NL G
Ġtriang ulations
Ġwat ermarking
ĠCI DE
ĠCal tech
trans port
Do es
bl ind
ĠInd ic
cost s
ĠWork er
Ġann ual
Ġann oy
soft ware
soft max
Ġast ro
Wh ich
Ġproportion ality
sm art
Ġreserv ation
wide hat
Ġflat tered
Ġbeam s
TR PO
ĠGib son
Ġunin formed
ah n
Ġce ase
ĠSyn aptic
Ġstop s
Ġinspec tions
Ġinterle ave
Ġguess ed
Ġendeav oured
Ġorthog on
target ed
Ġpun ish
ĠInf lu
comp ressed
Ġweek ly
ĠEvent ually
valid ated
ĠEL F
autom atically
ĠSH ACL
gra dients
Ġri vals
Ġforth coming
depend ence
inst ances
Pro t
ĠTe acher
ĠUp date
Ġslic ing
mo ving
omorph isms
ĠEd ge
ĠEr d
Sh annon
ĠVer tex
Ġtele communication
Ġax e
ĠConc ierger
Ġunpredic tability
post eriori
Ġunus ually
squ are
Ġforg ive
Ġbright ness
pot QA
Ġretail ers
Ġobey ed
ĠOff ice
Ġrecol lections
Ġmir roring
ĠDig g
ĠRobust ness
IB B
Ġfurn ished
ĠAff ect
ĠCPS s
Ġtimest eps
Ġaesthe tics
Ġsurpass ed
MB RL
ini tiative
Ġfals ity
ĠSD N
ĠLiter ature
Ġcasc ading
lat ency
Ġcry st
ocr at
Ġsubjec tively
ĠForm ula
ĠAssoci ative
Ġiron y
Ġho pping
ĠOB DDs
Ġdisrup tions
Ġpeculi arities
Ġimpr udent
Ġmultipl ier
Ġencaps ulate
ĠAppro ach
Ġfic tional
implement ation
ĠCent re
ĠOM Q
ĠOM Qs
Ġinspect or
document ed
ĠCre ativity
ĠBal ancing
ĠGRU s
ĠCur riculum
Ġbrib er
Ġactu ator
ĠRegular ization
ĠRegular ized
ĠPRO SPECTOR
Ġdimin ish
ĠImpro vement
[...]
