{"<s>":0,"<pad>":1,"</s>":2,"<unk>":3,"<mask>":4,"!":5,"\"":6,"#":7,"$":8,"%":9,"&":10,"'":11,"(":12,")":13,"*":14,"+":15,",":16,"-":17,".":18,"/":19,"0":20,"1":21,"2":22,"3":23,"4":24,"5":25,"6":26,"7":27,"8":28,"9":29,":":30,";":31,"<":32,"=":33,">":34,"?":35,"@":36,"A":37,"B":38,"C":39,"D":40,"E":41,"F":42,"G":43,"H":44,"I":45,"J":46,"K":47,"L":48,"M":49,"N":50,"O":51,"P":52,"Q":53,"R":54,"S":55,"T":56,"U":57,"V":58,"W":59,"X":60,"Y":61,"Z":62,"[":63,"\\":64,"]":65,"^":66,"_":67,"`":68,"a":69,"b":70,"c":71,"d":72,"e":73,"f":74,"g":75,"h":76,"i":77,"j":78,"k":79,"l":80,"m":81,"n":82,"o":83,"p":84,"q":85,"r":86,"s":87,"t":88,"u":89,"v":90,"w":91,"x":92,"y":93,"z":94,"{":95,"|":96,"}":97,"~":98,"©":99,"ª":100,"»":101,"¿":102,"Ã":103,"â":104,"ï":105,"Ċ":106,"č":107,"Ġ":108,"ġ":109,"Ģ":110,"Ķ":111,"ĺ":112,"Ļ":113,"ľ":114,"Ŀ":115,"ł":116,"Ġt":117,"Ġa":118,"in":119,"on":120,"he":121,"re":122,"ti":123,"er":124,"Ġs":125,"en":126,"Ġthe":127,"Ġo":128,"or":129,"Ġp":130,"Ġc":131,"al":132,"ing":133,"es":134,"at":135,"is":136,"tion":137,"ed":138,"ro":139,"Ġof":140,"Ġw":141,"Ġan":142,"Ġf":143,"Ġin":144,"Ġd":145,"an":146,"ar":147,"Ġm":148,"it":149,"le":150,"Ġb":151,"ic":152,"Ġto":153,"Ġand":154,"ent":155,"as":156,"Ġre":157,"ation":158,"Ġe":159,"Ġth":160,"et":161,"el":162,"om":163,"Ġn":164,"Ġpro":165,"us":166,"ac":167,"ec":168,"im":169,"ur":170,"Ġh":171,"st":172,"od":173,"ly":174,"ul":175,"čĊ":176,"ce":177,"ve":178,"Ġfor":179,"ith":180,"ĠĠ":181,"Ġis":182,"Ġl":183,"Ġg":184,"ut":185,"ow":186,"Ġcon":187,"un":188,"ra":189,"Ġon":190,"Ġthat":191,"ĠT":192,"Ġex":193,"ol":194,"ble":195,"ver":196,"Ġcom":197,"Ġst":198,"Ġal":199,"id":200,"res":201,"il":202,"per":203,"em":204,"ch":205,"os":206,"tic":207,"ig":208,"Ġwe":209,"ate":210,"pp":211,"Ġbe":212,"Ġas":213,"Ġwith":214,"ĠW":215,"qu":216,"if":217,"ot":218,"Ġle":219,"ĠI":220,"Ġ(":221,"Ġmod":222,"Ġus":223,"ĠčĊ":224,"am":225,"ter":226,"ge":227,"for":228,"ts":229,"Ġcomp":230,"ity":231,"Ġapp":232,"ĠWe":233,"ment":234,"Ġsu":235,"ork":236,"Ġmodel":237,"arn":238,"ri":239,"Ġv":240,"ir":241,"Ġare":242,"Ġwh":243,"Ġthis":244,"ĠThe":245,"iz":246,"Ġlearn":247,"ess":248,"ab":249,"ain":250,"form":251,"Ġde":252,"ĠA":253,"Ġby":254,"se":255,"her":256,"tive":257,"pl":258,"Ġim":259,"ion":260,"Ġit":261,"Ġne":262,"uc":263,"um":264,"og":265,"ations":266,"ach":267,"ĠIn":268,"ren":269,"red":270,"Ġint":271,"Ġdat":272,"Ġsh":273,"work":274,"ms":275,"Ġcan":276,"Ġun":277,"pos":278,"tions":279,"ally":280,"ay":281,"Ġac":282,"ich":283,"Ġen":284,"vel":285,"Ġse":286,"gor":287,"ĠM":288,"Ġmet":289,"ore":290,"rom":291,"ist":292,"resent":293,"ure":294,"Ġlearning":295,"Ġwhich":296,"Ġres":297,"Ġappro":298,"ĠS":299,"Ġfrom":300,"Ġsy":301,"gorith":302,"Ġproble":303,"ect":304,"Ġalgorith":305,"ad":306,"Ġper":307,"ff":308,"ine":309,"Ġpropos":310,"Ġor":311,"ased":312,"Ġcl":313,"able":314,"hod":315,"Ġmethod":316,"Ġr":317,"Ġpa":318,"tim":319,"Ġsp":320,"ener":321,"Ġk":322,"fe":323,"ated":324,"Ġad":325,"ari":326,"oc":327,"di":328,"ance":329,"ant":330,"rain":331,"ous":332,"ĠC":333,"and":334,"stem":335,"Ġimp":336,"Ġgener":337,"ence":338,"igh":339,"feren":340,"Ġcont":341,"op":342,"etwork":343,"Ġdata":344,"Ġshow":345,"Ġat":346,"der":347,"Ġpar":348,"Ġsystem":349,"ĠĠĠĠ":350,"Ġch":351,"ĠĠĠĠĠ":352,"Ġpaper":353,"ag":354,"Ġev":355,"ers":356,"ass":357,"ical":358,"ies":359,"ĠD":360,"str":361,"Ġob":362,"Ġqu":363,"Ġnetwork":364,"ep":365,"ĠTh":366,"now":367,"ign":368,"ap":369,"all":370,"age":371,"ram":372,"ents":373,"Ġour":374,"ific":375,"Ġwhe":376,"ĠB":377,"ak":378,"Ġar":379,"âĢ":380,"Ġha":381,"Ġag":382,"ding":383,"abil":384,"ie":385,"Ġresul":386,"ell":387,"ĠO":388,"ting":389,"ask":390,"Ġrep":391,"Ġstr":392,"ĠF":393,"ĠP":394,"ide":395,"ard":396,"Ġco":397,"ten":398,"rib":399,"Ġproblem":400,"si":401,"Ġeff":402,"alu":403,"Ġsc":404,"Ġnot":405,"Ġset":406,"cess":407,"Ġhe":408,"Ġperform":409,"Ġop":410,"Ġdes":411,"ial":412,"ther":413,"Ġtask":414,"ĠR":415,"ĠThis":416,"Ġhave":417,"ĠH":418,"ple":419,"Ġsol":420,"Ġtr":421,"Ġknow":422,"Ġalgorithm":423,"Ġno":424,"ural":425,"Ġdif":426,"Ġdis":427,"Ġrec":428,"Ġapproach":429,"Ġpl":430,"arch":431,"Ġmodels":432,"est":433,"ech":434,"Ġall":435,"uct":436,"Ġsim":437,"ort":438,"Ġclass":439,"Ġsuch":440,"Ġinc":441,"ution":442,"ĠE":443,"ans":444,"enti":445,"Ġinter":446,"act":447,"Ġro":448,"oun":449,"Ġbet":450,"ug":451,"Ġrepresent":452,"led":453,"Ġdec":454,"Ġrel":455,"Ġhas":456,"Ġpresent":457,"Ġfe":458,"ud":459,"iv":460,"Ġvari":461,"Ġprov":462,"ph":463,"Ġcomput":464,"our":465,"Ġusing":466,"ĠL":467,"Ġcons":468,"Ġexpl":469,"Ġman":470,"lic":471,"Ġresults":472,"ual":473,"Ġbased":474,"ces":475,"ties":476,"ni":477,"Ġnew":478,"istic":479,"ision":480,"Ġab":481,"ization":482,"ex":483,"tain":484,"ative":485,"sion":486,"Ġem":487,"ulti":488,"Ġexper":489,"formation":490,"vi":491,"Ġoptim":492,"Ġpre":493,"Ġcomple":494,"end":495,"ction":496,"ures":497,"up":498,"Ġthese":499,"ang":500,"Ġtrain":501,"so":502,"Ġform":503,"ust":504,"wo":505,"ĠN":506,"Ġdifferen":507,"ack":508,"Ġwork":509,"ugh":510,"ome":511,"ves":512,"ledge":513,"Ġmo":514,"duc":515,"ici":516,"Ġover":517,"Ġtim":518,"ary":519,"Ġout":520,"out":521,"Ġfun":522,"Ġmulti":523,"Ġacc":524,"ati":525,"ability":526,"Ġme":527,"Ġtwo":528,"ill":529,"Ġy":530,"Ġuse":531,"Ġinformation":532,"Ġtheir":533,"Ġpropose":534,"ory":535,"ates":536,"ĠG":537,"Ġalso":538,"Ġmethods":539,"Ġmore":540,"Ġgra":541,"ong":542,"we":543,"hes":544,"Ġalgorithms":545,"Ġdisc":546,"Ġknowledge":547,"Ġproposed":548,"Ġdist":549,"Ġbeen":550,"ct":551,"ase":552,"aly":553,"Ġfram":554,"olog":555,"ular":556,"Ġperformance":557,"ating":558,"Ġused":559,"Ġunder":560,"ace":561,"Ġits":562,"ments":563,"redic":564,"Ġass":565,"Ġhum":566,"Ġframe":567,"Ġstate":568,"Ġtech":569,"of":570,"ors":571,"Ġhow":572,"olic":573,"ree":574,"Ġprocess":575,"Ġgeneral":576,"ds":577,"Ġpredic":578,"Ġtime":579,"Ġdem":580,"ving":581,"Ġframework":582,"Ġdifferent":583,"Ġanaly":584,"dition":585,"Ġproblems":586,"th":587,"onstr":588,"ween":589,"Ġbetween":590,"tical":591,"oth":592,"fic":593,"Ġdet":594,"based":595,"Ġreal":596,"Ġsystems":597,"ire":598,"ational":599,"Ġwas":600,"Ġone":601,"Ġnum":602,"Ġimpro":603,"'s":604,"ight":605,"Ġother":606,"omain":607,"Ġevalu":608,"Ġpr":609,"ber":610,"Ġsub":611,"Ġstruct":612,"aus":613,"Ġaut":614,"yp":615,"ue":616,"ely":617,"Ġapplic":618,"Ġprob":619,"are":620,"velop":621,"ext":622,"cep":623,"Ġbut":624,"Ġdemonstr":625,"uld":626,"ile":627,"aset":628,"ĠOur":629,"ever":630,"xim":631,"ame":632,"Ġcomplex":633,"Ġver":634,"Ġpos":635,"Ġfin":636,"Ġdevelop":637,"Ġdataset":638,"ize":639,"irst":640,"Ġdomain":641,"enc":642,"te":643,"Ġwell":644,"Ġinto":645,"Ġrob":646,"Ġhuman":647,"Ġnetworks":648,"Ġpo":649,"Ġprog":650,"ail":651,"ark":652,"Ġexperim":653,"Ġfeat":654,"ied":655,"Ġboth":656,"les":657,"ty":658,"Ġexp":659,"Ġwhen":660,"the":661,"Ġwhere":662,"Ġlar":663,"Ġcomm":664,"Ġneural":665,"ĠâĢ":666,"ful":667,"Ġgo":668,"Ġthan":669,"Ġlog":670,"put":671,"vers":672,"ĠâĢľ":673,"ip":674,"Ġdecision":675,"Ġeffici":676,"Ġgraph":677,").":678,"Ġhigh":679,"Ġobj":680,"Ġintro":681,"erv":682,"du":683,"Ġtasks":684,"art":685,"âĢĿ":686,"ress":687,"niqu":688,"Ġmak":689,"angu":690,"ason":691,"pec":692,"Ġtechniqu":693,"Ġpolic":694,"Ġsome":695,"ann":696,"ast":697,"Ġtrans":698,"iron":699,"ference":700,"ward":701,"Ġsign":702,"ized":703,"Ġsem":704,"Ġenv":705,"Ġdesc":706,"Ġdo":707,"strain":708,"Ġup":709,"),":710,"duce":711,"Ġrequ":712,"ld":713,"ik":714,"Ġcor":715,"Ġwor":716,"Ġreason":717,"Ġenviron":718,"Ġeach":719,"Ġdef":720,"Ġtraining":721,"tern":722,"antic":723,"Ġonly":724,"Ġnumber":725,"Ġlangu":726,"Ġdistrib":727,"Ġeffec":728,"rent":729,"Ġspec":730,"Ġdeep":731,"ification":732,"Ġfirst":733,"ha":734,"Ġcomb":735,"ven":736,"Ġexten":737,"Ġreg":738,"Ġstud":739,"Ġlarge":740,"ound":741,"Ġinte":742,"ently":743,"ages":744,"Ġsearch":745,"rol":746,"Ġtra":747,"Ġnon":748,"Ġcap":749,"Ġthey":750,"ertain":751,"Ġdesign":752,"Ġconstrain":753,"allen":754,"Ġexist":755,"chie":756,"ampl":757,"Ġind":758,"Ġmin":759,"Ġnovel":760,"achine":761,"Ġmany":762,"fer":763,"Ġachie":764,"Ġam":765,"tr":766,"Ġfunction":767,"ĠHow":768,"aches":769,"Ġgiv":770,"atic":771,"ise":772,"amet":773,"yn":774,"Ġsemantic":775,"Ġes":776,"force":777,"Ġagent":778,"ality":779,"vely":780,"til":781,"Ġchallen":782,"Ġthere":783,"Ġallow":784,"Ġaccur":785,"sis":786,"Ġher":787,"Ġagents":788,"Ġmat":789,"Ġapproaches":790,"por":791,"Ġrese":792,"ition":793,"forcement":794,"Ġpartic":795,"Ġvalu":796,"inforcement":797,"Ġprovide":798,"ential":799,"ency":800,"ĠHowever":801,"Ġ2":802,"Ġma":803,"ĠTo":804,"Ġso":805,"Ġ$":806,"Ġobs":807,"ive":808,"Ġpat":809,"Ġmost":810,"Ġcombin":811,"ics":812,"Ġbeha":813,"ou":814,"ens":815,"ness":816,"ose":817,"Ġlanguage":818,"Ġprovid":819,"ite":820,"Ġcontrol":821,"Ġstudy":822,"Ġorder":823,"Ġdemonstrate":824,"Ġhis":825,"Ġspace":826,"rough":827,"utions":828,"Ġnat":829,"Ġimport":830,"Ġany":831,"ĠU":832,"Ġabout":833,"Ġtyp":834,"ellig":835,"ynam":836,"Ġthem":837,"Ġbehavi":838,"Ġimprove":839,"erm":840,"acy":841,"ases":842,"ould":843,"ility":844,"ology":845,"urrent":846,"Ġrepresentation":847,"ved":848,"Ġmachine":849,"Ġplann":850,"Ġanalysis":851,"Ġobjec":852,"lu":853,"ted":854,"atis":855,"Ġcol":856,"lement":857,"ities":858,"Ġloc":859,"Ġsimul":860,"Ġgiven":861,"ier":862,"Ġthen":863,"Ġj":864,"Ġautom":865,"ider":866,"Ġsignific":867,"Ġproper":868,"get":869,"Ġbel":870,"su":871,"ditional":872,"Ġmay":873,"ateg":874,"Ġinst":875,"Ġben":876,"int":877,"vol":878,"ĠIt":879,"NN":880,"ib":881,"Ġid":882,"Ġ1":883,"Ġparamet":884,"Ġpossi":885,"Ġtechniques":886,"action":887,"Ġsignificant":888,"Ġfeatures":889,"ental":890,"Ġconcep":891,"Ġdynam":892,"Ġpolicy":893,"Ġstrateg":894,"--":895,"Ġsever":896,"Ġsequ":897,"Ġexisting":898,"Ġreinforcement":899,"Ġatt":900,"Ġway":901,"over":902,"pon":903,"Ġresearch":904,"ables":905,"Ġinference":906,"Ġstructure":907,"ection":908,"Ġseveral":909,"Ġreasoning":910,"urther":911,"chit":912,"Ġprobabil":913,"Ġlogic":914,"Ġwill":915,"ĠEx":916,"Ġconsider":917,"Ġadd":918,"Ġunc":919,"Ġincre":920,"Ġdescrib":921,"Ġgro":922,"Ġobserv":923,"Ġestim":924,"Ġapplications":925,"iew":926,"ctions":927,"Ġparticular":928,"Ġ\"":929,"Ġapproxim":930,"line":931,"Ġques":932,"Ġav":933,"elf":934,"Ġthrough":935,"chitect":936,"Ġmeas":937,"Ġidenti":938,"Ġoper":939,"ised":940,"Ġprogram":941,"sive":942,"Ġwhile":943,"oo":944,"ogni":945,"vious":946,"Ġbelie":947,"sw":948,"ian":949,"Ġimplement":950,"Ġarchitect":951,"Ġenvironment":952,"ared":953,"ros":954,"Ġcall":955,"low":956,"Ġbas":957,"Ġhad":958,"ike":959,"ric":960,"ances":961,"ges":962,"Ġhand":963,"Ġclassification":964,"Ġintellig":965,"ough":966,"Ġbetter":967,"hem":968,"Ġdire":969,"Ġsm":970,"Ġdi":971,"Ġexperiments":972,"ically":973,"iel":974,"ator":975,"Ġinput":976,"Ġoptimization":977,"ules":978,"Ġdatasets":979,"Ġintroduce":980,"als":981,"ob":982,"ced":983,"pre":984,"Ġvery":985,"Ġplanning":986,"fy":987,"Ġimportant":988,"Ġtheory":989,"anti":990,"its":991,"ower":992,"Ġph":993,"Ġsa":994,"Ġsele":995,"ia":996,"ix":997,"uring":998,"Ġdep":999,"ired":1000,"uil":1001,"und":1002,"ĠPro":1003,"Ġneed":1004,"Ġcontext":1005,"ayes":1006,"Ġwere":1007,"ub":1008,"king":1009,"Ġtak":1010,"Ġyou":1011,"ines":1012,"Ġadv":1013,"Ġrelations":1014,"to":1015,"Ġsupp":1016,"uch":1017,"ĠK":1018,"ample":1019,"Ġpri":1020,"amples":1021,"hed":1022,"Ġoptimal":1023,"ject":1024,"Ġchar":1025,"Ġobtain":1026,"stand":1027,"bed":1028,"Ġcaus":1029,".,":1030,"ĠAI":1031,"Ġdiscus":1032,"Ġtest":1033,"Ġbec":1034,"Ġmultiple":1035,"Ġvis":1036,"ilar":1037,"Ġlim":1038,"ficial":1039,"iter":1040,"ĠBayes":1041,"mark":1042,"Ġsuc":1043,"ingle":1044,"ond":1045,"Ġprevious":1046,"Ġefficient":1047,"Ġaddress":1048,"Ġaccuracy":1049,"ĠAn":1050,"ange":1051,"Ġenc":1052,"Ġequ":1053,"acter":1054,"Ġcomplexity":1055,"Ġrobot":1056,"abel":1057,"perv":1058,"Ġadap":1059,"tiv":1060,"ming":1061,"Ġformul":1062,"Ġmain":1063,"Ġansw":1064,"Ġwithout":1065,"ear":1066,"Ġsyn":1067,"Ġbuil":1068,"Ġdefin":1069,"ice":1070,"Ġgu":1071,"one":1072,"Ġuncertain":1073,"reat":1074,"hen":1075,"ging":1076,"tig":1077,"Ġlevel":1078,"Ġcharacter":1079,"anis":1080,"ocus":1081,"Ġcomputational":1082,"perform":1083,"Ġuser":1084,"Ġif":1085,"Ġconf":1086,"Ġoften":1087,"ĠV":1088,"par":1089,"arning":1090,"Ġprac":1091,"ons":1092,"ĠFor":1093,"ences":1094,"Ġsimple":1095,"Ġpossible":1096,"ef":1097,"Ġbelief":1098,"Ġfact":1099,"Ġcase":1100,"Ġfocus":1101,"tificial":1102,"Ġsolution":1103,"Ġsuccess":1104,"Ġsetting":1105,"wor":1106,"Ġsimilar":1107,"ension":1108,"Ġquer":1109,"Ġlimit":1110,"Ġter":1111,"Ġimage":1112,"Ġnatural":1113,"Ġdistribution":1114,"Ġhim":1115,"Ġscen":1116,"Ġmech":1117,"Ġconstr":1118,"Ġscal":1119,"gr":1120,"ross":1121,"Ġlocal":1122,"Ġconc":1123,"udi":1124,"izing":1125,"Ġprobabilistic":1126,"oy":1127,"Ġtheore":1128,"Ġminim":1129,"Ġproperties":1130,"Ġprediction":1131,"Ġstand":1132,"Ġformal":1133,"Ġfunctions":1134,"Ġunderstand":1135,"ey":1136,"rest":1137,"ĠBayesian":1138,"fore":1139,"ĠOn":1140,"Ġcommun":1141,"imension":1142,"epend":1143,"Ġoutperform":1144,"tively":1145,"Ġembed":1146,"Ġthree":1147,"com":1148,"Ġprobability":1149,"andom":1150,"Ġintroduc":1151,"ling":1152,"pir":1153,"Ġextr":1154,"ish":1155,"Ġgame":1156,"Ġdiscuss":1157,"Ġconstraints":1158,"Ġreward":1159,"Ġvarious":1160,"Ġrules":1161,"Ġevaluation":1162,"Ġcost":1163,"tial":1164,"Ġcurrent":1165,"Ġplay":1166,"Ġexplo":1167,"uster":1168,"ware":1169,"ected":1170,"Ġinterpre":1171,"rip":1172,"Ġsingle":1173,"Ġspecific":1174,"Ġbi":1175,"ĠQ":1176,"onom":1177,"Ġeven":1178,"Ġmem":1179,"Ġavail":1180,"Ġtext":1181,"Ġu":1182,"ety":1183,".âĢĿ":1184,"Ġdomains":1185,"Ġins":1186,"ci":1187,"Ġterms":1188,"Ġappl":1189,"vestig":1190,"chmark":1191,"pervised":1192,"Ġcalled":1193,"Ġmechanis":1194,"ule":1195,"Ġra":1196,"Ġbehavior":1197,"Ġable":1198,"Ġshe":1199,"Ġbest":1200,"ult":1201,"Ġinvestig":1202,"ĠAs":1203,"empor":1204,"ern":1205,"Ġallows":1206,"Ġinterest":1207,"Ġcontin":1208,"Ġrepresentations":1209,"Ġutil":1210,"Ġlat":1211,"00":1212,"Ġvalue":1213,"Ġfind":1214,"Ġvariables":1215,"Ġinf":1216,"Ġsets":1217,"Ġbenchmark":1218,"ry":1219,"Ġpattern":1220,"Ġsame":1221,"Ġanswer":1222,"Ġspe":1223,"zz":1224,"Ġcommon":1225,"not":1226,"luding":1227,"Ġaction":1228,"Ġlead":1229,"Ġcompar":1230,"Ġrecent":1231,"Ġcorre":1232,"Ġactions":1233,"uzz":1234,"Ġclassif":1235,"lying":1236,"Ġwhat":1237,"uristic":1238,"Ġconsist":1239,"Ġmake":1240,"Ġdirect":1241,"Ġstandard":1242,"ov":1243,"oci":1244,"Ġcould":1245,"Ġrandom":1246,"Ġatten":1247,"Ġvisual":1248,"ings":1249,"ĠCon":1250,"Ġassum":1251,"arget":1252,"Ġprovides":1253,"Ġarchitecture":1254,"ression":1255,"Ġcluster":1256,"Ġfeature":1257,"DP":1258,"Ġreduc":1259,"Ġarg":1260,"Ġpers":1261,"Ġrobust":1262,"ode":1263,"ĠAl":1264,"SP":1265,"Ġcr":1266,"Ġsec":1267,"Ġsolutions":1268,"Ġintegr":1269,"ermin":1270,"Ġpot":1271,"Ġtool":1272,"Ġavailable":1273,"Ġenti":1274,"Ġer":1275,"Ġcre":1276,"Ġline":1277,"ognition":1278,"ood":1279,"ily":1280,"Ġlabel":1281,"Ġtop":1282,"ĠMr":1283,"ount":1284,"Ġknown":1285,"world":1286,"Ġlong":1287,"Ġincluding":1288,"ource":1289,"Ġconcept":1290,"rams":1291,"ames":1292,"ind":1293,"uous":1294,"Ġrequire":1295,"Ġdiffic":1296,"ible":1297,"Ġsur":1298,"Ġintelligence":1299,"Ġapplication":1300,"Ġmaxim":1301,"ys":1302,"Ġ3":1303,"Ġtarget":1304,"orm":1305,"ploy":1306,"Ġautomatic":1307,"Ġembedding":1308,"Ġsmall":1309,"Ġwithin":1310,"RL":1311,"Ġevaluate":1312,"hip":1313,"ade":1314,"ually":1315,"Ġcompared":1316,"ured":1317,"ising":1318,"urn":1319,"Ġont":1320,"Ġrem":1321,"Ġworld":1322,"Ġdepend":1323,"Ġcolle":1324,"ribut":1325,"Ġstudi":1326,"Ġapplied":1327,"sing":1328,"ĠThese":1329,"emporal":1330,"idence":1331,"Ġtrained":1332,"eep":1333,"Ġpop":1334,"Ġerr":1335,"Ġgoal":1336,"Ġdetection":1337,"Ġinterpret":1338,"Ġconver":1339,"Ġimages":1340,"Ġinterac":1341,"Ġcomputation":1342,"Ġend":1343,"Ġder":1344,"av":1345,"Ġprior":1346,"Ġlearned":1347,"Ġquestion":1348,"Ġuncertainty":1349,"Ġparameters":1350,"ield":1351,"Ġmuch":1352,"mm":1353,"Ġsemantics":1354,"Ġindi":1355,"ĠFin":1356,"Ġfurther":1357,"Ġidentify":1358,"ax":1359,"Ġwould":1360,"Ġgood":1361,"ather":1362,"ks":1363,"level":1364,"icit":1365,"ĠExper":1366,"Ġaim":1367,"Ġresult":1368,"Ġempir":1369,"oint":1370,"Ġstep":1371,"Ġquanti":1372,"Ġmaking":1373,"Ġsolve":1374,"idual":1375,"Ġfac":1376,"Ġachieve":1377,"olution":1378,"ĠHe":1379,"Ġsignificantly":1380,"inal":1381,"Ġshould":1382,"Ġheuristic":1383,"ĠLe":1384,"lud":1385,"Ġsolving":1386,"omm":1387,"Ġrele":1388,"ified":1389,"Ġeffective":1390,"ner":1391,"Ġquality":1392,"time":1393,"uzzy":1394,"Ġser":1395,"Ġartificial":1396,"Ġmeasure":1397,"ierarch":1398,"Ġshown":1399,"Ġkey":1400,"Ġwho":1401,"pect":1402,"Ġattention":1403,"Ġful":1404,"Ġenvironments":1405,"Ġpower":1406,"Ġsatis":1407,"Ġbeing":1408,"Ġtechnique":1409,"ost":1410,"imin":1411,"Ġlinear":1412,"Ġgames":1413,"agn":1414,"lp":1415,"Ġcho":1416,"astic":1417,"Ġmodeling":1418,"Ġobjects":1419,"Ġprogramming":1420,"Ġever":1421,"ement":1422,"Ġusers":1423,"ĠRe":1424,"Ġanalyz":1425,"Ġpolicies":1426,"ulation":1427,"Ġsto":1428,"Ġobject":1429,"oft":1430,"Ġextend":1431,"Ġamong":1432,"Ġbl":1433,"Ġhelp":1434,"Ġindiv":1435,"Ġscenari":1436,"Ġlay":1437,"Ġagain":1438,"Ġide":1439,"ĠFinally":1440,"Ġsens":1441,"Ġret":1442,"ĠExperim":1443,"Ġdeveloped":1444,"Ġsug":1445,"Ġcapt":1446,"duct":1447,"Ġcompon":1448,"Ġconn":1449,"ĠWh":1450,"ators":1451,"Ġeng":1452,"rid":1453,"ocial":1454,"Ġindepend":1455,"ument":1456,"pro":1457,"Ġexplor":1458,"know":1459,"volution":1460,"Ġdynamic":1461,"Ġent":1462,"ately":1463,"veness":1464,"Ġcontinuous":1465,"Ġdue":1466,"Ġlike":1467,"ĠRec":1468,"Ġbound":1469,"uture":1470,"Ġback":1471,"Ġdescribe":1472,"ffici":1473,"air":1474,"way":1475,"Ġpotential":1476,"Ġgl":1477,"Ġstrategy":1478,"asing":1479,"Ġrev":1480,"Ġprom":1481,"ological":1482,"Ġrecognition":1483,"Ġsupport":1484,"Ġmean":1485,"arc":1486,"ature":1487,"Ġfound":1488,"Ġthose":1489,"Ġlow":1490,"01":1491,"Ġinvol":1492,"Ġgenerate":1493,"sc":1494,"alid":1495,"Ġchallenging":1496,"ense":1497,"Ġexamples":1498,"Ġschem":1499,"ets":1500,"Ġoff":1501,"Ġpath":1502,"Ġfuture":1503,"ices":1504,"ollow":1505,"erg":1506,"respon":1507,"raph":1508,"ify":1509,"Ġcoun":1510,"usion":1511,"Ġindividual":1512,"de":1513,"ialog":1514,"ause":1515,"Ġsize":1516,"Ġproduc":1517,"Ġview":1518,"Ġmust":1519,"ience":1520,"Ġuses":1521,"Ġhy":1522,"Ġopen":1523,"Ġuseful":1524,"Ġprograms":1525,"Ġmemory":1526,"Ġsoft":1527,"ources":1528,"Ġproced":1529,"Ġeas":1530,"wn":1531,"Ġhierarch":1532,"eti":1533,"ĠMark":1534,"aces":1535,"verage":1536,"Ġcertain":1537,"Ġstrong":1538,"Ġill":1539,"Ġhard":1540,"odes":1541,"ĠNetwork":1542,"Ġmy":1543,"Ġrespon":1544,"Ġcorrespon":1545,"lation":1546,"Ġtechn":1547,"ĠNe":1548,"Ġability":1549,"Ġefficiency":1550,"cc":1551,"Ġconstraint":1552,"Ġstrategies":1553,"Ġassoci":1554,"versari":1555,"ĠMore":1556,"Ġgraphs":1557,"ene":1558,"ights":1559,"Ġgreat":1560,"Ġexperimental":1561,"Ġcases":1562,"Ġgeneration":1563,"Ġfew":1564,"Ġoutperforms":1565,"Ġsocial":1566,"Ġi":1567,"Ġexploit":1568,"Ġdoes":1569,"Ġabstr":1570,"Ġtemporal":1571,"Ġduring":1572,"Ġrule":1573,"ST":1574,"chastic":1575,"Ġdevelopment":1576,"Ġgenerated":1577,"izes":1578,"Ġpresented":1579,"con":1580,"ral":1581,"Ġsit":1582,"sequ":1583,"vant":1584,"Ġfinding":1585,"ains":1586,"Ġcausal":1587,"Ġrelated":1588,"Ġsequence":1589,"Ġdialog":1590,"Ġaltern":1591,"Ġstatis":1592,"gre":1593,"Ġonline":1594,"ord":1595,"ists":1596,"Ġstates":1597,"ĠUn":1598,"ĠMarkov":1599,"Ġvalid":1600,"Ġrelationship":1601,"ĠFurther":1602,"Ġtypes":1603,"cted":1604,"Ġprin":1605,"known":1606,"ook":1607,"Ġfollow":1608,"ologies":1609,"tiveness":1610,"fter":1611,"Ġfuzzy":1612,"ane":1613,"ĠLearning":1614,"Ġbasel":1615,"Ġte":1616,"ĠRL":1617,"Ġvalues":1618,"Ġmade":1619,"Ġact":1620,"Ġsubs":1621,"Ġexample":1622,"Ġthus":1623,"Ġsent":1624,"Ġtree":1625,"Ġaddition":1626,"ink":1627,"ditions":1628,"Ġpart":1629,"Ġcompos":1630,"verse":1631,"pecific":1632,"Ġencod":1633,"onomous":1634,"Ġmed":1635,"Ġpatterns":1636,"versarial":1637,"Ġquery":1638,"Ġvia":1639,"Ġsynt":1640,"AT":1641,"Ġacross":1642,"Ġmechanism":1643,"ince":1644,"Ġupd":1645,"Ġselection":1646,"imensional":1647,"Ġoutput":1648,"Ġconcepts":1649,"Ġliter":1650,"oss":1651,"Ġcomputing":1652,"Ġunderstanding":1653,"Ġ$\\":1654,"till":1655,"Ġet":1656,"Ġobtained":1657,"Ġcommunic":1658,"ĠJ":1659,"Ġdescrip":1660,"dient":1661,"Ġincor":1662,"hic":1663,"ories":1664,"Ġele":1665,"Ġchallenges":1666,"Ġtransfer":1667,"Ġrun":1668,"Ġobjective":1669,"ears":1670,"ĠThere":1671,"Ġdiscover":1672,"ĠCom":1673,"ants":1674,"Ġpe":1675,"Ġpresents":1676,"Ġpredict":1677,"Ġsampl":1678,"Ġdri":1679,"Ġexplan":1680,"Ġtheoretical":1681,"Ġ\\":1682,"Ġprocessing":1683,"Ġpoint":1684,"Ġeffectiveness":1685,"Ġinstances":1686,"Ġorig":1687,"Ġextension":1688,"jec":1689,"Ġquestions":1690,"ived":1691,"ably":1692,"Ġparameter":1693,"ior":1694,"Ġsuccessful":1695,"rop":1696,"ires":1697,"Ġpub":1698,"emp":1699,"pag":1700,"Ġstochastic":1701,"Ġincreasing":1702,"Ġlimited":1703,"Ġself":1704,"Ġmis":1705,"Ġ-":1706,"Ġgroup":1707,"Ġsaid":1708,"Ġtoward":1709,"ecess":1710,"Ġconditions":1711,"Ġstill":1712,"Ġconstruc":1713,"Ġglob":1714,"ins":1715,"Ġinclud":1716,"ither":1717,"Ġcomputer":1718,"Ġdetermin":1719,"Ġhig":1720,"Ġexploration":1721,"Ġadvant":1722,"Ġloss":1723,"Ġtes":1724,"Ġevery":1725,"ger":1726,"Ġini":1727,"ick":1728,"ategor":1729,"other":1730,"val":1731,"Ġvect":1732,"supervised":1733,"ixed":1734,"gest":1735,"Ġchang":1736,"Ġed":1737,"ĠCh":1738,"Ġpres":1739,"Ġref":1740,"old":1741,"Ġrecomm":1742,"tivity":1743,"Ġiter":1744,"Net":1745,"tice":1746,"Ġerror":1747,"Ġuni":1748,"Ġprinci":1749,"Ġautonomous":1750,"Ġpractical":1751,"Ġsk":1752,"Ġguar":1753,"Ġsitu":1754,"ante":1755,"Ġcompeti":1756,"Ġemploy":1757,"Ġocc":1758,"Ġincorpor":1759,"rete":1760,"oid":1761,"Ġphys":1762,"Ġguarante":1763,"ison":1764,"Ġcri":1765,"Ġpair":1766,"Ġserv":1767,"Ġfield":1768,"Ġword":1769,"Ġchallenge":1770,"itive":1771,"Ġran":1772,"Ġevidence":1773,"Ġdoc":1774,"Ġdifficult":1775,"Ġcal":1776,"Ġillust":1777,"tics":1778,"Ġapproximation":1779,"row":1780,"ĠDeep":1781,"Ġassump":1782,"Ġclasses":1783,"Ġexplain":1784,"Ġsample":1785,"Ġsecond":1786,"uted":1787,"Ġcategor":1788,"Ġadapt":1789,"oring":1790,"Ġapply":1791,"ĠWhile":1792,"Ġrequires":1793,"Ġexec":1794,"Ġimpl":1795,"Ġvariety":1796,"Ġless":1797,"Ġattribut":1798,"Ġautomatically":1799,"Ġdirectly":1800,"Ġvide":1801,"tle":1802,"Ġstructures":1803,"Ġshows":1804,"Ġpost":1805,"AN":1806,"Ġsimulation":1807,"lo":1808,"anc":1809,"Ġexplicit":1810,"Ġprocesses":1811,"Ġclustering":1812,"ale":1813,"ron":1814,"Ġimplementation":1815,"Ġdynamics":1816,"Ġsatisf":1817,"Ġefficiently":1818,"Ġextract":1819,"gment":1820,"LP":1821,"Ġgive":1822,"gence":1823,",âĢĿ":1824,"Ġgeneralization":1825,"Ġtake":1826,"Ġagainst":1827,"atively":1828,"Ġdistributions":1829,"more":1830,"agent":1831,"Ġadversarial":1832,"aps":1833,"Ġcompare":1834,"Ġjoint":1835,"abl":1836,"Ġens":1837,"ife":1838,"Ġshort":1839,"like":1840,"Ġinvestigate":1841,"Ġaff":1842,"Ġliterature":1843,"Ġnecess":1844,"fficient":1845,"Ġglobal":1846,"Ġgradient":1847,"lex":1848,"Ġstudies":1849,"Ġscenarios":1850,"Ġresulting":1851,"Ġlatent":1852,"ove":1853,"Ġmon":1854,"Ġclassical":1855,"Ġbecause":1856,"Ġparti":1857,"Ġhumans":1858,"ints":1859,"order":1860,"ferences":1861,"Ġontology":1862,"Ġhigher":1863,"Ġwhether":1864,"Ġspar":1865,"ering":1866,"Ġpopular":1867,"Ġdefined":1868,"ĠMoreover":1869,"ching":1870,"Ġinflu":1871,"Ġcar":1872,"Ġprove":1873,"ox":1874,"Ġneg":1875,"Ġillustr":1876,"Ġfam":1877,"Ġrelevant":1878,"inary":1879,"Ġpur":1880,"Ġattack":1881,"gth":1882,"tional":1883,"Ġ201":1884,"ead":1885,"idered":1886,"Ġworks":1887,"Ġempirical":1888,"cl":1889,"NNs":1890,"ĠWith":1891,"Ġspeed":1892,"ially":1893,"Ġrange":1894,"Ġdetect":1895,"establ":1896,"Ġconditional":1897,"ingu":1898,"Ġfail":1899,"Ġsource":1900,"Ġrespect":1901,"Ġconsidered":1902,"Ġconstruct":1903,"eli":1904,"ival":1905,"pping":1906,"Ġrecently":1907,"agnos":1908,"Ġunderlying":1909,"hood":1910,"Ġfas":1911,"Ġevolution":1912,"ounds":1913,"Ġexperiment":1914,"Ġdecisions":1915,"Ġengine":1916,"alle":1917,"Ġyears":1918,"aking":1919,"Ġtraditional":1920,"Ġtype":1921,"ĠAd":1922,"Ġcomplete":1923,"Ġtowards":1924,"Ġsee":1925,"ions":1926,"gan":1927,"mb":1928,"Ġve":1929,"Ġsampling":1930,"pose":1931,"Ġinteraction":1932,"Ġwid":1933,"Ġhighly":1934,"Ġsuit":1935,"ĠAr":1936,"Ġdatab":1937,"Ġtri":1938,"Ġexact":1939,"Ġext":1940,"Ġhowever":1941,"ognitive":1942,"rary":1943,"ined":1944,"Ġthough":1945,"aging":1946,"Ġsimpl":1947,"ĠSt":1948,"Ġachieves":1949,"den":1950,"ffor":1951,"omet":1952,"volutional":1953,"Ġlik":1954,"stric":1955,"Ġrelation":1956,"dimensional":1957,"Ġversion":1958,"Ġdesigned":1959,"back":1960,"Ġlearns":1961,"ople":1962,"ĠFurthermore":1963,"Ġexplore":1964,"cul":1965,"itions":1966,"Ġassign":1967,"Ġmight":1968,"Ġnam":1969,"greg":1970,"Ġsamples":1971,"ished":1972,"allel":1973,"Ġpoly":1974,"Ġperson":1975,"Ġeither":1976,"Ġprot":1977,"ĠEn":1978,"Ġnodes":1979,"Ġregular":1980,"ibility":1981,"Ġcorrect":1982,"Ġmeans":1983,"Ġnumer":1984,"Ġsuggest":1985,"?âĢĿ":1986,"Ġmakes":1987,"Ġ--":1988,"round":1989,"Ġcoll":1990,"Ġqueries":1991,"Ġcent":1992,"Ġnotion":1993,"Ġapproximate":1994,"ording":1995,"Ġbefore":1996,"Ġartic":1997,"own":1998,"Ġintroduced":1999,"Ġproof":2000,"Ġyour":2001,"Ġinitial":2002,"odel":2003,"Ġbenef":2004,"Ġoriginal":2005,"pri":2006,"tives":2007,"Ġmar":2008,"abor":2009,"Ġcombination":2010,"cept":2011,"Ġdefine":2012,"ring":2013,"Ġsuper":2014,"Ġwords":2015,"Ġobserved":2016,"Ġel":2017,"Ġestabl":2018,"AR":2019,"ensi":2020,"jor":2021,"Ġsimilarity":2022,"uments":2023,"Ġexpected":2024,"Ġvehic":2025,"Ġown":2026,"Ġcomponents":2027,"Ġris":2028,"Ġspati":2029,"oper":2030,"read":2031,"Ġassess":2032,"Ġrequired":2033,"Ġspecial":2034,"Ġsoftware":2035,"med":2036,"requ":2037,"ansi":2038,"Ġaccount":2039,"itional":2040,"iers":2041,"Ġdev":2042,"pagation":2043,"Ġnorm":2044,"Ġhyp":2045,"AI":2046,"bit":2047,"Ġpeople":2048,"Ġhere":2049,"Ġdistributed":2050,"Ġchange":2051,"Ġannot":2052,"othes":2053,"Ġfeed":2054,"Ġafter":2055,"Ġcannot":2056,"Ġclos":2057,"ata":2058,"bility":2059,"less":2060,"Ġcontr":2061,"Ġprec":2062,"Ġmajor":2063,"MDP":2064,"Ġaccurate":2065,"Ġdeal":2066,"Ġintr":2067,"Ġfil":2068,"Ġexpert":2069,"ously":2070,"ĠBy":2071,"ĠMan":2072,"Ġinteractions":2073,"Ġrestric":2074,"entially":2075,"Ġmathem":2076,"Ġpublic":2077,"Ġinduc":2078,"Ġimprovement":2079,"Ġintelligent":2080,"ittle":2081,"Ġsettings":2082,"ields":2083,"Ġcriter":2084,"tically":2085,"ĠOne":2086,"Ġbase":2087,"Ġevent":2088,"Ġaggreg":2089,"sue":2090,"Ġequival":2091,"ream":2092,"ath":2093,"ĠAt":2094,"play":2095,"Ġobservations":2096,"Ġestimation":2097,"Ġconvergence":2098,"Ġanalyze":2099,"Ġrecommend":2100,"ĠY":2101,"Ġplan":2102,"Ġhierarchical":2103,"Ġopp":2104,"Ġautomated":2105,"Ġlower":2106,"Ġpass":2107,"Ġmeta":2108,"Ġcontain":2109,"tit":2110,"Ġflex":2111,"Ġbuilding":2112,"Ġtools":2113,"Ġprocedure":2114,"Ġrate":2115,"Ġdiscrete":2116,"pects":2117,"Ġscheme":2118,"Ġread":2119,"Ġtransi":2120,"Ġprovided":2121,"Ġstatistical":2122,"ighb":2123,"Ġdimension":2124,"ĠRes":2125,"Ġexpress":2126,"Ġcognitive":2127,"learning":2128,"Ġbounds":2129,"Ġparallel":2130,"Ġge":2131,"Ġupon":2132,"Ġevents":2133,"Ġindic":2134,"ism":2135,"pecially":2136,"Ġcondition":2137,"ĠNeural":2138,"ii":2139,"Ġcapture":2140,"Ġlook":2141,"ĠFirst":2142,"Ġdetail":2143,"Ġgenerative":2144,"Ġadditional":2145,"Ġcommunication":2146,"Ġinstance":2147,"Ġreduce":2148,"Ġcorresponding":2149,"vari":2150,"Ġweight":2151,"Ġrobots":2152,"Ġlittle":2153,"Ġbro":2154,"Ġtoo":2155,"Ġconduct":2156,"Ġachieved":2157,"Ġidea":2158,"scale":2159,"Ġdiagnos":2160,"iness":2161,"Ġtre":2162,"Ġsepar":2163,"Ġreview":2164,"pired":2165,"ffic":2166,"Ġacqu":2167,"ute":2168,"Ġexam":2169,"Ġrobo":2170,"Ġpredictions":2171,"sues":2172,"Ġarchitectures":2173,"Ġscale":2174,"Ġassociated":2175,"wise":2176,"Ġnature":2177,"ctive":2178,"Ġeffor":2179,"Ġvideo":2180,"Ġhypothes":2181,"Ġanother":2182,"Ġdistance":2183,"Ġmeasures":2184,"Ġmanner":2185,"Ġenables":2186,"Ġbuild":2187,"Ġdra":2188,"Ġyet":2189,"Ġimproved":2190,"Ġqual":2191,"ses":2192,"Ġutility":2193,"Ġmeaning":2194,"ne":2195,"Ġsupervised":2196,"Ġvariable":2197,"Ġmining":2198,"Ġlogical":2199,"Ġturn":2200,"though":2201,"Ġalternative":2202,"Ġcalcul":2203,"dam":2204,"Ġsince":2205,"self":2206,"ues":2207,"Ġmanip":2208,"come":2209,"encies":2210,"Ġavoid":2211,"Ġfixed":2212,"fication":2213,"AP":2214,"bers":2215,"ystem":2216,"Ġsequential":2217,"hing":2218,"Ġissues":2219,"Ġspaces":2220,"Ġreport":2221,"Ġseries":2222,"Ġwide":2223,"Ġinfer":2224,"Ġprobabilities":2225,"arly":2226,"omial":2227,"ope":2228,"Ġpoints":2229,"ems":2230,"ĠHere":2231,"Ġfundam":2232,"ways":2233,"Ġrole":2234,"Ġevaluated":2235,"ient":2236,"ning":2237,"Ġ4":2238,"Ġep":2239,"Ġaccess":2240,"Ġarbit":2241,"Ġeffectively":2242,"Ġbecome":2243,"ered":2244,"rimin":2245,"Ġsymb":2246,"ĠEl":2247,"pr":2248,"Ġfar":2249,"Ġbasic":2250,"Ġprof":2251,"Ġpreviously":2252,"Ġespecially":2253,"Ġchanges":2254,"Ġsumm":2255,"Ġrepresented":2256,"Ġrisk":2257,"Ġlanguages":2258,"Ġimplemented":2259,"Ġentities":2260,"Ġfully":2261,"Ġcontrib":2262,"Ġparad":2263,"agement":2264,"Ġtraject":2265,"gram":2266,"rit":2267,"valu":2268,"Ġaspects":2269,"Ġamount":2270,"antum":2271,"âĢĻ":2272,"Ġcode":2273,"Ġneighb":2274,"Ġrather":2275,"avig":2276,"Ġdeg":2277,"pective":2278,"Ġdialogue":2279,"Ġappropri":2280,"rics":2281,"Ġsegment":2282,"Ġprim":2283,"Ġtransform":2284,"Ġimproves":2285,"Ġtraffic":2286,"linear":2287,"Ġfair":2288,"Ġembeddings":2289,"Ġpromising":2290,"Ġ5":2291,"anced":2292,"Ġbaseline":2293,"brid":2294,"Ġissue":2295,"hers":2296,"Ġcomparison":2297,"off":2298,"Ġlo":2299,"Ġbehaviour":2300,"Ġsequences":2301,"ĠExperimental":2302,"atical":2303,"Ġtoget":2304,"Ġvision":2305,"abet":2306,"Ġtogether":2307,"nomial":2308,"ran":2309,"rix":2310,"Ġresources":2311,"Ġimportance":2312,"Ġcharacteristic":2313,"Ġvector":2314,"Ġweb":2315,"Ġfactor":2316,"hib":2317,"Ġdecom":2318,"Ġmechanisms":2319,"Ġfour":2320,"Ġnow":2321,"Ġpractice":2322,"rie":2323,"Ġwidely":2324,"Ġmark":2325,"Ġconvers":2326,"Ġgenerating":2327,"Ġgrow":2328,"Ġclassifier":2329,"Ġdown":2330,"Ġproduce":2331,"Ġpreferences":2332,"Ġweak":2333,"Ġunsupervised":2334,"man":2335,"Ġconvolutional":2336,"yc":2337,"Ġaccording":2338,"Ġrelationships":2339,"Ġnoise":2340,"ML":2341,"Ġcand":2342,"Ġenh":2343,"alth":2344,"Ġperformed":2345,"Ġsparse":2346,"Ġinfluence":2347,"Ġwhose":2348,"Ġtrack":2349,"free":2350,"me":2351,"urb":2352,"Ġmethodology":2353,"irc":2354,"Ġreli":2355,"Ġleads":2356,"Ġarticle":2357,"Ġnavig":2358,"Ġemo":2359,"fied":2360,"Ġ[":2361,"ĠWhen":2362,"ĠUsing":2363,"ergy":2364,"Ġche":2365,"idden":2366,"Ġdiscrimin":2367,"Ġhyper":2368,"plete":2369,"ĠThen":2370,"Ġconcern":2371,"Ġquantum":2372,"Ġcandid":2373,"ft":2374,"Ġfrequ":2375,"que":2376,"Ġpati":2377,"sh":2378,"Ġnecessary":2379,"jun":2380,"Ġcur":2381,"Ġextended":2382,"Ġ'":2383,"Ġattemp":2384,"ps":2385,"Ġfundamental":2386,"ock":2387,"Ġtypically":2388,"Ġlevels":2389,"Ġess":2390,"ĠNetworks":2391,"itation":2392,"Ġfilter":2393,"ĠSe":2394,"Ġcontent":2395,"Ġsynthes":2396,"igm":2397,"Ġdescription":2398,"Ġfamily":2399,"Ġlack":2400,"Ġstructured":2401,"xi":2402,"Ġfinite":2403,"Ġtranslation":2404,"Ġeffects":2405,"optim":2406,"Ġcompute":2407,"Ġpolynomial":2408,"Ġeffect":2409,"ĠInt":2410,"ĠExperiments":2411,"{\\":2412,"Ġcommunity":2413,"isation":2414,"Ġweights":2415,"ĠEliz":2416,"Ġfast":2417,"Ġphysical":2418,"Ġcritical":2419,"rehen":2420,"Ġproposes":2421,"Ġfull":2422,"Ġoccur":2423,"light":2424,"ret":2425,"ples":2426,"ĠBut":2427,"atch":2428,"Ġdifficul":2429,"alog":2430,"ĠWeb":2431,"actable":2432,"Ġcapable":2433,"Ġsaf":2434,"Ġspatial":2435,"ressive":2436,"Ġadop":2437,"abilities":2438,"AC":2439,"Ġlast":2440,"Ġface":2441,"Ġincom":2442,"Ġproviding":2443,"Ġlabels":2444,"Ġstudied":2445,"Ġpartial":2446,"Ġaims":2447,"Ġcle":2448,"Ġarea":2449,"thetic":2450,"Ġrewards":2451,"uning":2452,"Ġchoice":2453,"Ġmatrix":2454,"mmet":2455,"Ġqualit":2456,"Ġrece":2457,"uth":2458,"Ġresearc":2459,"Ġmetrics":2460,"Ġmotiv":2461,"Ġtimes":2462,"iss":2463,"Ġart":2464,"Ġargument":2465,"Ġtesting":2466,"Ġfaster":2467,"abeth":2468,"Ġalways":2469,"Ġimpact":2470,"Ġillustrate":2471,"tane":2472,"Ġground":2473,"Ġrobustness":2474,"Ġday":2475,"Ġcounter":2476,"ĠElizabeth":2477,"Ġseen":2478,"ĠDes":2479,"Ġfeedback":2480,"ĠLog":2481,"ĠOp":2482,"arm":2483,"Ġenable":2484,"ĠSpecific":2485,"ception":2486,"Ġexpression":2487,"Ġteam":2488,"Ġaverage":2489,"Ġappropriate":2490,"paramet":2491,"Ġindependent":2492,"ordin":2493,"Ġsuitable":2494,"Ġbasis":2495,"Ġalong":2496,"ilit":2497,"Ġcomprehen":2498,"Ġgraphical":2499,"Ġincrease":2500,"Ġderive":2501,"Ġcompetitive":2502,"Ġhybrid":2503,"Ġtrue":2504,"Ġunknown":2505,"Ġdatabase":2506,"atform":2507,"Ġabstract":2508,"Ġways":2509,"Ġsynthetic":2510,"ernel":2511,"Ġsentence":2512,"Ġproperty":2513,"Ġeasily":2514,"Ġpredictive":2515,"Ġcontroll":2516,"Ġskill":2517,"Ġdone":2518,"Ġexperience":2519,"Ġsimulated":2520,"ER":2521,"Ġdeterm":2522,"Ġretrie":2523,"igur":2524,"Ġattributes":2525,"ĠSpecifically":2526,"Ġbinary":2527,"Ġadaptive":2528,"Ġdecompos":2529,"olicy":2530,"Ġempirically":2531,"jective":2532,"Ġareas":2533,"Ġinteresting":2534,"Ġsources":2535,"Ġcross":2536,"ises":2537,"Ġenergy":2538,"Ġheuristics":2539,"Ġlayer":2540,"herent":2541,"odal":2542,"achines":2543,"ĠMon":2544,"Ġestimate":2545,"Ġsuccessfully":2546,"Ġusually":2547,"Ġadvantage":2548,"Ġconven":2549,"Ġmathematical":2550,"Ġhist":2551,"Ġsci":2552,"Ġobser":2553,"Ġdiverse":2554,"Ġsensor":2555,"Ġpast":2556,"ogene":2557,"ĠSuch":2558,"Ġplatform":2559,"Ġarbitrary":2560,"Ġbrain":2561,"Ġfactors":2562,"Ġalign":2563,"Ġsimultane":2564,"Ġreturn":2565,"Ġshowing":2566,"Ġguid":2567,"!âĢĿ":2568,"by":2569,"ender":2570,"Ġlife":2571,"Ġones":2572,"uction":2573,"Ġrecurrent":2574,"ded":2575,"Ġpropagation":2576,"Ġla":2577,"ĠSec":2578,"Ġgoals":2579,"Ġreduction":2580,"Ġexplanations":2581,"Ġassumptions":2582,"Ġ`":2583,"Ġinstead":2584,"ody":2585,"Ġconsequ":2586,"Ġdeploy":2587,"Ġmotion":2588,"Ġimprovements":2589,"Ġconsistency":2590,"Ġrepl":2591,"ustom":2592,"Ġmatching":2593,"Ġmetric":2594,"ĠModel":2595,"Ġoperators":2596,"Ġscience":2597,"Ġregression":2598,"DA":2599,"view":2600,"Ġstructural":2601,"Ġhidden":2602,"ude":2603,"tt":2604,"Ġ9":2605,"Ġfore":2606,"Ġleast":2607,"ogn":2608,"ugment":2609,"ĠThey":2610,"Ġsurve":2611,"oder":2612,"Ġrelational":2613,"Ġdiscovery":2614,"Ġdescribes":2615,"ĠArtificial":2616,"Ġprogress":2617,"Ġcomponent":2618,"Ġmedical":2619,"Ġinclude":2620,"Ġranking":2621,"vex":2622,"ĠNP":2623,"Ġcombined":2624,"Ġpowerful":2625,"Ms":2626,"ited":2627,"Ġintu":2628,"Ġtherefore":2629,"Ġoperations":2630,"Ġbenchmarks":2631,"Ġcharacteristics":2632,"ĠDec":2633,"ape":2634,"Ġcooper":2635,"Ġrepresenting":2636,"Ġmap":2637,"Ġallowing":2638,"exts":2639,"Ġothers":2640,"specific":2641,"ĠTr":2642,"Ġnever":2643,"Ġmarg":2644,"dri":2645,"pite":2646,"Ġbus":2647,"ultim":2648,"aussi":2649,"Ġextensive":2650,"Ġinputs":2651,"Ġanswering":2652,"Ġresponse":2653,"ropy":2654,"train":2655,"ĠMulti":2656,"ĠProgram":2657,"ĠIntellig":2658,"Ġreve":2659,"Ġkernel":2660,"Ġsubst":2661,"atorial":2662,"Ġmaintain":2663,"Ġconsistent":2664,"Ġgeomet":2665,"ults":2666,"Ġplans":2667,"Ġdescribed":2668,"Ġclassifiers":2669,"Ġargue":2670,"Ġhandle":2671,"Ġsafety":2672,"MC":2673,"rel":2674,"oms":2675,"onsist":2676,"Ġcirc":2677,"Ġfacilit":2678,"Ġinform":2679,"Ġhealth":2680,"tal":2681,"Ġsolvers":2682,"Ġbehaviors":2683,"Ġcollabor":2684,"ked":2685,"Ġvot":2686,"Ġconsists":2687,"Ġontologies":2688,"vent":2689,"Ġentity":2690,"otyp":2691,"Ġrelative":2692,"Ġintroduces":2693,"Ġresearchers":2694,"Ġlink":2695,"Ġcustom":2696,"ĠSystem":2697,"Ġcoordin":2698,"Ġtested":2699,"Ġaxi":2700,"Ġcentral":2701,"Ġdr":2702,"ĠGener":2703,"Ġconfigur":2704,"sible":2705,"xt":2706,"orts":2707,"Ġformulation":2708,"Ġmaximum":2709,"Ġsugges":2710,"Ġnormal":2711,"Ġfit":2712,"Ġcombining":2713,"Ġderived":2714,"Ġsituations":2715,"Ġqualitative":2716,"ĠSecond":2717,"Ġtreat":2718,"Ġsense":2719,"Ġpriv":2720,"Ġcontrast":2721,"cting":2722,"fact":2723,"izations":2724,"Ġsensi":2725,"Ġreach":2726,"Ġbecom":2727,"Ġdefinition":2728,"ength":2729,"Ġfeas":2730,"Ġcombines":2731,"ĠReinforcement":2732,"Ġtack":2733,"Ġscore":2734,"Ġexpon":2735,"Ġperforms":2736,"aring":2737,"making":2738,"Ġsw":2739,"iring":2740,"aussian":2741,"Ġperspective":2742,"PS":2743,"gl":2744,"onic":2745,"Ġgain":2746,"Ġsegmentation":2747,"Ġfollowing":2748,"Ġsubset":2749,"ave":2750,"ital":2751,"omen":2752,"Ġlever":2753,"Ġcruc":2754,"face":2755,"Ġmanagement":2756,"Ġcapabilities":2757,"Ġcreate":2758,"Ġinterpretation":2759,"Ġsteps":2760,"ĠIm":2761,"Ġapplying":2762,"Ġdemonstrated":2763,"Ġservice":2764,"Ġsubstanti":2765,"Ġlight":2766,"Ġdraw":2767,"Ġsched":2768,"Ġexhib":2769,"Ġdel":2770,"Ġextraction":2771,"pus":2772,"ensive":2773,"Ġstable":2774,"Ġnext":2775,"Ġneeds":2776,"ĠAlthough":2777,"task":2778,"Ġhaving":2779,"Ġbroad":2780,"Ġpurpose":2781,"elihood":2782,"Ġdriving":2783,"Ġmachines":2784,"Ġtakes":2785,"Ġgeneralize":2786,"Ġcombinatorial":2787,"Ġparticularly":2788,"urity":2789,"Ġoperator":2790,"Ġterm":2791,"tiz":2792,"Ġflow":2793,"ars":2794,"ĠBased":2795,"Ġexecution":2796,"wh":2797,"erior":2798,"ĠAut":2799,"Ġetc":2800,"Ġnamely":2801,")$":2802,"Ġcare":2803,"Ġdocument":2804,"Ġexplicitly":2805,"Ġrely":2806,"Ġnear":2807,"Ġexperts":2808,"Ġparadigm":2809,"ild":2810,"//":2811,"lusion":2812,"Ġ_":2813,"pped":2814,"ands":2815,"Ġintern":2816,"Ġestablish":2817,"://":2818,"Ġguarantees":2819,"Ġdetermine":2820,"acts":2821,"versity":2822,"Ġtrade":2823,"inguistic":2824,"medi":2825,"QA":2826,"Ġsolver":2827,"Ġemerg":2828,"Ġoverall":2829,"Ġcomputationally":2830,"Ġappear":2831,"Ġlayers":2832,"ĠX":2833,"Ġconnec":2834,"Ġsuperior":2835,"ĠProgramming":2836,"Ns":2837,"Ġ6":2838,"Ġrecogn":2839,"ĠRecent":2840,"most":2841,"Ġstream":2842,"struct":2843,"Ġbias":2844,"Ġindependence":2845,"ĠMany":2846,"Ġchec":2847,"go":2848,"}$":2849,"ots":2850,"Ġeasy":2851,"TS":2852,"port":2853,"Ġorgan":2854,"Ġkind":2855,"oph":2856,"Ġadaptation":2857,"ograph":2858,"Ġimproving":2859,"Ġsimultaneously":2860,"sy":2861,"Ġphen":2862,"Ġdid":2863,"Ġindust":2864,"ious":2865,"Ġnode":2866,"emble":2867,"Ġpartially":2868,"Ġscienti":2869,"Ġcrucial":2870,"Ġresource":2871,"Ġbuilt":2872,"Ġadvantages":2873,"Ġprinciple":2874,"ores":2875,"ention":2876,"isy":2877,"Ġsuff":2878,"Ġperforming":2879,"driven":2880,"Ġbaselines":2881,"Ġenough":2882,"Ġcollection":2883,"optimal":2884,"AS":2885,"ict":2886,"ceed":2887,"Ġevol":2888,"Ġdistin":2889,"Ġintegration":2890,"ĠTherefore":2891,"Ġrich":2892,"Ġjust":2893,"Ġsentences":2894,"Ġconstruction":2895,"Ġdegree":2896,"ored":2897,"Ġmove":2898,"ĠGaussian":2899,"Ġrequirements":2900,"Ġupdate":2901,"Ġnumerical":2902,"urally":2903,"Ġtechnology":2904,"Ġlimitations":2905,"Ġelements":2906,"Ġminimal":2907,"Ġpopulation":2908,"emic":2909,"Ġalgorithmic":2910,"ternal":2911,"Ġpairs":2912,"Ġ8":2913,"ĠASP":2914,"Ġactive":2915,"ĠMDP":2916,"Ġsubject":2917,"des":2918,"Ġassist":2919,"Ġgeneralized":2920,"Ġevolutionary":2921,"ĠLogic":2922,"Ġsay":2923,"DD":2924,"Ġtheories":2925,"Ġcore":2926,"Ġmess":2927,"ake":2928,"Ġencoding":2929,"Ġstren":2930,"Ġspeech":2931,"Ġremain":2932,"Ġsignal":2933,"ĠIntelligence":2934,"fect":2935,"Ġparts":2936,"Ġpreference":2937,"Ġparticip":2938,"Ġtopic":2939,"Ġerrors":2940,"Ġexplanation":2941,"ym":2942,"Ġcrow":2943,"ifying":2944,"OMDP":2945,"Ġconst":2946,"ĠSAT":2947,"Ġclose":2948,"Ġeffort":2949,"Ġz":2950,"reed":2951,"Ġobservation":2952,"Ġquantit":2953,"Ġitems":2954,"Ġlarger":2955,"versal":2956,"ero":2957,"Ġalloc":2958,"Ġwhole":2959,"Ġaugment":2960,"ditionally":2961,"Ġoffer":2962,"Ġfine":2963,"Ġmapping":2964,"Ġcriteria":2965,"Ġlinguistic":2966,"ependent":2967,"ground":2968,"Ġpositive":2969,"Ġestimates":2970,"Ġflexible":2971,"ogeneous":2972,"ters":2973,"Ġconflic":2974,"Ġrational":2975,"ĠThus":2976,"Ġnoisy":2977,"Ġplace":2978,"Ġitself":2979,"Ġcombine":2980,"Ġscenario":2981,"Ġgene":2982,"Ġrout":2983,"Ġcorpus":2984,"Ġ0":2985,"Ġfl":2986,"geb":2987,"Ġneur":2988,"ĠMiss":2989,"Ġhead":2990,"Ġsolved":2991,"iven":2992,"pectively":2993,"Ġformula":2994,"Ġnavigation":2995,"Ġclin":2996,"Ġdeveloping":2997,"Ġideas":2998,"STM":2999,"Ġimplicit":3000,"Ġschedul":3001,"une":3002,"Ġsymbolic":3003,"iability":3004,"Ġpropositional":3005,"Ġdiscussed":3006,"Ġbusiness":3007,"Ġmix":3008,"Ġsatisfy":3009,"Ġproject":3010,"active":3011,"Ġsemi":3012,"Ġpresence":3013,"Ġengineering":3014,"Ġdiagnosis":3015,"ĠMachine":3016,"Ġperception":3017,"Ġquick":3018,"Ġmor":3019,"Ġexternal":3020,"Ġshared":3021,"Ġhapp":3022,"ĠEm":3023,"Ġassumption":3024,"Ġdifficulty":3025,"Ġget":3026,"ides":3027,"term":3028,"Ġsymmet":3029,"Ġgenerally":3030,"Ġsignals":3031,"Ġplayers":3032,"Ġcontribution":3033,"Ġinstr":3034,"Ġtotal":3035,"Ġstat":3036,"Ġheter":3037,"Ġsystematic":3038,"Ġtruth":3039,"Ġtaken":3040,"Ġinspired":3041,"Ġsound":3042,"arily":3043,"Ġcour":3044,"comes":3045,"Ġvehicle":3046,"IS":3047,"rely":3048,"Ġproduct":3049,"Ġbenefits":3050,"lean":3051,"Ġlength":3052,"Ġrespectively":3053,"ĠProcess":3054,"Ġmonit":3055,"Ġtransition":3056,"Ġhtt":3057,"ault":3058,"otonic":3059,"net":3060,"Ġbre":3061,"Ġsufficient":3062,"Ġposterior":3063,"ĠMonte":3064,"ĠMost":3065,"Ġcollected":3066,"ok":3067,"Ġgr":3068,"Ġinteractive":3069,"big":3070,"Ġexpect":3071,"class":3072,"cal":3073,"atory":3074,"acity":3075,"ĠSim":3076,"Ġneeded":3077,"Ġmus":3078,"Ġlikelihood":3079,"Ġfields":3080,"ĠPar":3081,"---":3082,"Ġentropy":3083,"Ġessential":3084,"Ġred":3085,"Ġrest":3086,"Ġlogics":3087,"label":3088,"oding":3089,"Ġextre":3090,"Ġfairness":3091,"Ġmarket":3092,"Ġrealistic":3093,"Ġincrement":3094,"Ġscene":3095,"Ġincreasingly":3096,"Ġextracted":3097,"Ġattacks":3098,"Ġ7":3099,"Ġactivity":3100,"ibri":3101,"Ġconventional":3102,"pace":3103,"Ġband":3104,"riend":3105,"ouse":3106,"Ġreconstr":3107,"Ġremains":3108,"Ġtrees":3109,"Ġmodelling":3110,"ĠCl":3111,"Ġcover":3112,"Ġroad":3113,"Ġpoor":3114,"Ġsummar":3115,"Ġfree":3116,"ensity":3117,"Ġidentification":3118,"Ġrap":3119,"Ġtests":3120,"Ġsituation":3121,"ilibri":3122,"Ġderiv":3123,"rob":3124,"Ġvariant":3125,"Ġpredicting":3126,"Ġauth":3127,"Ġtaking":3128,"Ġformulas":3129,"erging":3130,"omin":3131,"Ġenab":3132,"ĠGiven":3133,"Ġ19":3134,"ĠShe":3135,"ĠSem":3136,"Ġoptimize":3137,"Ġcandidate":3138,"Ġcompact":3139,"irt":3140,"Ġcarri":3141,"Ġequivalent":3142,"Ġpert":3143,"Ġservices":3144,"Ġretrieval":3145,"Ġphenomen":3146,"aim":3147,"ining":3148,"Ġmodule":3149,"Ġvariants":3150,"Ġadvances":3151,"ements":3152,"Ġgeneric":3153,"Ġphase":3154,"mon":3155,"Ġbal":3156,"ster":3157,"Ġkin":3158,"Ġupper":3159,"Ġblack":3160,"Ġdeterministic":3161,"Ġcome":3162,"oolean":3163,"Ġbounded":3164,"ĠDecision":3165,"Ġgap":3166,"Ġpossib":3167,"Ġdocuments":3168,"Ġhypothesis":3169,"Ġshall":3170,"ĠCol":3171,"Ġidentifying":3172,"arge":3173,"Ġdesired":3174,"vities":3175,"ready":3176,"SAT":3177,"arlo":3178,"ĠDarc":3179,"Ġobjectives":3180,"Ġbeliefs":3181,"Ġrobotic":3182,"ĠDarcy":3183,"tivities":3184,"Ġcell":3185,"eler":3186,"Ġtransl":3187,"Ġinvolves":3188,"Ġmissing":3189,"Ġbenefit":3190,"ira":3191,"ending":3192,"ĠBen":3193,"box":3194,"day":3195,"Ġalready":3196,"ĠCP":3197,"Ġlabeled":3198,"ĠRecently":3199,"Ġpersonal":3200,"orry":3201,"Ġcommonly":3202,"Ġintegrated":3203,"Ġconstant":3204,"Ġmagn":3205,"iform":3206,"Ġimpos":3207,"Ġregret":3208,"Ġincludes":3209,"Ġrecommendation":3210,"Ġsurvey":3211,"Ġfra":3212,"Ġachieving":3213,"Ġinsights":3214,"Ġentail":3215,"Ġrapid":3216,"Ġforward":3217,"Ġresolution":3218,"times":3219,"Ġspecifically":3220,"Ġclassify":3221,"Ġpaths":3222,"Ġconsum":3223,"Ġmob":3224,"crip":3225,"Ġquite":3226,"Ġdirection":3227,"Ġanswers":3228,"Ġtheorem":3229,"Ġconceptual":3230,"Ġdependencies":3231,"Ġprocedures":3232,"Ġcomposition":3233,"actions":3234,"oost":3235,"Ġsecurity":3236,"Ġskills":3237,"itting":3238,"Ġleverage":3239,"Ġvary":3240,"Ġconsidering":3241,"Ġselect":3242,"Ġcontextual":3243,"Ġfocused":3244,"equ":3245,"gments":3246,"emb":3247,"Ġsoci":3248,"Ġdise":3249,"atives":3250,"hard":3251,"erial":3252,"Ġfinal":3253,"ĠComput":3254,"Ġscheduling":3255,"orting":3256,"Ġoutcomes":3257,"Ġnegative":3258,"ĠIf":3259,"Ġspect":3260,"Ġvalidate":3261,"Ġmobile":3262,"policy":3263,"yond":3264,"Ġbeyond":3265,"Ġtrust":3266,"Ġregions":3267,"Ġnaturally":3268,"Ġincomplete":3269,"$-":3270,"oot":3271,"Ġey":3272,"Ġlatter":3273,"Ġcorrel":3274,"Ġstrength":3275,"ided":3276,"ĠSP":3277,"ĠCNN":3278,"Ġacceler":3279,"Ġdiag":3280,"Ġinterpretable":3281,"Ġvehicles":3282,"Ġreveal":3283,"CA":3284,"ged":3285,"math":3286,"Ġfusion":3287,"Ġmut":3288,"Ġlet":3289,"Ġprinciples":3290,"pass":3291,"Ġthink":3292,"Ġlist":3293,"ended":3294,"Ġevaluating":3295,"Ġunique":3296,"Ġlikely":3297,"Ġconvex":3298,"Ġalmost":3299,"fort":3300,"ĠSh":3301,"Ġadj":3302,"Ġcomputed":3303,"Ġpossibility":3304,"Ġcategories":3305,"itude":3306,"Ġenhance":3307,"mis":3308,"Ġalgeb":3309,"ift":3310,"seen":3311,"yle":3312,"iting":3313,"ird":3314,"Ġovercome":3315,"Ġgives":3316,"Ġcause":3317,"Ġinvolving":3318,"Ġensemble":3319,"Ġexamine":3320,"Ġmanipulation":3321,"arding":3322,"Ġactivities":3323,"ĠSince":3324,"ĠDef":3325,"theore":3326,"Ġconducted":3327,"Ġhope":3328,"Ġforms":3329,"Ġabs":3330,"Ġvectors":3331,"sych":3332,"Ġdeli":3333,"Ġkeep":3334,"Ġincorporate":3335,"Ġtackle":3336,"Ġmaps":3337,"isting":3338,"ĠTrans":3339,"Ġequilibri":3340,"Ġgroups":3341,"ES":3342,"head":3343,"Ġabove":3344,"Ġclinical":3345,"irable":3346,"lier":3347,"Ġdig":3348,"Ġrefer":3349,"Ġrecur":3350,"annel":3351,"Ġplayer":3352,"Ġabstraction":3353,"set":3354,"Ġda":3355,"Ġdevices":3356,"MA":3357,"Ġexpressive":3358,"Ġdepth":3359,"Ġscalable":3360,"Ġextensions":3361,"Ġfav":3362,"Ġconfidence":3363,"Ġleading":3364,"Ġelect":3365,"Ġpartition":3366,"MT":3367,"Ġwal":3368,"Ġrelatively":3369,"Ġarguments":3370,"Ġindividuals":3371,"Ġweighted":3372,"cent":3373,"Ġside":3374,"Ġmass":3375,"anning":3376,"Ġbelieve":3377,"Ġbiological":3378,"Ġconnected":3379,"eness":3380,"Ġcam":3381,"ols":3382,"âĢĶ":3383,"Ġtractable":3384,"Ġinconsist":3385,"Ġjud":3386,"Ġminimum":3387,"OR":3388,"tif":3389,"Ġinherent":3390,"Ġcapacity":3391,"Ġrefle":3392,"ĠResults":3393,"tor":3394,"Ġfriend":3395,"Ġmultim":3396,"Ġcontains":3397,"Ġclusters":3398,"jects":3399,"Ġquantitative":3400,"Ġaway":3401,"Ġgenerates":3402,"Ġinterven":3403,"Ġelimin":3404,"Ġcontribut":3405,"Ġconnection":3406,"GAN":3407,"iable":3408,"pa":3409,"aries":3410,"Ġdistingu":3411,"Ġcapability":3412,"ĠAnd":3413,"Ġcosts":3414,"Ġsynthesis":3415,"pled":3416,"Ġrevision":3417,"Ġnamed":3418,"Ġargumentation":3419,"Ġcyc":3420,"Ġpose":3421,"Ġded":3422,"Ġbases":3423,"step":3424,"ili":3425,"ĠPl":3426,"Ġfunctional":3427,"Ġprototyp":3428,"ĠEngl":3429,"Ġtrajectories":3430,"app":3431,"cing":3432,"oud":3433,"Ġput":3434,"Ġmodal":3435,"Ġmodern":3436,"Ġrepresents":3437,"ĠLorry":3438,"Ġmind":3439,"Ġreduced":3440,"Ġexponential":3441,"Ġlin":3442,"ĠMC":3443,"Ġclaim":3444,"Ġdiversity":3445,"Ġanalog":3446,"Ġmal":3447,"sively":3448,"Ġcurrently":3449,"Ġcomparing":3450,"Ġmanipul":3451,"Ġloop":3452,"Ġinv":3453,"Ġbot":3454,"Ġwhy":3455,"Ġneu":3456,"Ġunseen":3457,"Ġformulate":3458,"Ġemotion":3459,"ortun":3460,"Ġ200":3461,"ĠKnow":3462,"Ġperturb":3463,"here":3464,"resh":3465,"Ġmodular":3466,"ĠPre":3467,"Ġdemand":3468,"Ġframeworks":3469,"fully":3470,"anguage":3471,"Ġjus":3472,"Ġselected":3473,"Ġguide":3474,"Ġresponses":3475,"Ġexploiting":3476,"Ġstart":3477,"Ġinfin":3478,"Ġdecl":3479,"Ġhardware":3480,"Ġcorrespond":3481,"Ġindicate":3482,"Ġrobotics":3483,"Ġneighbor":3484,"efficient":3485,"log":3486,"Ġwrit":3487,"acting":3488,"Ġtrajectory":3489,"Ġprivacy":3490,"theoretic":3491,"ery":3492,"Ġear":3493,"Ġsurpr":3494,"Ġaggregation":3495,"DS":3496,"text":3497,"Ġbig":3498,"use":3499,"Ġreducing":3500,"Ġposition":3501,"Ġregard":3502,"Ġuniversal":3503,"Ġheterogeneous":3504,"Ġbr":3505,"Ġrelax":3506,"Ġdiscussion":3507,"ĠMrs":3508,"Ġaffect":3509,"Ġprecision":3510,"Ġscientific":3511,"Ġec":3512,"ilities":3513,"Ġaccept":3514,"ĠData":3515,"ĠGo":3516,"Ġnonlinear":3517,"Ġhimself":3518,"Ġformalism":3519,"Ġactual":3520,"Ġinternal":3521,"ĠSemantic":3522,"Ġstatic":3523,"Ġdifference":3524,"ĠGP":3525,"Ġapplicable":3526,"Ġ10":3527,"Ġsmart":3528,"Ġscalability":3529,"Ġjointly":3530,"Ġpatient":3531,"Ġaround":3532,"Ġthought":3533,"Ġfacilitate":3534,"dec":3535,"iec":3536,"Ġnor":3537,"istemic":3538,"ĠCarlo":3539,"Ġauto":3540,"Ġfocuses":3541,"Ġreduces":3542,"Ġcriterion":3543,"eed":3544,"Ġpsych":3545,"Ġintroducing":3546,"ancy":3547,"Ġregularization":3548,"Ġbecomes":3549,"Ġeth":3550,"Ġgrid":3551,"Ġattr":3552,"aged":3553,"Ġdefinitions":3554,"Ġattribute":3555,"Ġquickly":3556,"ime":3557,"Ġsuperv":3558,"Ġscores":3559,"Ġcomplement":3560,"Ġyield":3561,"Ġincreases":3562,"Ġcontroller":3563,"Ġregion":3564,"insic":3565,"Ġimplic":3566,"Ġtracking":3567,"ĠDespite":3568,"rence":3569,"Ġsimulations":3570,"mit":3571,"Ġcompet":3572,"ĠStr":3573,"Ġrequiring":3574,"Ġpotentially":3575,"\",":3576,"Ġple":3577,"Ġlib":3578,"Ġcloud":3579,"Ġyields":3580,"Ġexistence":3581,"Ġtechnologies":3582,"Ġrestricted":3583,"oriz":3584,"Ġunified":3585,"Ġnotions":3586,"Ġplanner":3587,"Ġproduced":3588,"Ġdecomposition":3589,"Ġreference":3590,"Ġvirt":3591,"Ġexpressed":3592,"ĠKnowledge":3593,"Ġwin":3594,"Ġfive":3595,"Ġaddresses":3596,"ĠAnsw":3597,"ma":3598,"Ġ{\\":3599,"ries":3600,"Ġconstrained":3601,"Ġopportun":3602,"Ġcomprehensive":3603,"DL":3604,"tices":3605,"ounts":3606,"Ġverification":3607,"Ġoffers":3608,"Ġgrowing":3609,"Ġzero":3610,"ches":3611,"point":3612,"Ġtax":3613,"ank":3614,"Ġrepe":3615,"ixel":3616,"Ġfindings":3617,"'t":3618,"DF":3619,"MM":3620,"Ġanom":3621,"Ġtechnical":3622,"ĠAdditionally":3623,"Ġmagnitude":3624,"CO":3625,"actic":3626,"ĠExisting":3627,"Ġemployed":3628,"Ġobserve":3629,"Ġhttps":3630,"ĠML":3631,"junctive":3632,"ser":3633,"Ġresol":3634,"arities":3635,"Ġdecre":3636,"Ġrelies":3637,"Ġdemonstrates":3638,"Ġsensors":3639,"ĠComp":3640,"Ġpreser":3641,"ĠOptim":3642,"201":3643,"son":3644,"ton":3645,"iding":3646,"empl":3647,"Ġuniform":3648,"Ġextends":3649,"Ġobservable":3650,"Ġcomparable":3651,"Ġmonitoring":3652,"vance":3653,"unding":3654,"Ġopin":3655,"Ġtry":3656,"Ġmatch":3657,"Ġconclud":3658,"Ġmixt":3659,"Ġrough":3660,"onomy":3661,"Ġconstructed":3662,"Ġreceived":3663,"Ġkinds":3664,"RI":3665,"ĠGraph":3666,"Ġexpensive":3667,"efined":3668,"Ġsmaller":3669,"Ġproduces":3670,"Ġdistinct":3671,"10":3672,"entral":3673,"ifferen":3674,"ĠMet":3675,"dire":3676,"Ġdemonstrations":3677,"Ġconfir":3678,"process":3679,"Ġassignment":3680,"Ġequivalence":3681,"Ġbeh":3682,"Ġcontexts":3683,"Ġvariance":3684,"Ġguarantee":3685,"Ġign":3686,"Ġsis":3687,"ĠAfter":3688,"ĠSome":3689,"Ġspecification":3690,"Ġdesigning":3691,"tex":3692,"Ġtend":3693,"Ġfather":3694,"Ġexc":3695,"Ġevaluations":3696,"Ġconfiguration":3697,"etermin":3698,"ĠBoolean":3699,"Ġinterface":3700,"Ġaccurately":3701,"Ġlocation":3702,"au":3703,"gener":3704,"Ġoutcome":3705,"Ġhighlight":3706,"Ġmembers":3707,"Ġdirected":3708,"Ġdepends":3709,"Ġbackground":3710,"Ġprotoc":3711,"Ġforec":3712,"mediate":3713,"rac":3714,"orient":3715,"Ġmom":3716,"Ġmill":3717,"ramm":3718,"Ġrecover":3719,"Ġdifferences":3720,"000":3721,"Ġassume":3722,"Ġmaximize":3723,"Ġtreatment":3724,"ĠBennet":3725,"Ġshare":3726,"Ġvariational":3727,"Ġtransformation":3728,"Ġsoon":3729,"Ġdescriptions":3730,"trained":3731,"Ġalgebra":3732,"ĠEnglish":3733,"itiz":3734,"Ġpure":3735,"Ġalignment":3736,"BP":3737,"Ġdensity":3738,"Ġoutputs":3739,"ooth":3740,"Ġright":3741,"Ġnothing":3742,"ĠProble":3743,"Ġinterpretability":3744,"Ġschemes":3745,"Ġbody":3746,"Ġstar":3747,"Ġdeb":3748,"ĠDL":3749,"Ġidentified":3750,"ĠAlgorith":3751,"Ġhierarchy":3752,"ash":3753,"asting":3754,"ĠTra":3755,"otor":3756,"Ġdirections":3757,"Ġencour":3758,"Ġupdates":3759,"ĠSp":3760,"forward":3761,"uman":3762,"Ġshape":3763,"utter":3764,"Ġstra":3765,"Ġtypical":3766,"Ġedges":3767,"Ġattempt":3768,"Gs":3769,"Ġtermin":3770,"Ġcompil":3771,"oriented":3772,"ination":3773,"Ġsenti":3774,"Ġwind":3775,"Ġloo":3776,"Ġmodeled":3777,"Ġactiv":3778,"Ġinvestigated":3779,"Ġmeaningful":3780,"Ġreliable":3781,"IM":3782,"Ġearly":3783,"Ġhol":3784,"Ġexists":3785,"Ġbeg":3786,"umer":3787,"ĠGAN":3788,"Ġoperation":3789,"Ġconclusion":3790,"Ġfacts":3791,"Ġgeometric":3792,"emph":3793,"chron":3794,"ĠApp":3795,"ensor":3796,"Ġorders":3797,"Ġlaw":3798,"Ġaxiom":3799,"Ġenabling":3800,"DE":3801,"lay":3802,"Ġslow":3803,"alse":3804,"Ġraw":3805,"Ġexperimentally":3806,"Ġpip":3807,"Ġinvari":3808,"Ġlif":3809,"osen":3810,"Ġseem":3811,"ĠBingle":3812,"Ġgenetic":3813,"AM":3814,"io":3815,"Ġstage":3816,"Ġencoder":3817,"Ġdatabases":3818,"Ġdetailed":3819,"Ġcompan":3820,"Ġyoun":3821,"Ġaddressed":3822,"Ġmainly":3823,"ĠAll":3824,"Ġcreated":3825,"Ġiteration":3826,"structured":3827,"CT":3828,"ulated":3829,"Ġland":3830,"Ġchannel":3831,"Ġoptimized":3832,"Ġaccom":3833,"Ġiterative":3834,"Ġpatients":3835,"shot":3836,"ĠSearch":3837,"Ġonce":3838,"ĠMAP":3839,"Ġchoose":3840,"Ġsatisfaction":3841,"Ġestablished":3842,"alled":3843,"Ġconsideration":3844,"iminary":3845,"reedy":3846,"monotonic":3847,"ĠBingley":3848,"writ":3849,"Ġsal":3850,"Ġsharing":3851,"Ġchain":3852,"graph":3853,"ĠTheory":3854,"Ġexperi":3855,"Ġcorrelation":3856,"valued":3857,"mod":3858,"Ġdual":3859,"Ġaspect":3860,"Ġvol":3861,"ighting":3862,"ours":3863,"Ġrank":3864,"ancing":3865,"Ġsuggests":3866,"ĠDefarge":3867,"iod":3868,"Ġspecified":3869,"Ġconstructing":3870,"Ġclosed":3871,"Ġdimensions":3872,"NF":3873,"QN":3874,"Ġir":3875,"Ġwr":3876,"Ġfr":3877,"Ġlex":3878,"Ġunits":3879,"Ġadding":3880,"tered":3881,"Ġrunning":3882,"CP":3883,"ze":3884,"Ġtable":3885,"ĠIntern":3886,"Ġperfect":3887,"Ġdesirable":3888,"Ġdescent":3889,"Ġhandling":3890,"Ġchoices":3891,"empster":3892,"Ġhistory":3893,"Ġfeasible":3894,"Ġaudi":3895,"Ġspeak":3896,"Ġentire":3897,"Ġanalyzing":3898,"Ġincorporating":3899,"Ġassessment":3900,"Ġefforts":3901,"rup":3902,"Ġexch":3903,"Ġnumbers":3904,"Ġregarding":3905,"ĠJane":3906,"Ġmultimodal":3907,"ration":3908,"inc":3909,"amb":3910,"Ġrates":3911,"Ġdifferenti":3912,"Ġtransport":3913,"Ġblock":3914,"ĠUnlike":3915,"Ġsuffer":3916,"Ġallocation":3917,"rec":3918,"Ġpiec":3919,"Ġpixel":3920,"Ġscales":3921,"ĠQu":3922,"Ġinsight":3923,"Ġensure":3924,"Ġconnections":3925,"Ġbehind":3926,"IF":3927,"LE":3928,"Ġair":3929,"Ġsl":3930,"Ġold":3931,"Ġcard":3932,"ithub":3933,"ritic":3934,"ĠLSTM":3935,"Ġcharacterize":3936,"Ġclear":3937,"Ġextrem":3938,"eline":3939,"used":3940,"Ġshowed":3941,"Ġapplicability":3942,"atics":3943,"Ġjusti":3944,"aware":3945,"Ġimm":3946,"ĠDempster":3947,"Ġdynamically":3948,"Ġadded":3949,"Ġselecting":3950,"Ġintuitive":3951,"IC":3952,"nce":3953,"vial":3954,"Ġpay":3955,"rief":3956,"Ġplaus":3957,"Ġedge":3958,"Ġfiltering":3959,"Ġexpressions":3960,"roid":3961,"tensive":3962,"hafer":3963,"Ġapproximations":3964,"Ġpol":3965,"ilon":3966,"Ġhence":3967,"Ġconversation":3968,"erc":3969,"ief":3970,"ĠEach":3971,"Ġtravel":3972,"Ġpubl":3973,"Ġlooked":3974,"Ġmarginal":3975,"gent":3976,"Ġport":3977,"Ġfeel":3978,"Ġstudent":3979,"atically":3980,"Ġinvolve":3981,"ĠUnder":3982,"orizon":3983,"ption":3984,"Ġremark":3985,"ĠDe":3986,"Ġfash":3987,"Ġepistemic":3988,"elves":3989,"ĠPOMDP":3990,"Ġsafe":3991,"Ġflexibility":3992,"Ġcollaborative":3993,"WL":3994,"dependent":3995,"rad":3996,"Ġgenerator":3997,"Ġchosen":3998,"orth":3999,"Ġindeed":4000,"Ġadvanced":4001,"Ġhelps":4002,"Ġredund":4003,"Ġdeclar":4004,"SA":4005,"vity":4006,"Ġthous":4007,"Ġperiod":4008,"Ġemb":4009,"Ġambig":4010,"Ġcombinations":4011,"Ġordering":4012,"Ġcreating":4013,"dered":4014,"isc":4015,"Ġwant":4016,"Ġcomplic":4017,"Ġcompletion":4018,"ounded":4019,"sequently":4020,"Ġneurons":4021,"Ġsentiment":4022,"Ġdomin":4023,"Ġgen":4024,"Ġmodified":4025,"Ġcompression":4026,"Ġmusic":4027,"Ġdistinguish":4028,"wid":4029,"Ġmic":4030,"ĠLanguage":4031,"Ġmaterial":4032,"objective":4033,"Ġfalse":4034,"Ġthresh":4035,"ĠTwo":4036,"Ġestimated":4037,"Ġtextual":4038,"Ġpublicly":4039,"ĠYou":4040,"Ġexhibit":4041,"Ġcamer":4042,"Ġforget":4043,"Ġgramm":4044,"rap":4045,"osing":4046,"Ġlearner":4047,"Ġimitation":4048,"Ġuns":4049,"Ġcou":4050,"Ġinterval":4051,"Ġquantify":4052,"Ġanalyzed":4053,"Ġalternatives":4054,"Ġvalidation":4055,"Ġvarying":4056,"Ġfashion":4057,"CNN":4058,"ched":4059,"Ġdecentral":4060,"Ġproved":4061,"Ġinvolved":4062,"Ġbott":4063,"Ġmixture":4064,"github":4065,"unction":4066,"Ġmodules":4067,"Ġusage":4068,"Ġworst":4069,"Ġcalculus":4070,"Ġvoting":4071,"NI":4072,"edia":4073,"Ġboost":4074,"acking":4075,"Ġencode":4076,"Ġintrinsic":4077,"Ġcarried":4078,"$,":4079,"domain":4080,"ĠZ":4081,"ects":4082,"ĠBoth":4083,"Ġcomplet":4084,"Ġestimating":4085,"Ġdetermined":4086,"Ġsubstantially":4087,"Ġinfinite":4088,"\".":4089,"Ġbrief":4090,"ĠMo":4091,"Ġroom":4092,"Ġstatistics":4093,"Ġsyntactic":4094,"Ġeduc":4095,"Ġcontributions":4096,"alf":4097,"ray":4098,"Ġproven":4099,"Ġherself":4100,"Ġsmooth":4101,"Ġrelevance":4102,"Ġspars":4103,"Ġsupervision":4104,"QL":4105,"rect":4106,"Ġstability":4107,"ession":4108,"uctions":4109,"iving":4110,"Ġprevent":4111,"Ġinstanti":4112,"Ġsupports":4113,"Ġdefining":4114,"Ġincremental":4115,"Ġneighborhood":4116,"PI":4117,"Ġleg":4118,"Ġunit":4119,"Ġvariations":4120,"Ġreasonable":4121,"Ġexploits":4122,"overed":4123,"Ġfailure":4124,"Ġparticipants":4125,"Ġsus":4126,"Ġleft":4127,"Ġdear":4128,"ady":4129,"anging":4130,"Ġstudents":4131,"Ġcompetition":4132,"Ġchecking":4133,"As":4134,"ASP":4135,"\\%":4136,"ares":4137,"oard":4138,"Ġinn":4139,"Ġbox":4140,"utes":4141,"Ġsum":4142,"Ġcharacterization":4143,"Ġminimize":4144,"parameter":4145,"width":4146,"Ġgreedy":4147,"ĠCurrent":4148,"Ġconsisting":4149,"Ġcategory":4150,"Ġmessage":4151,"CS":4152,"cer":4153,"silon":4154,"ote":4155,"Ġreasons":4156,"Ġincreased":4157,"Ġcompositional":4158,"Ġintractable":4159,"junction":4160,"Ġdimensional":4161,"Ġnar":4162,"Ġhold":4163,"Ġstyle":4164,"Ġinteract":4165,"Ġconstit":4166,"Ġintegrate":4167,"Ġdependency":4168,"Ġruntime":4169,"jection":4170,"ater":4171,"Ġren":4172,"Ġitem":4173,"ĠInst":4174,"Ġrig":4175,"Ġchild":4176,"Ġprel":4177,"thing":4178,"ĠProb":4179,"Ġrecommendations":4180,"Ġextremely":4181,"zation":4182,"ĠRob":4183,"Ġplaying":4184,"Ġhypotheses":4185,"Ġequilibrium":4186,"hat":4187,"ulate":4188,"Ġthereby":4189,"Ġadvance":4190,"Ġcomposed":4191,"Ġchanging":4192,"Ġdetecting":4193,"fortun":4194,"TP":4195,"ham":4196,"Ġpen":4197,"Ġmixed":4198,"Ġimper":4199,"berg":4200,"complete":4201,"Ġviews":4202,"Ġsuggested":4203,"Ġannotation":4204,"Ġcourse":4205,"Ġdeliver":4206,"AD":4207,"osed":4208,"ĠInter":4209,"ĠSu":4210,"feas":4211,"Ġcaptures":4212,"Ġphysics":4213,"Ġvirtual":4214,"iol":4215,"aling":4216,"Ġfa":4217,"Ġname":4218,"Ġreported":4219,"Ġdelay":4220,"Ġrepeated":4221,"case":4222,"Ġelement":4223,"Ġoverview":4224,"Ġindex":4225,"Ġrati":4226,"Ġtopics":4227,"Ġmeasurements":4228,"Ġexactly":4229,"Ġcontaining":4230,"Ġattempts":4231,"Ġmargin":4232,"Ġcompletely":4233,"Ġpreliminary":4234,"$.":4235,"OM":4236,"called":4237,"uge":4238,"esides":4239,"iction":4240,"acle":4241,"apter":4242,"Ġprefer":4243,"Ġprison":4244,"Ġconsiderable":4245,"Ġinductive":4246,"Ġleveraging":4247,"bal":4248,"ll":4249,"Ġtal":4250,"Ġbid":4251,"Ġalone":4252,"ĠDNN":4253,"pha":4254,"Ġserve":4255,"TL":4256,"isition":4257,"sts":4258,"ull":4259,"ulations":4260,"rial":4261,"ders":4262,"Ġrepresentative":4263,"Ġsometimes":4264,"Ġdescribing":4265,"Ġexplored":4266,"ĠQA":4267,"Ġcooperative":4268,"Ġcircum":4269,"ĠEmpir":4270,"Ġlinks":4271,"SS":4272,"VM":4273,"Ġdiv":4274,"asp":4275,"Ġviol":4276,"aching":4277,"Ġpapers":4278,"ĠDoc":4279,"Ġcauses":4280,"PC":4281,"serv":4282,"Ġcred":4283,"Ġhouse":4284,"ĠSet":4285,"Ġpruning":4286,"Ġactor":4287,"ronic":4288,"Ġsimpler":4289,"factual":4290,"ĠPrevious":4291,"Ġimplications":4292,"oice":4293,"isons":4294,"Ġbrid":4295,"Ġproposal":4296,"Ġpredicted":4297,"Ġimplementations":4298,"ĠConstrain":4299,"Ġsatisfiability":4300,"Ġdisease":4301,"PO":4302,"part":4303,"uit":4304,"Ġsat":4305,"Ġbring":4306,"iders":4307,"ĠFrom":4308,"Ġclassic":4309,"Ġmanually":4310,"Ġoptimizing":4311,"Ġeyes":4312,"directed":4313,"Ġsister":4314,"Ġmoment":4315,"Ġyoung":4316,"teness":4317,"ĠProblem":4318,"Ġdeclarative":4319,"trol":4320,"Ġcame":4321,"isms":4322,"ationary":4323,"Ġuntil":4324,"Ġnews":4325,"Ġbelong":4326,"cious":4327,"Ġvideos":4328,"Ġconversational":4329,"ux":4330,"ingly":4331,"stood":4332,"ĠMa":4333,"Ġembedded":4334,"ĠWhat":4335,"Ġprecise":4336,"Ġinduced":4337,"Ġconflict":4338,"Ġrouting":4339,"Ġconclude":4340,"ply":4341,"Ġutter":4342,"inking":4343,"Ġpred":4344,"aced":4345,"uck":4346,"Ġarise":4347,"arest":4348,"Ġdiscusses":4349,"Ġutilize":4350,"Ġdetermining":4351,"Ġannotated":4352,"Ġseparate":4353,"new":4354,"ĠSystems":4355,"Ġcoordination":4356,"In":4357,"plic":4358,"Ġformer":4359,"Ġdemonstration":4360,"Ġconsistently":4361,"Ġgreater":4362,"Ġcandidates":4363,"Ġfeasibility":4364,"The":4365,"Ġfall":4366,"aster":4367,"ĠIns":4368,"ifications":4369,"Ġgover":4370,"ips":4371,"LM":4372,"Ġtuning":4373,"Ġnight":4374,"ĠSever":4375,"Ġoptions":4376,"Ġoptimality":4377,"Ġphr":4378,"Ġassociation":4379,"Ġacquisition":4380,"ĠGeneral":4381,"processing":4382,"feasible":4383,"cts":4384,"Ġsix":4385,"Ġmention":4386,"Ġclaus":4387,"udget":4388,"Ġdefault":4389,"Ġminimizing":4390,"Ġdeployed":4391,"Ġaxioms":4392,"OL":4393,"ney":4394,"oor":4395,"ool":4396,"inter":4397,"tention":4398,"Ġidentif":4399,"Ġtheoretically":4400,"Ġreconstruction":4401,"Ġentailment":4402,"mission":4403,"Ġdecentralized":4404,"ean":4405,"mer":4406,"Ġspl":4407,"ĠCo":4408,"ives":4409,"ĠChar":4410,"Ġsubstantial":4411,"Ġcrowd":4412,"Ġeconom":4413,"ĠSeveral":4414,"Ġden":4415,"Ġperce":4416,"rained":4417,"Ġquad":4418,"ĠRNN":4419,"Ġmanual":4420,"Ġemerging":4421,"related":4422,"ĠColl":4423,"heuristic":4424,"Ġcy":4425,"stream":4426,"Ġappe":4427,"ĠOver":4428,"ĠRep":4429,"Ġinters":4430,"Ġoutl":4431,"Ġnumerous":4432,"Ġadopted":4433,"ĠOpen":4434,"Ġbreak":4435,"IT":4436,"SC":4437,"Ġbatch":4438,"elt":4439,"ĠMA":4440,"ĠThrough":4441,"Ġcoverage":4442,"Ġworking":4443,"Ġgeneralizes":4444,"Ġproduction":4445,"Ġfollowed":4446,"Ġpairwise":4447,"Ġprototype":4448,"Ġthems":4449,"Ġcat":4450,"Ġcognition":4451,"icacy":4452,"Ġask":4453,"Ġarri":4454,"Ġextracting":4455,"Ġteac":4456,"fortunately":4457,"Ġthemselves":4458,"ĠTree":4459,"Ġmaintaining":4460,"ophistic":4461,"ymp":4462,"da":4463,"Ġhalf":4464,"Ġutilizing":4465,"Ġearlier":4466,"ler":4467,"Ġtw":4468,"Ġinverse":4469,"Ġelic":4470,"Ġcomes":4471,"ocal":4472,"exp":4473,"Ġconverge":4474,"ĠAutom":4475,"Ġindustry":4476,"RE":4477,"ords":4478,"acing":4479,"raft":4480,"Ġlonger":4481,"Ġextent":4482,"Ġversions":4483,"Ġproofs":4484,"Ġannotations":4485,"ĠOptimization":4486,"Ġlooking":4487,"ĠDist":4488,"Ġvers":4489,"Ġcontrolled":4490,"Ġrandomly":4491,"Ġintegrating":4492,"Ġsociety":4493,"Ġlibrary":4494,"Ġwindow":4495,"AE":4496,"You":4497,"be":4498,"ke":4499,"side":4500,"reement":4501,"ening":4502,"Ġbudget":4503,"quality":4504,"Ġshap":4505,"Ġparsing":4506,"Ġevid":4507,"phas":4508,"Ġdigital":4509,"gely":4510,"model":4511,"tis":4512,"Ġsophistic":4513,"ached":4514,"Ġhuge":4515,"ested":4516,"Ġequal":4517,"Ġformulated":4518,"ĠOnt":4519,"ĠAtari":4520,"Ġepis":4521,"Ġsensitive":4522,"cription":4523,"layer":4524,"Ġclauses":4525,"ocks":4526,"phic":4527,"Ġamounts":4528,"ynamic":4529,"undred":4530,"standing":4531,"Ġinvestigation":4532,"Ġgreatly":4533,"Ġrecommender":4534,"Ġtransformations":4535,"labeled":4536,"Ġbandit":4537,"ĠInstead":4538,"ympto":4539,"Shafer":4540,"Ġpropor":4541,"Ġpropag":4542,"Ġlot":4543,"ĠInformation":4544,"Ġspok":4545,"Ġverify":4546,"Ġlargely":4547,"Ġoperate":4548,"Ġstatements":4549,"aw":4550,"flow":4551,"asure":4552,"ector":4553,"ĠOWL":4554,"Ġcomputations":4555,"expl":4556,"Ġbiases":4557,"Ġsurro":4558,"Ġconsequence":4559,"Ġcomplicated":4560,"itig":4561,"Ġbran":4562,"ifies":4563,"Ġscoring":4564,"Ġperformances":4565,"ourse":4566,"alysis":4567,"Ġstrongly":4568,"Ġorigin":4569,"Ġdimensionality":4570,"Ġphenomena":4571,"tri":4572,"Ġsizes":4573,"Ġcut":4574,"ĠThat":4575,"ĠExtensive":4576,"Ġhands":4577,"Ġbehavioral":4578,"Ġdiscriminative":4579,"OP":4580,"iqu":4581,"orn":4582,"Ġthird":4583,"ĠWik":4584,"abul":4585,"ĠOb":4586,"Ġmanif":4587,"Ġallowed":4588,"Ġsimulator":4589,"cience":4590,"Ġsurprising":4591,"Ġobst":4592,"ĠLuc":4593,"Ġconsiders":4594,"that":4595,"Ġcorpor":4596,"Ġsensing":4597,"organ":4598,"emory":4599,"ĠCSP":4600,"Ġarm":4601,"Ġmeet":4602,"Ġanalyses":4603,"Ġplanners":4604,"Ġguaranteed":4605,"Ġtransitions":4606,"Ġdetails":4607,"Ġindustrial":4608,"mathcal":4609,"Ġpipeline":4610,"19":4611,"MS":4612,"Ġled":4613,"raf":4614,"Ġrating":4615,"Ġexpand":4616,"ĠKB":4617,"Ġcomparisons":4618,"Ġinteracting":4619,"ographic":4620,"ĠMDPs":4621,"ĠAlgorithm":4622,"RT":4623,"cur":4624,"Ġmitig":4625,"ective":4626,"Ġhome":4627,"Ġasympto":4628,"Ġrepro":4629,"Ġsubjective":4630,"Ġintroduction":4631,"Ġiniti":4632,"Ġfitness":4633,"Ġopinion":4634,"ambda":4635,"uity":4636,"atural":4637,"Ġcompati":4638,"Ġimag":4639,"Ġperm":4640,"Ġintermediate":4641,"Ġwhereas":4642,"rices":4643,"Ġadapted":4644,"Ġapplies":4645,"grees":4646,"Ġparameterized":4647,"Ġmotivated":4648,"Ġgovern":4649,"OC":4650,"Ġlab":4651,"ĠTuring":4652,"ĠDat":4653,"Ġmoving":4654,"Ġlabeling":4655,"Ġupdating":4656,"Ġconcerns":4657,"Ġsensitivity":4658,"Ġadjust":4659,"ĠDoctor":4660,"position":4661,"ĠDA":4662,"ĠLong":4663,"Ġemphas":4664,"Ġdoor":4665,"atisf":4666,"Ġremo":4667,"Ġfrequent":4668,"Ġcovering":4669,"iliary":4670,"LS":4671,"norm":4672,"oin":4673,"sum":4674,"ued":4675,"Ġaux":4676,"Ġdon":4677,"ĠNLP":4678,"Ġunderstood":4679,"Ġvaluable":4680,"ĠImage":4681,"Ġethical":4682,"Ġstraight":4683,"Ġforgetting":4684,"IN":4685,"sim":4686,"Ġtren":4687,"reg":4688,"entle":4689,"iles":4690,"abilistic":4691,"elling":4692,"Ġoverl":4693,"Ġsupporting":4694,"Ġmaximizing":4695,"Ġdependent":4696,"Ġdealing":4697,"Ġpublished":4698,"Ġwa":4699,"Ġdegrees":4700,"ĠSc":4701,"Ġdiscre":4702,"Ġenvironmental":4703,"Ġencoded":4704,"Ġreliability":4705,"Ġexchange":4706,"Ġsophisticated":4707,"Ġauxiliary":4708,"min":4709,"ĠMin":4710,"ĠMat":4711,"ocabul":4712,"Ġdespite":4713,"Ġobtaining":4714,"onsense":4715,"ĠUnfortunately":4716,"Ġmedia":4717,"Ġprimary":4718,"Ġconsequences":4719,"NIST":4720,"Ġtexts":4721,"Ġthings":4722,"Ġgran":4723,"Ġefficacy":4724,"ctional":4725,"Ġfinds":4726,"encoder":4727,"Ġ20":4728,"urban":4729,"Ġinformative":4730,"Ġratio":4731,"space":4732,"Ġmen":4733,"Ġformally":4734,"Ġdoing":4735,"Ġcollision":4736,"fol":4737,"with":4738,"isual":4739,"Ġhom":4740,"rative":4741,"ilos":4742,"seud":4743,"Ġneut":4744,"ĠHence":4745,"Ġvariation":4746,"Ġoptimisation":4747,"Ġmatrices":4748,"Ġdynamical":4749,"Ġplays":4750,"Ġcollective":4751,"Ġcorrectly":4752,"Ġcounterfactual":4753,"Ġcrowds":4754,"Ġpossibly":4755,"Ġwritten":4756,"ID":4757,"isely":4758,"ulner":4759,"Ġasked":4760,"Ġord":4761,"ĠPh":4762,"ĠHer":4763,"Ġconcrete":4764,"ifferent":4765,"effici":4766,"lect":4767,"ught":4768,"Ġframes":4769,"ensus":4770,"lingual":4771,"Ġmajority":4772,"robot":4773,"Ġdaugh":4774,"Ġperturbations":4775,"Ġsparsity":4776,"haps":4777,"Ġurban":4778,"asion":4779,"Ġhundred":4780,"Ġheart":4781,"ductive":4782,"Ġfewer":4783,"load":4784,"ĠAnswer":4785,"Ġstarting":4786,"rele":4787,"Ġcop":4788,"Ġusual":4789,"ades":4790,"Ġgoing":4791,"rought":4792,"Ġgrounding":4793,"Ġmeasured":4794,"Ġleverages":4795,"Ġexperiences":4796,"GD":4797,"GP":4798,"tition":4799,"elief":4800,"utation":4801,"ĠSo":4802,"antly":4803,"ĠCr":4804,"ressed":4805,"Ġ100":4806,"Ġtook":4807,"Ġrecursive":4808,"Ġconfirm":4809,"Ġaccompl":4810,"defined":4811,"Ġtight":4812,"onal":4813,"Ġpack":4814,"ressi":4815,"epsilon":4816,"ĠBP":4817,"Ġmeasuring":4818,"Ġcharacterized":4819,"ĠVari":4820,"Ġcommunities":4821,"Ġvisualization":4822,"Ġsensory":4823,"Ġindependently":4824,"Ġincorporates":4825,"Ġfrequently":4826,"Ġteams":4827,"ĠClass":4828,"Ġthreshold":4829,"trivial":4830,"(\\":4831,"network":4832,"Ġmother":4833,"Ġgentle":4834,"Ġstor":4835,"rient":4836,"Ġlocations":4837,"Ġsaw":4838,"comput":4839,"Ġradi":4840,"Ġreading":4841,"training":4842,"Ġ199":4843,"Ġcamera":4844,"Ġrigor":4845,"AV":4846,"Ġwish":4847,"ĠFuzzy":4848,"Ġdemonstrating":4849,"such":4850,"Ġoperating":4851,"Ġlimits":4852,"Ġequations":4853,"ĠConvolutional":4854,"Ġoffline":4855,"Ġviewed":4856,"Ġauthor":4857,"ĠConstraint":4858,"Le":4859,"band":4860,"Ġstim":4861,"lec":4862,"eck":4863,"Ġintended":4864,"ĠPolicy":4865,"ĠProject":4866,"Ġpromise":4867,"Ġsyntax":4868,"Ġoppon":4869,"yclic":4870,"Ġplatforms":4871,"modal":4872,"pt":4873,"zy":4874,"olation":4875,"inear":4876,"Ġdecide":4877,"ĠLP":4878,"ĠLy":4879,"ĠNo":4880,"Ġjob":4881,"Ġminimization":4882,"Ġcounting":4883,"ĠInternet":4884,"CI":4885,"determin":4886,"ĠPS":4887,"weight":4888,"Ġspecify":4889,"Ġrequirement":4890,"Ġbalance":4891,"Ġrapidly":4892,"Ġcontribute":4893,"..":4894,"AL":4895,"Ġtag":4896,"Ġtail":4897,"Ġanim":4898,"Ġdrop":4899,"Ġhar":4900,"ratic":4901,"ĠPer":4902,"Ġdepending":4903,"Ġencoun":4904,"Ġscenes":4905,"Ġeasier":4906,"Ġdiagrams":4907,"Ġvulner":4908,"Ġsimply":4909,"Ġtranspa":4910,"Ġcapturing":4911,"Ġexploring":4912,"Ġnegation":4913,"Ġturned":4914,"Ġhistor":4915,"EG":4916,"uting":4917,"Ġcoming":4918,"izer":4919,"ĠST":4920,"adame":4921,"Ġheld":4922,"ativity":4923,"Ġsemantically":4924,"ickham":4925,"omething":4926,"Ġclosely":4927,"Ġconfigurations":4928,"itively":4929,"tin":4930,"Ġstory":4931,"dia":4932,"Ġdiff":4933,"Ġvalidated":4934,"Ġdeployment":4935,"Ġgeometry":4936,"CC":4937,"ios":4938,"erge":4939,"Ġsqu":4940,"Ġcoherent":4941,"Ġrecord":4942,"Ġemp":4943,"Ġmechan":4944,"Ġformalisms":4945,"Ġrandomized":4946,"ĠAlso":4947,"Ġrestrictions":4948,"Ġconditioning":4949,"Ġbecoming":4950,"RNN":4951,"po":4952,"tors":4953,"Ġaid":4954,"dients":4955,"Ġcoal":4956,"Ġdecoding":4957,"Ġmostly":4958,"Ġmarri":4959,"ceptual":4960,"Ġinduction":4961,"Ġfrequency":4962,"Ġdifficulties":4963,"Ġmodalities":4964,"Ġstorage":4965,"eper":4966,"grained":4967,"ively":4968,"Ġtell":4969,"Ġbrought":4970,"eta":4971,"ecause":4972,"Ġalle":4973,"ilarities":4974,"ĠWickham":4975,"ume":4976,"Ġunlabeled":4977,"acted":4978,"Ġphilos":4979,"Ġfaces":4980,"Ġcooperation":4981,"Ġcomplementary":4982,"Ġtransportation":4983,"ĠInspired":4984,"MR":4985,"aut":4986,"body":4987,"Ġslight":4988,"Ġfill":4989,"icity":4990,"unc":4991,"Ġste":4992,"Ġstre":4993,"Ġstrict":4994,"Ġcommonsense":4995,"Ġbene":4996,"ĠReg":4997,"Ġbegin":4998,"ĠCollins":4999,"CB":5000,"len":5001,"rast":5002,"Ġdram":5003,"Ġranging":5004,"Ġsetup":5005,"icious":5006,"Ġextending":5007,"ĠQues":5008,"Ġintegrates":5009,"Ġtopology":5010,"Ġcaptured":5011,"chronous":5012,"GA":5013,"sp":5014,"Ġ&":5015,"Ġsil":5016,"Ġgains":5017,"poses":5018,"Ġdiver":5019,"Ġmeasurement":5020,"Ġ``":5021,"Ġpenal":5022,"eff":5023,"hel":5024,"enberg":5025,"Ġwent":5026,"let":5027,"ette":5028,"Ġalthough":5029,"Ġlea":5030,"Ġcompr":5031,"ĠBesides":5032,"Ġagreement":5033,"ribution":5034,"Ġrecall":5035,"Ġsearching":5036,"Ġoperational":5037,"Ġcausality":5038,"Ġformalize":5039,"Ġcreation":5040,"Ġcount":5041,"Ġproducts":5042,"Ġreviews":5043,"Ġforecasting":5044,"Ġcorpora":5045,"care":5046,"sess":5047,"uation":5048,"ĠDue":5049,"Ġartif":5050,"plex":5051,"anger":5052,"Ġpool":5053,"Ġsole":5054,"ĠExpl":5055,"ĠAnalysis":5056,"Ġlocalization":5057,"Ġinterested":5058,"Ġtopological":5059,"Ġcollect":5060,"ĠChapter":5061,"Ġcarry":5062,"Ġexpectation":5063,"Ġaudio":5064,"Ġteacher":5065,"aive":5066,"ruct":5067,"Ġbar":5068,"Ġacyclic":5069,"Ġadver":5070,"ĠPR":5071,"ĠRel":5072,"Ġtargets":5073,"Ġdependence":5074,"modular":5075,"ĠEmpirical":5076,"BN":5077,"CL":5078,"MP":5079,"otion":5080,"ites":5081,"Ġvocabul":5082,"Ġaccep":5083,"Ġexpressi":5084,"Ġdoub":5085,"Ġgiving":5086,"Ġbiom":5087,"Ġutilized":5088,"Ġadopt":5089,"Ġfavor":5090,"IFAR":5091,"Ġallevi":5092,"An":5093,"].":5094,"lds":5095,"mann":5096,"uned":5097,"umul":5098,"ĠOr":5099,"ampling":5100,"Ġaddressing":5101,"Ġdrawn":5102,"value":5103,"Ġconcerned":5104,"Ġcustomers":5105,"Ġswarm":5106,"Ġsymmetry":5107,"Ġinstructions":5108,"Ġphenomenon":5109,"rastruct":5110,"''":5111,"LI":5112,"^{":5113,"fold":5114,"gu":5115,"ishes":5116,"edical":5117,"using":5118,"ĠComm":5119,"Ġsolves":5120,"Ġformat":5121,"words":5122,"Ġblocks":5123,"airs":5124,"Ġdriven":5125,"Ġappearance":5126,"Ġstrengths":5127,"Ġanomaly":5128,"ET":5129,"It":5130,"Ġnet":5131,"Ġpros":5132,"Ġconjunction":5133,"ember":5134,"Ġrise":5135,"ĠCart":5136,"ĠDRL":5137,"aph":5138,"ĠHuman":5139,"Ġinteger":5140,"tivated":5141,"independent":5142,"Ġprincipled":5143,"Ġdiagnostic":5144,"Ġgrounded":5145,"parametric":5146,"Ġcustomer":5147,"Ġimpossible":5148,"%.":5149,"MO":5150,"lambda":5151,"vals":5152,"ened":5153,"ests":5154,"elines":5155,"utenberg":5156,"radient":5157,"Ġsimilarities":5158,"Ġparticle":5159,"Ġsupported":5160,"Ġcorrectness":5161,"Ġstreams":5162,"Ġcheck":5163,"Ġauthors":5164,"Ġopportunities":5165,"textit":5166,"EC":5167,"ror":5168,"Ġsomething":5169,"Ġdevi":5170,"Ġabilities":5171,"Ġsubjects":5172,"ensitive":5173,"Ġintervention":5174,"ĠCompared":5175,"life":5176,"ones":5177,"Ġfron":5178,"Ġthreat":5179,"Ġexceed":5180,"ĠInte":5181,"Ġunstructured":5182,"Ġdiffer":5183,"Ġconscious":5184,"Ġfinally":5185,"Ġimplementing":5186,"Ġspecifications":5187,"proble":5188,"ĠRecurrent":5189,"Ġexploitation":5190,"Ġconstructs":5191,"Ġemergence":5192,"Ġrecognize":5193,"Ġorganization":5194,"Ġthousands":5195,"Ġmicro":5196,"ĠOntology":5197,"GB":5198,"orough":5199,"Ġpseud":5200,"ections":5201,"Ġwhom":5202,"aint":5203,"Ġseems":5204,"Ġadequ":5205,"ĠCNNs":5206,"Ġproving":5207,"Ġvertices":5208,"Ġstrategic":5209,"Ġmaximization":5210,"Ġconnect":5211,"Ġabstractions":5212,"Ġinferring":5213,"Ġfactorization":5214,"Ġmotivation":5215,"Ġdrug":5216,"Ġactivation":5217,"Ġinnov":5218,"Ġten":5219,"roxim":5220,"Ġmerging":5221,"ether":5222,"Ġcompl":5223,"Ġdiscourse":5224,"sequence":5225,"Ġsubsets":5226,"Ġaggregate":5227,"iii":5228,"Ġcontrollers":5229,"Ġgained":5230,"which":5231,"Ġinconsistency":5232,"vable":5233,"Ġaver":5234,"Ġsure":5235,"Ġnearly":5236,"ĠMNIST":5237,"ĠCIFAR":5238,"ĠBecause":5239,"Ġreports":5240,"Ġrecords":5241,"ounding":5242,"Ġpositions":5243,"Ġextensively":5244,"ĠAdversarial":5245,"Ġmessages":5246,"Ġsatisfying":5247,"ĠPlanning":5248,"II":5249,"MI":5250,"cy":5251,"critic":5252,"pur":5253,"inent":5254,"Ġdense":5255,"Ġretain":5256,"Ġthorough":5257,"ĠAg":5258,"Ġunb":5259,"Ġstudying":5260,"Ġusefulness":5261,"Ġexploited":5262,"Ġspecialized":5263,"Ġsummarization":5264,"max":5265,"Ġinferences":5266,"Ġmac":5267,"Ġdiscovered":5268,"Ġpriors":5269,"Ġinterpreted":5270,"Ġrefin":5271,"Ġspeedup":5272,"Ġintuition":5273,"Ġprivate":5274,"Ġmovement":5275,"Ġmembership":5276,"Ġmillion":5277,"Ġremarkable":5278,"ĠProbabilistic":5279,"rafted":5280,"Ġcrowdsour":5281,"Ġchem":5282,"Ġhours":5283,"Ġhorizon":5284,"Ġproposals":5285,"sibility":5286,"tein":5287,"asoning":5288,"strained":5289,"Ġmatter":5290,"Ġapproximately":5291,"Ġinvestigates":5292,"Ġinfrastruct":5293,"Ġmedi":5294,"Ġseek":5295,"Ġprecisely":5296,"Ġconsumption":5297,"ĠGPU":5298,"Ġpurely":5299,"200":5300,"}.":5301,"Ġorient":5302,"Ġcodes":5303,"Ġmental":5304,"Ġreplay":5305,"Ġconject":5306,"osp":5307,"Ġvoice":5308,"ĠDNNs":5309,"Ġscr":5310,"ĠRDF":5311,"Ġconsensus":5312,"ĠNatural":5313,"Ġphot":5314,"earl":5315,"Ġscaling":5316,"Ġexplores":5317,"Ġavailability":5318,"Ġiteratively":5319,"Ġplausible":5320,"Ġembod":5321,"CN":5322,"Fs":5323,"rang":5324,"typ":5325,"Ġfix":5326,"Ġbur":5327,"iling":5328,"Ġvast":5329,"ĠMax":5330,"Ġcovari":5331,"Ġnote":5332,"Ġoptimum":5333,"Ġdevelopments":5334,"Ġautomata":5335,"Ġutilizes":5336,"Ġconverges":5337,"Ġquantif":5338,"propagation":5339,"ĠYet":5340,"Ġlandsc":5341,"Ġphilosoph":5342,"LSTM":5343,"oti":5344,"spec":5345,"tise":5346,"Ġped":5347,"Ġcity":5348,"isp":5349,"Ġga":5350,"Ġconvolution":5351,"Ġlearners":5352,"ĠAm":5353,"Ġshift":5354,"ĠMod":5355,"Ġarc":5356,"Ġmanage":5357,"Ġchoosing":5358,"fficiently":5359,"Ġruns":5360,"Ġdays":5361,"Ġevolving":5362,"Ġpreferred":5363,"ĠLydia":5364,"CR":5365,"ners":5366,"uble":5367,"Ġaw":5368,"Ġmist":5369,"posed":5370,"ĠBe":5371,"Ġmolec":5372,"Ġmultiagent":5373,"ĠGutenberg":5374,"Ġassumed":5375,"Ġcreative":5376,"Ġextra":5377,"Ġassignments":5378,"Ġgrasp":5379,"Ġletter":5380,"We":5381,"ley":5382,"Ġprojection":5383,"Ġgather":5384,"Ġenumer":5385,"Ġdifferential":5386,"Ġgradients":5387,"Ġfocusing":5388,"Ġaimed":5389,"ĠNew":5390,"Ġsampled":5391,"Ġemploying":5392,"Ġdevice":5393,"Ġexamined":5394,"Ġcentralized":5395,"Ġemerged":5396,"Ġspectral":5397,"Ġmassive":5398,"tree":5399,"},":5400,"ticip":5401,"ĠAcc":5402,"Ġworkers":5403,"Ġprice":5404,"Ġactually":5405,"Ġdiscovering":5406,"Ġpassing":5407,"Ġexponentially":5408,"Ġmutual":5409,"Ġholds":5410,"Ġconclusions":5411,"%,":5412,"DM":5413,"ND":5414,"idable":5415,"Ġmodification":5416,"Ġsho":5417,"ditive":5418,"ĠCT":5419,"ĠDynamic":5420,"ĠPr":5421,"Ġfoundation":5422,"Ġsatisfies":5423,"Ġacquire":5424,"Ġmorph":5425,"Ġprotocols":5426,"bs":5427,"lik":5428,"state":5429,"Ġspread":5430,"elled":5431,"Ġdecoder":5432,"Ġcomputes":5433,"Ġsimplified":5434,"ĠManette":5435,"Ġprofession":5436,"Ġgrowth":5437,"parameters":5438,"Ġobserving":5439,"Ġguidance":5440,"Ġpersonalized":5441,"Ġinvariant":5442,"Ġcircumst":5443,"Ġbeneficial":5444,"ĠQuestion":5445,"SL":5446,"],":5447,"rich":5448,"Ġhus":5449,"ĠAL":5450,"igned":5451,"ĠPross":5452,"Ġhear":5453,"ĠRandom":5454,"ĠHierarch":5455,"Ġdisplay":5456,"Ġyear":5457,"Ġlimitation":5458,"Ġemploys":5459,"Ġexplaining":5460,"ĠState":5461,"Ġreturned":5462,"ĠGenerative":5463,"Ġcorrelations":5464,"POMDP":5465,"dis":5466,"hop":5467,"ipped":5468,"right":5469,"ymmet":5470,"Ġstages":5471,"Ġmode":5472,"ophic":5473,"hess":5474,"enced":5475,"word":5476,"Ġproducing":5477,"convex":5478,"Ġiterations":5479,"Ġenhanced":5480,"ERT":5481,"Ġreveals":5482,"Ġtaxonomy":5483,"Ġalgebraic":5484,"EL":5485,"eng":5486,"Ġpuzz":5487,"ilies":5488,"Ġleave":5489,"Ġadvers":5490,"Ġdisjunctive":5491,"ĠNext":5492,"Ġanything":5493,"Ġautomation":5494,"inese":5495,"Ġbuilds":5496,"Ġinterpretations":5497,"Ġideal":5498,"Ġemotions":5499,"Ġprotocol":5500,"itives":5501,"source":5502,"Ġfault":5503,"Ġreally":5504,"ung":5505,"pport":5506,"Ġresidual":5507,"ĠPri":5508,"Ġpredicts":5509,"Ġsubsequ":5510,"Ġuncle":5511,"rosophic":5512,"Ġengines":5513,"Ġnecessarily":5514,"Ġ2018":5515,"Ġacquired":5516,"Ġinferred":5517,"ĠAuto":5518,"Ġdiagram":5519,"rum":5520,"roup":5521,"Ġflu":5522,"entang":5523,"ulum":5524,"oted":5525,"Ġcancer":5526,"ĠBelief":5527,"Ġhea":5528,"Ġcomputers":5529,"Ġexpertise":5530,"Ġsimulate":5531,"Ġprioritiz":5532,"Ġupdated":5533,"Ġcommunicate":5534,"Ġexplained":5535,"Ġpassed":5536,"Ġelectronic":5537,"Ġpreserving":5538,"Ġportfol":5539,"joy":5540,"ufact":5541,"real":5542,"Ġpain":5543,"ĠPredic":5544,"ĠNash":5545,"areto":5546,"Ġlogistic":5547,"Ġworlds":5548,"Ġmax":5549,"conn":5550,"Ġfollows":5551,"Ġclearly":5552,"Ġcells":5553,"Ġcycle":5554,"Ġrelaxation":5555,"Ġdecrease":5556,"PL":5557,"SR":5558,"\\'":5559,"cons":5560,"ken":5561,"lig":5562,"ony":5563,"Ġdam":5564,"Ġmim":5565,"Ġbin":5566,"oman":5567,"acles":5568,"ident":5569,"ĠMI":5570,"ĠMemory":5571,"Ġkn":5572,"ĠDi":5573,"tenance":5574,"ĠEvolution":5575,"Ġ12":5576,"Ġpractition":5577,"Ġtheorems":5578,"Ġteaching":5579,"ĠChinese":5580,"Ġweakness":5581,"Ġsystematically":5582,"Ġabsol":5583,"Ġanomal":5584,"Ġlifted":5585,"Ġgrammar":5586,"Ġbottlen":5587,"Ġstraightforward":5588,"Ġvocabulary":5589,"EM":5590,"VR":5591,"faces":5592,"Ġpus":5593,"resolution":5594,"ourn":5595,"Ġestimator":5596,"Ġpriori":5597,"Ġsuited":5598,"Ġcollaboration":5599,"Ġswit":5600,"Ġimplicitly":5601,"Ġabsence":5602,"Ġpieces":5603,"ĠMotivated":5604,"Ġdaughter":5605,"Ġtab":5606,"ortion":5607,"arse":5608,"Ġmid":5609,"Ġmys":5610,"Ġtoday":5611,"Ġenjoy":5612,"ĠPareto":5613,"Ġscope":5614,"Ġdecades":5615,"Ġrelate":5616,"Ġuncon":5617,"Ġcorresponds":5618,"Ġfamilies":5619,"Ġ---":5620,"player":5621,"offs":5622,"Ġcomprehension":5623,"Ġkernels":5624,"Ġaugmented":5625,"Ġimmune":5626,"ĠCarton":5627,"ganis":5628,"pan":5629,"ays":5630,"Ġimprec":5631,"Ġattain":5632,"ĠNot":5633,"Ġmov":5634,"Ġposes":5635,"Ġpossess":5636,"Ġcommit":5637,"Ġcolor":5638,"Ġlocally":5639,"Ġuncertainties":5640,"Ġweakly":5641,"Ġessentially":5642,"ĠModels":5643,"Ġcarefully":5644,"Ġaugmentation":5645,"Ġsymmetric":5646,"Ġredundant":5647,"Ġbridge":5648,"Ġhistorical":5649,"gle":5650,"temporal":5651,"Ġcoding":5652,"Ġlines":5653,"under":5654,"ĠTD":5655,"Ġacad":5656,"Ġordered":5657,"Ġchat":5658,"Ġtraces":5659,"ĠEven":5660,"observ":5661,"Ġoutperforming":5662,"Ġsatisfied":5663,"Ġemotional":5664,"Ġconcerning":5665,"Ġhealthcare":5666,"mediately":5667,"Ġremaining":5668,"Ġfragments":5669,"Ġreferred":5670,"Ġmalware":5671,"Ġcompilation":5672,"Ġbriefly":5673,"purpose":5674,"Ġmyself":5675,"Ġdark":5676,"stage":5677,"Ġsufficiently":5678,"Ġdele":5679,"Ġintent":5680,"ĠDifferent":5681,"Ġround":5682,"Ġcompleteness":5683,"Ġentirely":5684,"Ġschema":5685,"Ġpopularity":5686,"Ġseparation":5687,"Ġincrementally":5688,"Ġreflect":5689,"Ġquadratic":5690,"Ġrigorous":5691,"Ġheavi":5692,"OS":5693,"ek":5694,"fitting":5695,"Ġtempl":5696,"arp":5697,"Ġprojects":5698,"Ġimmediately":5699,"uctive":5700,"ĠSub":5701,"Ġperceptual":5702,"ĠCons":5703,"ĠHis":5704,"pectives":5705,"Ġproperly":5706,"ĠVisual":5707,"Ġencodings":5708,"Ġsymbols":5709,"Ġexhibits":5710,"Ġdiseases":5711,"Ġcompeting":5712,"Ġlexical":5713,"Ġdifferentiable":5714,"Ġimperfect":5715,"relevant":5716,"Ġstimul":5717,"$\\":5718,"BS":5719,"sed":5720,"sol":5721,"Ġtensor":5722,"hest":5723,"herence":5724,"Ġmotor":5725,"Ġrelying":5726,"ĠAb":5727,"Ġheard":5728,"ounting":5729,"Ġpresenting":5730,"Ġdesigns":5731,"Ġperspectives":5732,"Ġstatus":5733,"Ġaccelerate":5734,"Ġlegal":5735,"EN":5736,"OT":5737,"What":5738,"wit":5739,"Ġthinking":5740,"Ġlove":5741,"Ġmodes":5742,"Ġappears":5743,"arnay":5744,"ĠAG":5745,"ĠDarnay":5746,"Ġvisit":5747,"Ġsurface":5748,"Ġstronger":5749,"Ġeleg":5750,"Ġillustrated":5751,"Ġ2017":5752,"Ġprimitive":5753,"Ġload":5754,"Ġintersection":5755,"dle":5756,"hedu":5757,"Ġhon":5758,"Ġsuite":5759,"rency":5760,"ĠMean":5761,"ĠNon":5762,"duction":5763,"ologically":5764,"Ġhighl":5765,"ynchronous":5766,"uilding":5767,"Ġcontinuously":5768,"Ġoccup":5769,"Ġcritic":5770,"Ġimplies":5771,"Ġ50":5772,"Ġguided":5773,"Ġdrawback":5774,"what":5775,"Ġelimination":5776,"Ġopportunity":5777,"Ġsubsequent":5778,"hedule":5779,"field":5780,"function":5781,"tation":5782,"table":5783,"armed":5784,"Ġbu":5785,"Ġexempl":5786,"ĠAc":5787,"ogle":5788,"Ġoracle":5789,"Ġknew":5790,"ĠHy":5791,"Ġanalytical":5792,"irectional":5793,"astro":5794,"Ġparametric":5795,"Ġimportantly":5796,"Ġequally":5797,"Ġpurposes":5798,"Ġbrother":5799,"Ġprofile":5800,"Ġcoordinate":5801,"Ġeye":5802,"passing":5803,"Ġinconsistent":5804,"Ġambiguity":5805,"iosity":5806,"Ġhusband":5807,"tm":5808,"veloper":5809,"Ġproposing":5810,"Ġroute":5811,"ounted":5812,"ĠLinear":5813,"Ġformation":5814,"Ġoverhead":5815,"Ġotherwise":5816,"Ġmatches":5817,"Ġmatroid":5818,"Ġobservational":5819,"coming":5820,"Ġstored":5821,"mitted":5822,"Ġprisoner":5823,"Ġpractitioners":5824,"BM":5825,"Ġultim":5826,"Ġtempor":5827,"Ġwife":5828,"Ġdur":5829,"Ġrewrit":5830,"Ġconv":5831,"unt":5832,"amma":5833,"posit":5834,"Ġperhaps":5835,"Ġintervals":5836,"Ġcaused":5837,"Ġdistributional":5838,"Ġinside":5839,"Ġexecute":5840,"ancial":5841,"MDPs":5842,"rank":5843,"Co":5844,"mal":5845,"Ġ.":5846,"Ġans":5847,"Ġdate":5848,"arity":5849,"acies":5850,"Ġexcl":5851,"Ġmodify":5852,"Ġinten":5853,"Ġunf":5854,"Ġschedule":5855,"Ġprovably":5856,"ĠLa":5857,"Ġnewly":5858,"Ġoptimally":5859,"ributed":5860,"Ġmedic":5861,"Ġdriver":5862,"Ġseparately":5863,"Ġavoiding":5864,"Ġconversations":5865,"going":5866,"Ġpoorly":5867,"Ġspoken":5868,"oT":5869,"Ġpress":5870,"Ġwon":5871,"Ġinduce":5872,"ilistic":5873,"uming":5874,"Ġsegments":5875,"Ġcli":5876,"Ġoption":5877,"ĠLady":5878,"wards":5879,"Ġobtains":5880,"Ġsket":5881,"ĠDescription":5882,"tasks":5883,"Ġspectrum":5884,"Ġneuro":5885,"Ġcyber":5886,"ĠAmong":5887,"BC":5888,"LU":5889,"aren":5890,"Ġwoman":5891,"Ġbit":5892,"omic":5893,"iment":5894,"oders":5895,"ulates":5896,"Ġgone":5897,"Ġunlike":5898,"Ġseve":5899,"ĠEM":5900,"Ġroles":5901,"Ġmanufact":5902,"ĠGame":5903,"Ġnonmonotonic":5904,"sub":5905,"Ġequation":5906,"Ġformulations":5907,"ĠVQA":5908,"Ġ30":5909,"Ġnegoti":5910,"Ġcredit":5911,"',":5912,"HR":5913,"ON":5914,"ipl":5915,"uits":5916,"Ġub":5917,"Ġcas":5918,"Ġbad":5919,"odic":5920,"Ġdead":5921,"Ġdeveloper":5922,"Ġdistances":5923,"try":5924,"Ġmetaheuristic":5925,"Ġwalk":5926,"ĠMethod":5927,"Ġidentifies":5928,"Ġadversary":5929,"earch":5930,"ta":5931,"Ġwire":5932,"Ġnets":5933,"Ġmodifications":5934,"ĠSol":5935,"opic":5936,"Ġlargest":5937,"Ġdefines":5938,"ishing":5939,"while":5940,"Ġmorning":5941,"Ġfragment":5942,"Ġkeeping":5943,"ĠRepresent":5944,"Ġheavily":5945,"Ġubiqu":5946,"sensitive":5947,"Ġfire":5948,"Ġfoot":5949,"learn":5950,"Ġproceed":5951,"Ġweighting":5952,"izable":5953,"Ġlearnt":5954,"Ġneither":5955,"ĠInference":5956,"Ġintention":5957,"Ġadm":5958,"Ġcoarse":5959,"Ġdistil":5960,"answ":5961,"Ġprem":5962,"ĠGene":5963,"Ġdiscipl":5964,"Ġanalyse":5965,"Ġsubmodular":5966,"Ġserious":5967,"Ġshortest":5968,"Ġturns":5969,"decoder":5970,"ercial":5971,"Ġeducation":5972,"Ġcompatible":5973,"ĠImageNet":5974,"Ġsolely":5975,"areness":5976,"OI":5977,"inality":5978,"Ġcues":5979,"ithme":5980,"ĠIs":5981,"Ġpercep":5982,"ĠFe":5983,"ĠPearl":5984,"Ġdisentang":5985,"estri":5986,"Ġmultiplic":5987,"ĠConsequently":5988,"deed":5989,"Ġcried":5990,"Ġaffected":5991,"Ġneighbors":5992,"Ġcurric":5993,"Ġneuron":5994,"umulative":5995,"CM":5996,"onical":5997,"Ġmask":5998,"lection":5999,"Ġlies":6000,"amp":6001,"ĠMO":6002,"Ġpersu":6003,"Ġatoms":6004,"Ġarises":6005,"Ġagree":6006,"Ġdeciding":6007,"wered":6008,"ausal":6009,"Ġexpans":6010,"rolog":6011,"Ġcaption":6012,"Ġ15":6013,"Ġthroughout":6014,"Ġpursu":6015,"Ġdiscriminator":6016,"Ġextreme":6017,"Ġcorrelated":6018,"SM":6019,"cip":6020,"eur":6021,"gate":6022,"yth":6023,"Ġage":6024,"Ġpict":6025,"Ġfed":6026,"emper":6027,"ques":6028,"Ġdeals":6029,"Ġimaging":6030,"Ġacts":6031,"ĠMar":6032,"Ġadditive":6033,"oustic":6034,"Ġvertex":6035,"ipedia":6036,"Ġiden":6037,"Ġformalization":6038,"Ġcostly":6039,"ommod":6040,"Ġvalidity":6041,"Ġcategorical":6042,"Ġ2016":6043,"Ġarticles":6044,"Ġreadily":6045,"Ġdownstream":6046,"Ġdaily":6047,"Ġpiece":6048,"Ġscratch":6049,"Ġportfolio":6050,"CF":6051,"CSP":6052,"En":6053,"SD":6054,"cor":6055,"Ġtables":6056,"orrow":6057,"Ġpick":6058,"icated":6059,"Ġdeeper":6060,"aptive":6061,"actability":6062,"Ġprominent":6063,"etition":6064,"Ġexplainable":6065,"agnostic":6066,"Ġassigned":6067,"Ġneighbour":6068,"Ġfilters":6069,"Ġpseudo":6070,"GE":6071,"where":6072,"iner":6073,"Ġanticip":6074,"Ġdanger":6075,"Ġlive":6076,"Ġlabor":6077,"Ġsearc":6078,"Ġmethodologies":6079,"ĠDisc":6080,"Ġtrace":6081,"Ġoutline":6082,"Ġconcent":6083,"Ġpersist":6084,"Ġprincip":6085,"ĠMCTS":6086,"Ġclaims":6087,"Ġsurprisingly":6088,"deterministic":6089,"NA":6090,"PR":6091,"Ġtac":6092,"att":6093,"Ġinsu":6094,"ĠTyp":6095,"idel":6096,"Ġundirected":6097,"Ġclause":6098,"Ġaccommod":6099,"Ġanalytics":6100,"Ġminutes":6101,"Ġlater":6102,"Ġassuming":6103,"Ġcreativity":6104,"Ġfacial":6105,"Ġserves":6106,"inspired":6107,"Ġcalib":6108,"ĠStar":6109,"Ġmathematics":6110,"Ġcuriosity":6111,"Ġdrawing":6112,"Ġsuperiority":6113,"Ġevolve":6114,"Ġclassifying":6115,"Ġcycles":6116,"Ġwriting":6117,"Ġvolume":6118,"ĠMaxim":6119,"Ġutterances":6120,"Ġaccepted":6121,"Ġmacro":6122,"Ġinfrastructure":6123,".)":6124,"BO":6125,"ying":6126,"Ġaware":6127,"ows":6128,"ĠWord":6129,"ĠDuring":6130,"Ġcalls":6131,"Ġquantization":6132,"Ġboundary":6133,"Ġcalculated":6134,"Ġoccurs":6135,"ĠProcesses":6136,"ĠComputational":6137,"Ġpsychology":6138,"Ġattracted":6139,"Ġlaws":6140,"expected":6141,"Ġratings":6142,"Ġdramatically":6143,"CE":6144,"board":6145,"iency":6146,"pe":6147,"Ġthesis":6148,"Ġdiction":6149,"Ġnaive":6150,"Ġhop":6151,"Ġharm":6152,"ĠSy":6153,"Ġspir":6154,"Ġmoves":6155,"Ġfinancial":6156,"Ġcomparative":6157,"ĠReasoning":6158,"Ġdrivers":6159,"Ġdiscrimination":6160,"Ġwrong":6161,"Ġbranch":6162,"Ġlandscape":6163,"Yes":6164,"certain":6165,"Ġsch":6166,"Ġmer":6167,"usive":6168,"Ġforce":6169,"ĠIts":6170,"Ġsym":6171,"Ġorganis":6172,"ager":6173,"ĠBl":6174,"ĠBuilding":6175,"ĠEvalu":6176,"exper":6177,"Ġasser":6178,"Ġreality":6179,"theless":6180,"Ġestimators":6181,"Ġmaximal":6182,"Ġlayout":6183,"Ġprofit":6184,"Ġinterventions":6185,"Ġexcell":6186,"Ġfraction":6187,"Ġphrases":6188,"normal":6189,"And":6190,"Ġpedestri":6191,"idelity":6192,"BA":6193,"crafted":6194,"down":6195,"etic":6196,"mic":6197,"predic":6198,"Ġx":6199,"Ġtro":6200,"atter":6201,"Ġfelt":6202,"Ġmaster":6203,"Ġreposit":6204,"Ġhur":6205,"Ġasymmet":6206,"ĠMy":6207,"raining":6208,"ĠDQN":6209,"ept":6210,"ularity":6211,"Ġassemb":6212,"Ġwhenever":6213,"Ġlogs":6214,"Ġnone":6215,"Ġsucceed":6216,"Ġhighest":6217,"Ġsimplicity":6218,"Ġexpressing":6219,"Ġfavour":6220,"Ġmalicious":6221,"Ġautoencoder":6222,"ĠAnswering":6223,"ĠTraditional":6224,"Ġseemed":6225,"astrophic":6226,"Ġanswered":6227,"NP":6228,"UC":6229,"but":6230,"Ġtemper":6231,"Ġsort":6232,"atures":6233,"Ġwit":6234,"Ġant":6235,"Ġbook":6236,"Ġproxim":6237,"ĠTemporal":6238,"ambig":6239,"rench":6240,"ĠMadame":6241,"Ġscre":6242,"Ġpredicates":6243,"Ġ26":6244,"Ġrelease":6245,"Ġincorporated":6246,"Ġfails":6247,"Ġopposed":6248,"Ġlinked":6249,"Ġscientists":6250,"Ġinherently":6251,"Ġacceptance":6252,"Ġcoupled":6253,"Ġperceived":6254,"ĠWikipedia":6255,"Ġrefinement":6256,"ĠHierarchical":6257,"DNN":6258,"apping":6259,"Ġ=":6260,"Ġcope":6261,"Ġworth":6262,"Ġfig":6263,"Ġlad":6264,"Ġimit":6265,"Ġintensive":6266,"Ġacting":6267,"ĠSoft":6268,"Ġpropositions":6269,"ĠCather":6270,"ieur":6271,"ards":6272,"Ġknowing":6273,"Ġoutside":6274,"Ġcommercial":6275,"erman":6276,"Ġindirect":6277,"ĠComb":6278,"Ġtriple":6279,"Ġconditioned":6280,"Ġbehaviours":6281,"Ġreturns":6282,"ĠSecondly":6283,"ography":6284,"Ġneutrosophic":6285,"Ġintentions":6286,"ĠCatherine":6287,"che":6288,"ev":6289,"haus":6290,"Ġaffor":6291,"Ġcities":6292,"Ġinqu":6293,"Ġtold":6294,"Ġconjunctive":6295,"ĠTheore":6296,"Ġenfor":6297,"ĠCor":6298,"Ġchains":6299,"ĠFr":6300,"echn":6301,"Ġdecade":6302,"Ġcontrolling":6303,"ĠUni":6304,"Ġbiased":6305,"Ġstatistically":6306,"Ġincluded":6307,"Ġautonomously":6308,"ĠWithin":6309,"Ġindicates":6310,"Ġprofiles":6311,"igma":6312,"embles":6313,"Ġpartitioning":6314,"Ġperturbation":6315,"Ġacceptable":6316,"Ġlexic":6317,"ĠLucie":6318,"Ġasymptotic":6319,"Ġbiomedical":6320,"Ġmimic":6321,"Ex":6322,"TD":6323,"dist":6324,"oom":6325,"Ġing":6326,"Ġsir":6327,"Ġstationary":6328,"Ġnearest":6329,"Ġacoustic":6330,"Ġarithme":6331,"ĠRNNs":6332,"ĠEv":6333,"Ġprev":6334,"Ġadapting":6335,"Ġadaptively":6336,"Ġreleased":6337,"Ġfailures":6338,"Ġcircuit":6339,"Ġconflicting":6340,"Ġrationality":6341,"Ġreconstruct":6342,"Ġequilibria":6343,"ĠStruct":6344,"problems":6345,"aff":6346,"fin":6347,"tified":6348,"Ġwine":6349,"Ġboard":6350,"Ġreactive":6351,"Ġliving":6352,"olds":6353,"Ġstore":6354,"ĠOf":6355,"Ġdetected":6356,"ilemm":6357,"Ġdefense":6358,"Ġfulf":6359,"Ġoccasion":6360,"Ġexecuted":6361,"Ġarbitr":6362,"Ġsummary":6363,"Ġmentioned":6364,"Ġhundreds":6365,"Ġopponent":6366,"Ġartifacts":6367,"Ġcircumstances":6368,"_{":6369,"ele":6370,"human":6371,"itous":6372,"Ġprotein":6373,"Ġchance":6374,"ĠThree":6375,"ends":6376,"Ġspecifying":6377,"Ġregul":6378,"Ġ25":6379,"Ġlattice":6380,"Ġdrive":6381,"Ġmonotonic":6382,"Ġfeelings":6383,"Ġsplit":6384,"Ġobstacles":6385,"ĠCrunc":6386,"Ġcoalition":6387,"Ġexcellent":6388,"ĠCruncher":6389,"door":6390,"Ġchess":6391,"Ġfing":6392,"Ġease":6393,"Ġstri":6394,"ford":6395,"Ġvag":6396,"Ġarising":6397,"Ġcharacters":6398,"Ġtriples":6399,"variate":6400,"Ġavoids":6401,"Ġreplied":6402,"BR":6403,"ee":6404,"ris":6405,"rical":6406,"rew":6407,"Ġflo":6408,"ury":6409,"Ġfort":6410,"Ġgot":6411,"very":6412,"ĠTheir":6413,"Ġcanonical":6414,"ĠThird":6415,"rame":6416,"Ġoptima":6417,"Ġworkflow":6418,"Ġdouble":6419,"ielding":6420,"pread":6421,"ĠAlpha":6422,"Ġtargeted":6423,"Ġmission":6424,"Ġguidelines":6425,"Ġhappy":6426,"Ġpsychological":6427,"Ġwrite":6428,"Ġgentleman":6429,"Ġexpressiveness":6430,"Ġbottleneck":6431,"ĠGenetic":6432,"SI":6433,"TM":6434,"lot":6435,"})$":6436,"rep":6437,"ethe":6438,"igms":6439,"Ġbegan":6440,"Ġmodality":6441,"ĠSL":6442,"Ġrepair":6443,"output":6444,"Ġgradu":6445,"Ġprocessed":6446,"Ġmaker":6447,"Ġnovelty":6448,"Ġapproximating":6449,"Ġequipped":6450,"Ġtheoretic":6451,"ĠAss":6452,"product":6453,"Ġ2015":6454,"Ġtrial":6455,"Ġclosure":6456,"Ġwebs":6457,"Ġenabled":6458,"ootst":6459,"Ġneuros":6460,"Ġaxiomati":6461,"Ġcompany":6462,"Ġdiscretiz":6463,"Ġcurriculum":6464,"overs":6465,"zed":6466,"Ġtill":6467,"athe":6468,"Ġinher":6469,"Ġprohib":6470,"stationary":6471,"Ġwhite":6472,"ĠBi":6473,"ĠNow":6474,"Ġconcurrent":6475,"Ġcorrection":6476,"ĠControl":6477,"Ġtreewidth":6478,"Ġintrusion":6479,"Ġclean":6480,"ĠSimilar":6481,"Ġpleasure":6482,"Ġpixels":6483,"Ġeconomic":6484,"Ġalleviate":6485,"Ġcrowdsourcing":6486,"Ġembodied":6487,"FS":6488,"uly":6489,"inte":6490,"rees":6491,"Ġinequ":6492,"Ġgold":6493,"ĠTime":6494,"Ġexhaus":6495,"Ġweather":6496,"ĠSelf":6497,"ĠSto":6498,"agraph":6499,"Ġinterfaces":6500,"Ġsignificance":6501,"Ġsequentially":6502,"onsieur":6503,"Ġrarely":6504,"Ġfoundations":6505,"Ġsymbol":6506,"Ġcircuits":6507,"Ġconnectivity":6508,"Ġrevealed":6509,"Ġresolve":6510,"Ġtrying":6511,"Ġbottom":6512,"Ġfaith":6513,"Ġcatastrophic":6514,"Ġmitigate":6515,"Ġwireless":6516,"12":6517,"AG":6518,"BNs":6519,"DRL":6520,"pati":6521,"shel":6522,"ww":6523,"Ġtut":6524,"Ġinfeasible":6525,"Ġdro":6526,"Ġreform":6527,"Ġreached":6528,"accur":6529,"ritical":6530,"Ġunable":6531,"ĠSm":6532,"ĠCan":6533,"ĠDet":6534,"Ġyielding":6535,"ĠGe":6536,"Ġrequests":6537,"ĠKG":6538,"parts":6539,"Ġassumes":6540,"Ġdevise":6541,"Ġtreated":6542,"Ġsaliency":6543,"Ġidentical":6544,"Ġarbitrarily":6545,");":6546,"ED":6547,"arent":6548,"lide":6549,"tious":6550,"Ġoffic":6551,"entally":6552,"Ġreuse":6553,"acement":6554,"Ġvital":6555,"Ġundes":6556,"ĠSVM":6557,"ĠSatisf":6558,"ĠCF":6559,"ĠCO":6560,"ĠThough":6561,"akes":6562,"Ġarms":6563,"Ġcomputable":6564,"ĠNL":6565,"through":6566,"Ġquerying":6567,"Ġpreserv":6568,"Ġinitialization":6569,"ĠResearch":6570,"Ġnavigate":6571,"Ġreaching":6572,"Ġbroader":6573,"Ġshallow":6574,"Ġfriends":6575,"generated":6576,"Ġmillions":6577,"Ġspeaker":6578,"Ġsusp":6579,"Ġconsciousness":6580,"Ġabsolute":6581,"Ġimprecise":6582,"Ġubiquitous":6583,"Con":6584,"EA":6585,"ao":6586,"Ġwater":6587,"asi":6588,"Ġthing":6589,"style":6590,"Ġgave":6591,"person":6592,"Ġasynchronous":6593,"ĠAct":6594,"ading":6595,"Ġcontrad":6596,"Ġcoherence":6597,"ĠGard":6598,"Ġverified":6599,"Ġpoin":6600,"venue":6601,"Ġ16":6602,"Ġidentity":6603,"Ġphases":6604,"Ġinspir":6605,"Ġpredictor":6606,"Ġassessing":6607,"nealing":6608,"Ġgrows":6609,"Ġtranslate":6610,"Ġopinions":6611,"graphs":6612,"ĠPOMDPs":6613,"points":6614,"consuming":6615,"shelf":6616,"MD":6617,"ctively":6618,"erry":6619,"lements":6620,"Ġball":6621,"Ġhour":6622,"Ġlost":6623,"Ġgender":6624,"Ġongoing":6625,"Ġsty":6626,"ĠSur":6627,"ĠBN":6628,"ĠNever":6629,"Ġoverfitting":6630,"illance":6631,"Ġgenerality":6632,"Ġworse":6633,"tracking":6634,"Ġ18":6635,"Ġhierarchies":6636,"Ġlosses":6637,"mbolic":6638,"Ġcontained":6639,"Ġparadigms":6640,"Ġsynthesize":6641,"Ġfacilitates":6642,"Ġinstrument":6643,"Ġpossibilistic":6644,"Ġdedicated":6645,"Ġrecovery":6646,"Ġelicitation":6647,"Ġmanifold":6648,"Ġexpansion":6649,"15":6650,"culation":6651,"Ġcult":6652,"Ġfell":6653,"raw":6654,"Ġonto":6655,"Ġunexpected":6656,"ĠBERT":6657,"ĠHorn":6658,"Ġthanks":6659,"Ġfunctionality":6660,"Ġextracts":6661,"Ġquantified":6662,"Ġsites":6663,"Ġensuring":6664,"Ġnecessity":6665,"Ġelse":6666,"ĠFirstly":6667,"Ġaccessible":6668,"Ġreliably":6669,"Ġhttp":6670,"ĠComputer":6671,"Ġnorms":6672,"Ġplausibility":6673,"Ġeducational":6674,"ĠRobo":6675,"Ġpredefined":6676,"CG":6677,"PT":6678,"mat":6679,"uing":6680,"information":6681,"org":6682,"orph":6683,"orld":6684,"Ġcast":6685,"Ġwild":6686,"Ġlives":6687,"Ġcompens":6688,"ĠAPI":6689,"ĠIndeed":6690,"epth":6691,"ĠGradient":6692,"Ġesc":6693,"Ġconsiderably":6694,"Ġselects":6695,"Ġaiming":6696,"Ġquantification":6697,"Ġhelpful":6698,"Ġrisks":6699,"Ġreceive":6700,"Ġcorrespondence":6701,"Ġdelivery":6702,"Ġproportional":6703,"plexity":6704,"Ġchemical":6705,")-":6706,"RM":6707,"Th":6708,"mar":6709,"rate":6710,"Ġtum":6711,"oration":6712,"Ġmine":6713,"Ġbip":6714,"enty":6715,"Ġlady":6716,"ĠTwit":6717,"uclide":6718,"ogen":6719,"ighted":6720,"Ġ11":6721,"Ġbiology":6722,"Ġsubstit":6723,"Ġsubspace":6724,"Ġuniqu":6725,"Ġcalculation":6726,"Ġtrem":6727,"Ġprimarily":6728,"Ġhyperparameter":6729,"Ġnormalization":6730,"Ġpreserve":6731,"Ġcardinality":6732,"Ġtemporally":6733,"uclidean":6734,"lim":6735,"no":6736,"rt":6737,"uel":6738,"yver":6739,"onym":6740,"rex":6741,"Ġcumulative":6742,"asive":6743,"ultic":6744,"ppings":6745,"seign":6746,"pling":6747,"Ġimplements":6748,"Ġformed":6749,"ĠNumer":6750,"Ġdemands":6751,"Ġsuboptimal":6752,"encing":6753,"Ġvisually":6754,"Ġcreates":6755,"avy":6756,"Ġviewpoint":6757,"ĠChallen":6758,"Ġtrials":6759,"shop":6760,"Ġreplic":6761,"Ġsuggesting":6762,"Ġmoral":6763,"ĠGANs":6764,"Ġcompanies":6765,"Ġnarrow":6766,"Ġoutliers":6767,"Ġordinary":6768,"Ġmanufacturing":6769,"seigneur":6770,"US":6771,"ras":6772,"tuning":6773,"imotor":6774,"Ġhin":6775,"Ġconce":6776,"Ġstack":6777,"Ġcompares":6778,"ĠCNF":6779,"Ġimpressive":6780,"Ġinclusion":6781,"ĠEs":6782,"Ġemerge":6783,"Ġbelieved":6784,"Ġsuccesses":6785,"Ġenter":6786,"Ġelabor":6787,"Ġprimitives":6788,"Ġinformed":6789,"Ġtradeoff":6790,"Ġemergent":6791,"ĠStryver":6792,"Ġambiguous":6793,"Ġversati":6794,"Ġshapes":6795,"ĠDatalog":6796,"Ġdivergence":6797,"ĠPrior":6798,"Ġweaknesses":6799,"Ġarithmetic":6800,"EE":6801,"\\\"":6802,"first":6803,"machine":6804,"Ġeight":6805,"Ġnested":6806,"ĠTell":6807,"Ġstood":6808,"ĠIter":6809,"ĠSocial":6810,"Ġtrig":6811,"Ġvariability":6812,"ĠLast":6813,"Ġgeneralizing":6814,"Ġcommands":6815,"Ġcold":6816,"Ġjo":6817,"Ġclassified":6818,"Ġcountry":6819,"Ġresponsible":6820,"Ġglobally":6821,"Ġwidth":6822,"Ġtransformed":6823,"Ġorganizations":6824,"Ġsymmetries":6825,"Ġbalancing":6826,"interpre":6827,"ĠCharles":6828,"Ġtailored":6829,"Ġconjecture":6830,"Ġacademic":6831,"Ġwitness":6832,"Ps":6833,"RU":6834,"afe":6835,"non":6836,"pres":6837,"raries":6838,"sets":6839,"viron":6840,"Ġinefficient":6841,"unds":6842,"ĠTask":6843,"Ġcomprom":6844,"Ġapparent":6845,"Ġscrip":6846,"ĠRE":6847,"ĠRGB":6848,"ĠValu":6849,"Ġcloser":6850,"Ġdrift":6851,"Ġassistance":6852,"ĠProcessing":6853,"Ġderiving":6854,"Ġbrings":6855,"Ġattractive":6856,"Ġencourage":6857,"Ġencountered":6858,"Ġinsufficient":6859,"Ġdictionary":6860,"'.":6861,"BF":6862,"MAP":6863,"RC":6864,"Ġtrip":6865,"Ġsing":6866,"ats":6867,"Ġdilemm":6868,"leep":6869,"Ġnames":6870,"Ġstay":6871,"ifference":6872,"Ġvs":6873,"irl":6874,"izers":6875,"ump":6876,"ĠDis":6877,"Ġheavy":6878,"Ġpreprocessing":6879,"Ġmultivariate":6880,"Ġprobable":6881,"Ġmappings":6882,"Ġphy":6883,"Ġadapts":6884,"Ġmaintenance":6885,"ĠVide":6886,"Ġfaced":6887,"Ġcategorization":6888,"ĠSequ":6889,"Ġadoption":6890,"Ġcounterpart":6891,"Ġmutation":6892,"Ġencouraging":6893,"Ġredundancy":6894,"Ġtrends":6895,"Ġslightly":6896,"Ġprincipal":6897,"Ġneuroscience":6898,"100":6899,"iased":6900,"sem":6901,"Ġtu":6902,"esting":6903,"edy":6904,"Ġinver":6905,"ĠIS":6906,"ament":6907,"Ġseam":6908,"ĠSE":6909,"adays":6910,"Ġparagraph":6911,"ĠPo":6912,"sib":6913,"Ġinterp":6914,"Ġdecep":6915,"icians":6916,"Ġaccum":6917,"Ġmakers":6918,"Ġcorrup":6919,"ĠKey":6920,"Ġformalized":6921,"ustering":6922,"Ġevening":6923,"Ġrare":6924,"ysical":6925,"Ġcomposite":6926,"loop":6927,"Ġdetectors":6928,"Ġsensorimotor":6929,"Ġsurveillance":6930,"ĠCPU":6931,"Ġlinking":6932,"Ġthousand":6933,"Ġchildren":6934,"Ġmarriage":6935,"Ġbarri":6936,"Ġadequate":6937,"ĠEvolutionary":6938,"Ġgradually":6939,"ĠTwitter":6940,"DT":6941,"consist":6942,"grams":6943,"Ġtwe":6944,"eless":6945,"ĠText":6946,"Ġexerc":6947,"Ġdest":6948,"ĠHum":6949,"Ġknows":6950,"encoders":6951,"Ġontological":6952,"Ġcollections":6953,"ĠNeu":6954,"Ġactors":6955,"ĠJerry":6956,"Ġtransferring":6957,"Ġpeer":6958,"Ġoccurrence":6959,"Ġmanipulate":6960,"Ġloops":6961,"Ġlibraries":6962,"series":6963,"Ġtermination":6964,"Ġchannels":6965,"Ġmaterials":6966,"ĠSupport":6967,"Ġsurrounding":6968,"efficiency":6969,"ĠStochastic":6970,"DC":6971,"critical":6972,"hol":6973,"Ġaf":6974,"only":6975,"Ġciv":6976,"Ġbag":6977,"Ġprover":6978,"oll":6979,"Ġstead":6980,"Ġimmediate":6981,"adata":6982,"Ġpercent":6983,"ĠDS":6984,"ĠBell":6985,"aker":6986,"Ġarrang":6987,"Ġroot":6988,"Ġconserv":6989,"Ġaccounts":6990,"Ġ14":6991,"Ġsupply":6992,"Ġencodes":6993,"oney":6994,"Ġrevis":6995,"Ġrefined":6996,"Ġseeing":6997,"Ġoppos":6998,"Ġcalculate":6999,"Ġdegra":7000,"Ġcounterparts":7001,"Ġquantitatively":7002,"Ġjudgments":7003,"Ġperfectly":7004,"ĠUnderstanding":7005,"Ġphrase":7006,"Ġdoubt":7007,"Ġdevelopers":7008,"NS":7009,"Re":7010,"group":7011,"joint":7012,"worth":7013,"attention":7014,"Ġgest":7015,"Ġconve":7016,"identi":7017,"ĠIC":7018,"ĠAV":7019,"Ġimbal":7020,"Ġunn":7021,"Ġrespective":7022,"ferential":7023,"dering":7024,"Ġparty":7025,"Ġago":7026,"Ġincur":7027,"Ġinterference":7028,"Ġtrains":7029,"Ġarchitectural":7030,"ĠPropagation":7031,"Ġencom":7032,"Ġcharacterizing":7033,"Ġbenchmarking":7034,"Ġexperimentation":7035,"Ġspatio":7036,"ĠGoogle":7037,"Ġpoli":7038,"Ġappealing":7039,"Ġsurrogate":7040,"199":7041,"Ġtrend":7042,"Ġaccomplish":7043,"Ġtransparency":7044,"Ġrecorded":7045,"ĠAccording":7046,"POMDPs":7047,"Ġsympt":7048,"Ne":7049,"house":7050,"men":7051,"nos":7052,"rated":7053,"range":7054,"utive":7055,"tially":7056,"els":7057,"Ġconform":7058,"cho":7059,"ĠAND":7060,"Ġpaid":7061,"aken":7062,"ĠOF":7063,"Ġstring":7064,"Ġstrug":7065,"ĠFrench":7066,"ĠRO":7067,"Ġtractability":7068,"Ġincenti":7069,"ĠLocal":7070,"atial":7071,"Ġautonomy":7072,"Ġdevelops":7073,"ĠVector":7074,"Ġminimax":7075,"Ġmaximizes":7076,"Ġquantities":7077,"Ġrespond":7078,"Ġiterated":7079,"Ġaggregates":7080,"Ġparadox":7081,"Ġdetermines":7082,"Ġsuggestions":7083,"Ġrecognized":7084,"DDs":7085,"ĠSimulation":7086,"Ġwinning":7087,"IME":7088,"Ġmedicine":7089,"Ġseamless":7090,"IL":7091,"St":7092,"bf":7093,"depth":7094,"iously":7095,"Ġshed":7096,"orphic":7097,"alpha":7098,"Ġbed":7099,"Ġgirl":7100,"Ġcomfort":7101,"Ġshif":7102,"Ġmetadata":7103,"Ġadversari":7104,"ĠCA":7105,"actory":7106,"Ġpredicate":7107,"Ġbehave":7108,"Ġguard":7109,"Ġpractically":7110,"Ġminimizes":7111,"Ġpotentials":7112,"Ġcertainty":7113,"Ġincorrect":7114,"ĠAutonomous":7115,"Ġrecognizing":7116,"Ġevolved":7117,"Ġconflicts":7118,"Ġformulae":7119,"Ġanalogy":7120,"ĠAlgorithms":7121,"Ġaccompan":7122,"similar":7123,"regular":7124,"ĠMinim":7125,"Ġaveraging":7126,"connected":7127,"Ġnegotiation":7128,"Ġtremend":7129,"**":7130,"FA":7131,"qrt":7132,"Ġsac":7133,"Ġinner":7134,"arith":7135,"Ġbootst":7136,"odies":7137,"Ġstories":7138,"ressively":7139,"oses":7140,"ĠAgent":7141,"ĠDR":7142,"ĠDo":7143,"Ġcovers":7144,"Ġexplains":7145,"then":7146,"Ġrequest":7147,"Ġanytime":7148,"Ġinterests":7149,"Ġbackpropagation":7150,"Ġhardness":7151,"ĠJac":7152,"Ġtransferred":7153,"Ġaffection":7154,"Ġmonth":7155,"Ġassigning":7156,"Ġsciences":7157,"Ġroutes":7158,"Ġcarriage":7159,"GANs":7160,"ĠMeta":7161,"ĠOverall":7162,"ĠAutomated":7163,"Ġfront":7164,"ĠNevertheless":7165,"20":7166,"He":7167,"MMs":7168,"PG":7169,"founded":7170,"ga":7171,"lin":7172,"nets":7173,"ole":7174,"vec":7175,"win":7176,"Ġ{":7177,"itable":7178,"tering":7179,"Ġvan":7180,"umn":7181,"aptic":7182,"ĠPrac":7183,"Ġmultilingual":7184,"Ġsubgo":7185,"ressing":7186,"ĠConcept":7187,"Ġremove":7188,"Ġboundaries":7189,"Ġpromote":7190,"STMs":7191,"Ġchanged":7192,"Ġdetector":7193,"Ġnormative":7194,"Ġ40":7195,"Ġremained":7196,"Ġ198":7197,"Ġconstitute":7198,"Ġelementary":7199,"Ġreproduc":7200,"Ġharder":7201,"Ġstrictly":7202,"aphr":7203,"Ġcaptioning":7204,"Ġsearches":7205,"ĠChallenge":7206,"ĠHumans":7207,"My":7208,"aving":7209,"horizon":7210,"Ġ+":7211,"ert":7212,"room":7213,"Ġwall":7214,"Ġwave":7215,"Ġmultic":7216,"Ġlists":7217,"olt":7218,"Ġ(\"":7219,"izzy":7220,"ogether":7221,"Ġactively":7222,"Ġenrich":7223,"Ġseed":7224,"ĠSw":7225,"tended":7226,"ĠEuclidean":7227,"Ġsubclass":7228,"Ġapproximated":7229,"ooks":7230,"ĠVe":7231,"ĠOnline":7232,"comings":7233,"Ġhardly":7234,"Ġtechnological":7235,"Ġexecuting":7236,"Ġpostulates":7237,"Ġshortcomings":7238,"Ġyourself":7239,"Ġrestrict":7240,"Ġconsequently":7241,"Ġrankings":7242,"Ġbreast":7243,"Ġpossibilities":7244,"ĠTransform":7245,"written":7246,"Ġsalient":7247,"Ġutterance":7248,"Ġphilosophy":7249,"Ġprofessional":7250,"Ġmovie":7251,"Ġdistillation":7252,"NE":7253,"Oh":7254,"Se":7255,"VI":7256,"disc":7257,"mu":7258,"erving":7259,"espread":7260,"Ġwomen":7261,"Ġconduc":7262,"ĠSMT":7263,"Ġobvious":7264,"Ġarray":7265,"ĠFO":7266,"Ġcoinc":7267,"Ġrecon":7268,"ĠLat":7269,"Ġanalytic":7270,"Ġevaluates":7271,"Ġcorner":7272,"Ġbelow":7273,"Ġobservability":7274,"elfare":7275,"Ġinterpreting":7276,"ĠQual":7277,"Ġaffects":7278,"Ġwidespread":7279,"Ġhyperparameters":7280,"ĠMonseigneur":7281,"Ġdrastic":7282,"Ġsummarize":7283,"Ġethics":7284,"ĠInternational":7285,"Ġvulnerable":7286,"tinuous":7287,"Ġstimuli":7288,"Ġduration":7289,"Ġsevere":7290,"Ġdisciplines":7291,"50":7292,"CNNs":7293,"NL":7294,"ahead":7295,"cre":7296,"frac":7297,"sqrt":7298,"Ġauction":7299,"tible":7300,"Ġsoc":7301,"Ġtoler":7302,"Ġgathe":7303,"Ġconges":7304,"Ġunre":7305,"Ġunifying":7306,"ĠMonsieur":7307,"advant":7308,"Ġadmis":7309,"ĠDialog":7310,"pleteness":7311,"ĠLink":7312,"Ġpreval":7313,"Ġmerely":7314,"Ġsaving":7315,"ube":7316,"Ġadvice":7317,"paration":7318,"Ġlimiting":7319,"Ġlinearly":7320,"Ġprocedural":7321,"Ġsubsum":7322,"Ġranked":7323,"Ġmonot":7324,"Ġtries":7325,"Ġtriang":7326,"means":7327,"Ġqualitatively":7328,"ogeneity":7329,"Ġestablishing":7330,"Ġexpectations":7331,"passes":7332,"Ġignore":7333,"Ġtalk":7334,"Ġbranching":7335,"Ġoriginally":7336,"Ġtransparent":7337,"Ġelegant":7338,"ĠGardiner":7339,"Ġgathered":7340,"\")":7341,"NLP":7342,"co":7343,"attern":7344,"Ġwat":7345,"Ġbounding":7346,"Ġundec":7347,"ĠSampling":7348,"ĠCI":7349,"ĠCal":7350,"Ġoblig":7351,"Ġdisag":7352,"Ġworkload":7353,"trans":7354,"Ġ13":7355,"Ġsynchron":7356,"Ġcontinual":7357,"ĠReal":7358,"Ġmeanings":7359,"Ġcertainly":7360,"ĠUncertain":7361,"Ġcommunications":7362,"Ġedit":7363,"Ġexplainability":7364,"Ġensures":7365,"Ġavoidance":7366,"Ġsimultaneous":7367,"Ġflows":7368,"designed":7369,"Ġmusical":7370,"Ġroads":7371,"Ġderivation":7372,"ĠShort":7373,"Ġelectric":7374,"Ġwalking":7375,"Ġcontributes":7376,"Ġdebug":7377,"Ġjustification":7378,"Ġepisodic":7379,"Ġdropout":7380,"guided":7381,"Ġchatb":7382,"Ġpicture":7383,"ĠBellman":7384,"DR":7385,"Do":7386,"DQN":7387,"No":7388,"bl":7389,"cade":7390,"Ġwelfare":7391,"Ġannealing":7392,"ste":7393,"studi":7394,"idents":7395,"ĠInd":7396,"Ġimpacts":7397,"Ġatomic":7398,"ĠFour":7399,"Ġscarc":7400,"actor":7401,"Ġabductive":7402,"ĠGu":7403,"Ġdistant":7404,"Ġdepart":7405,"Ġminima":7406,"Ġraised":7407,"Ġspeaking":7408,"Ġindivid":7409,"ĠRecognition":7410,"ollowing":7411,"Ġdialogues":7412,"Ġsatisfactory":7413,"ĠDesign":7414,"Ġcareful":7415,"Ġstreaming":7416,"Ġmovements":7417,"Ġhappiness":7418,"ĠComputing":7419,"Ġdebate":7420,"Ġactivations":7421,"Ġevidential":7422,"Ġcopy":7423,"Ġunbiased":7424,"specified":7425,"Ġawareness":7426,"Ġafford":7427,"Ġinspiration":7428,"vironment":7429,"TE":7430,"book":7431,"cost":7432,"dem":7433,"tising":7434,"Ġwider":7435,"Ġfle":7436,"ĠWork":7437,"quis":7438,"Ġspik":7439,"Ġfear":7440,"Ġmobility":7441,"illi":7442,"Ġrealized":7443,"Ġindoor":7444,"Ġhandled":7445,"Ġinvestigating":7446,"Ġcollecting":7447,"Ġexploratory":7448,"constrained":7449,"Ġdetermination":7450,"Ġocclusion":7451,"Ġcars":7452,"Ġaggregated":7453,"Ġindicators":7454,"Ġcurve":7455,"pson":7456,"Ġtermed":7457,"Ġbandits":7458,"Ġimposed":7459,"centric":7460,"Ġquantifying":7461,"ĠDistributed":7462,"Ġobstacle":7463,"Ġadvertis":7464,"Ġburden":7465,"Ġdrawbacks":7466,"ĠTellson":7467,"But":7468,"Qu":7469,"lab":7470,"Ġow":7471,"Ġann":7472,"Ġanti":7473,"ented":7474,"asts":7475,"eloc":7476,"omotion":7477,"imes":7478,"ĠTP":7479,"ĠTensor":7480,"ĠAC":7481,"ĠSW":7482,"Ġorth":7483,"Ġspanning":7484,"Ġkept":7485,"ĠCL":7486,"Ġcontempor":7487,"ĠRule":7488,"Ġexplos":7489,"soft":7490,"Ġtestbed":7491,"ĠConf":7492,"Ġremember":7493,"Ġseeks":7494,"Ġnumeric":7495,"Ġguiding":7496,"Ġmaintains":7497,"Ġfitting":7498,"ĠPartic":7499,"Ġcellular":7500,"Ġfraud":7501,"Ġdeliber":7502,"Ġdeductive":7503,"approxim":7504,"Ġregarded":7505,"Ġgenes":7506,"\\%$":7507,"models":7508,"Ġasymptotically":7509,"Ġmedium":7510,"Ġanomalies":7511,"ĠConsider":7512,"Ġcalibration":7513,"18":7514,"Ss":7515,"bound":7516,"cin":7517,"gative":7518,"Ġast":7519,"Ġfool":7520,"Ġmoney":7521,"itely":7522,"icks":7523,"Ġtouch":7524,"Ġintra":7525,"ĠSA":7526,"ocking":7527,"Ġcoach":7528,"Ġnotice":7529,"Ġdisadvant":7530,"ĠEEG":7531,"Ġoutlier":7532,"Ġsubsequently":7533,"Ġ24":7534,"Ġcontrols":7535,"ibly":7536,"bedding":7537,"ondon":7538,"Ġpractices":7539,"commer":7540,"onomic":7541,"Ġtexture":7542,"Ġcenter":7543,"Ġassessments":7544,"Ġindicating":7545,"Ġoccurring":7546,"Ġmotivate":7547,"Ġwalked":7548,"Ġnarrative":7549,"Ġbidding":7550,"Ġbidirectional":7551,"Ġlabelled":7552,"Ġremoving":7553,"efficients":7554,"Ġstreet":7555,"Ġtemplate":7556,"Ġaccommodate":7557,"Ġpedestrian":7558,"commerce":7559,"Based":7560,"DNNs":7561,"PP":7562,"Qs":7563,"Wh":7564,"base":7565,"bourn":7566,"iet":7567,"mention":7568,"riter":7569,"Ġswe":7570,"Ġfre":7571,"Ġflight":7572,"Ġmel":7573,"owered":7574,"Ġric":7575,"Ġcontents":7576,"Ġquasi":7577,"Ġproblematic":7578,"ĠEvery":7579,"ĠLondon":7580,"fulness":7581,"Ġutilities":7582,"ĠContext":7583,"Ġpopulations":7584,"Ġengagement":7585,"Ġeveryday":7586,"Ġrefers":7587,"Ġaffective":7588,"culus":7589,"Ġaligned":7590,"Ġsuffers":7591,"Ġanalogous":7592,"Ġjustify":7593,"Ġboosting":7594,"Ġproportion":7595,"Ġinitially":7596,"ĠLongbourn":7597,"Ġmechanics":7598,"Ġmolecular":7599,"Ġasymmetric":7600,"ĠValue":7601,"Ġcongestion":7602,"Is":7603,"do":7604,"data":7605,"ky":7606,"sm":7607,"size":7608,"}\\":7609,"Ġtuned":7610,"Ġfake":7611,"Ġinvent":7612,"Ġrevenue":7613,"Ġhosp":7614,"Ġgate":7615,"oting":7616,"Ġmodelled":7617,"Ġveloc":7618,"irich":7619,"Ġdeath":7620,"ĠSQL":7621,"ocation":7622,"Ġrecip":7623,"Ġplain":7624,"Ġrepresentational":7625,"Ġmanaging":7626,"ologists":7627,"Ġgeneralizations":7628,"ĠConditional":7629,"Ġargued":7630,"Ġblind":7631,"Ġeverything":7632,"Ġ2014":7633,"Ġregularized":7634,"Ġcalculating":7635,"Ġ60":7636,"ĠMCMC":7637,"Ġmodularity":7638,"Ġfaults":7639,"elta":7640,"organizing":7641,"Ġpenalty":7642,"Ġpooling":7643,"Ġgrasping":7644,"studied":7645,"illiam":7646,"irichlet":7647,"crib":7648,"rific":7649,"icking":7650,"umb":7651,"apes":7652,"Ġopens":7653,"Ġrelating":7654,"Ġrealize":7655,"Ġtraditionally":7656,"Ġnonparametric":7657,"Ġaccuracies":7658,"Ġmapped":7659,"Ġautomate":7660,"Ġplayed":7661,"Ġraises":7662,"Ġutilization":7663,"Ġquantity":7664,"Ġassociative":7665,"condition":7666,"Ġattacker":7667,"Ġtrivial":7668,"titude":7669,"Ġvoters":7670,"Ġhappen":7671,"Ġjudgment":7672,"Ġinvest":7673,"Ġirrelevant":7674,"Ġrepeatedly":7675,"ĠAutomatic":7676,"Ġgranularity":7677,"Ġordinal":7678,"Ġdiffers":7679,"Ġstreets":7680,"Ġconvin":7681,"If":7682,"bb":7683,"relation":7684,"alities":7685,"Ġinaccur":7686,"Ġbill":7687,"Ġrew":7688,"image":7689,"olding":7690,"igen":7691,"Ġbear":7692,"ĠWorld":7693,"arness":7694,"ĠAS":7695,"Ġsharp":7696,"Ġreserv":7697,"fered":7698,"ĠDirichlet":7699,"ĠFrame":7700,"Ġcoefficient":7701,"Ġsett":7702,"Ġrecording":7703,"ĠLizzy":7704,"anges":7705,"Ġmotif":7706,"Ġgoes":7707,"Ġlogarith":7708,"ĠUAV":7709,"chitz":7710,"ublic":7711,"Ġsupplement":7712,"Ġinstit":7713,"Ġbackward":7714,"Ġopened":7715,"Ġassociations":7716,"Ġensembles":7717,"Ġpartitions":7718,"Ġinfluences":7719,"ĠAtt":7720,"ACE":7721,"Ġbalanced":7722,"Ġdeduction":7723,"ĠCharlot":7724,"Ġremoved":7725,"ĠActor":7726,"ĠCharlotte":7727,".\"":7728,"how":7729,"path":7730,"sigma":7731,"wide":7732,"Ġaunt":7733,"elong":7734,"ompson":7735,"idability":7736,"Ġdefeasible":7737,"Ġunobserv":7738,"ĠMe":7739,"ĠCausal":7740,"Ġcoefficients":7741,"terex":7742,"Ġcommand":7743,"Ġtrading":7744,"Ġmemor":7745,"cipl":7746,"Ġcontinue":7747,"Ġsecure":7748,"Ġfacing":7749,"Ġbackb":7750,"Ġadditionally":7751,"Ġliterals":7752,"ĠChain":7753,"Ġrefine":7754,"Ġaccordingly":7755,"Ġdistinction":7756,"Ġflat":7757,"Ġheads":7758,"Ġanimals":7759,"discipl":7760,"Ġrewriting":7761,"ĠMethods":7762,"Ġexhaustive":7763,"Ġsacrific":7764,"af":7765,"iver":7766,"Ġfidelity":7767,"usting":7768,"ilst":7769,"Ġbeam":7770,"Ġmodifying":7771,"essions":7772,"uccess":7773,"Ġshad":7774,"Ġacknow":7775,"ĠSV":7776,"Ġspite":7777,"Ġparaphr":7778,"ĠProlog":7779,"Ġdispar":7780,"Ġabund":7781,"Ġoptimizes":7782,"ĠNN":7783,"Ġmeant":7784,"illa":7785,"bert":7786,"Ġmini":7787,"Ġoperates":7788,"Ġalternating":7789,"ARQL":7790,"Ġdecompose":7791,"Ġconvenient":7792,"Ġoffering":7793,"Ġinstruction":7794,"Ġbreaking":7795,"Ġuniformly":7796,"Ġappeared":7797,"Ġgovernment":7798,"Ġmarried":7799,"Ġbeginning":7800,"type":7801,"Ġcovariance":7802,"Ġdamage":7803,"Ġfulfill":7804,"Ġtremendous":7805,"mentioned":7806,"$)":7807,"KB":7808,"TR":7809,"bre":7810,"lass":7811,"night":7812,"Ġther":7813,"ache":7814,"Ġhost":7815,"Ġexcep":7816,"Ġexcept":7817,"irm":7818,"Ġenforce":7819,"Ġclar":7820,"Ġarti":7821,"Ġdecidable":7822,"anged":7823,"ĠGib":7824,"Ġprobably":7825,"Ġindices":7826,"Ġlocomotion":7827,"Ġbecame":7828,"Ġdiscussing":7829,"Ġbiologically":7830,"Ġsurv":7831,"conf":7832,"Ġdescriptive":7833,"ycle":7834,"Ġreplace":7835,"Ġorganized":7836,"Ġ80":7837,"Ġgetting":7838,"Ġsurprise":7839,"Ġlandmark":7840,"Ġspoke":7841,"Ġpackage":7842,"Learning":7843,"Ġgathering":7844,"Ġhonour":7845,"Ġclique":7846,"Ġingred":7847,"preserving":7848,"Ġindividually":7849,"Ġcontemporary":7850,"CH":7851,"IR":7852,"Mark":7853,"RP":7854,"aur":7855,"dom":7856,"hoc":7857,"ker":7858,"zing":7859,"Ġcitiz":7860,"Ġoffered":7861,"arts":7862,"Ġtourn":7863,"Ġprovers":7864,"oded":7865,"Ġstations":7866,"rences":7867,"Ġunin":7868,"ĠMap":7869,"ĠMining":7870,"ĠThompson":7871,"Ġplaced":7872,"Ġvaried":7873,"Ġemail":7874,"vian":7875,"Ġsupposed":7876,"prob":7877,"hicle":7878,"Ġsimplification":7879,"Ġsimplify":7880,"ĠEng":7881,"ĠAttention":7882,"Ġreplaced":7883,"DDL":7884,"Ġmixing":7885,"paign":7886,"Ġearth":7887,"Ġdecreases":7888,"Ġforecast":7889,"Ġcoupling":7890,"ĠCurrently":7891,"Ġversus":7892,"Ġmiddle":7893,"Ġassembly":7894,"oltz":7895,"Ġricher":7896,"Nets":7897,"Tr":7898,"ah":7899,"cite":7900,"dden":7901,"evolution":7902,"system":7903,"enger":7904,"Ġought":7905,"Ġpra":7906,"Ġce":7907,"ales":7908,"itty":7909,"Ġtown":7910,"Ġhot":7911,"Ġisol":7912,"Ġstock":7913,"change":7914,"Ġasking":7915,"ĠIRL":7916,"Ġseven":7917,"Ġresil":7918,"Ġparser":7919,"ĠPe":7920,"ortex":7921,"ĠEqu":7922,"ĠNet":7923,"Ġwherein":7924,"Ġspecies":7925,"Ġfactored":7926,"Ġconcise":7927,"ĠFinding":7928,"Ġbacktracking":7929,"control":7930,"Ġconstructive":7931,"Ġmathematically":7932,"Ġeventually":7933,"Ġcalculi":7934,"Ġretrieve":7935,"Ġ90":7936,"Ġstreng":7937,"Ġadjac":7938,"Ġtends":7939,"ĠApproxim":7940,"Ġdominance":7941,"Ġshaping":7942,"Ġadvertising":7943,"Ġconnecting":7944,"Ġprioritized":7945,"Ġtabular":7946,"Ġhighlights":7947,"Ġneighbourhood":7948,"ĠMaximum":7949,"Ġstyles":7950,"30":7951,"Go":7952,"RNNs":7953,"beta":7954,"oh":7955,"vis":7956,"zon":7957,"orial":7958,"Ġportion":7959,"Ġca":7960,"arr":7961,"Ġharness":7962,"Ġlate":7963,"Ġlie":7964,"ĠAD":7965,"Ġshor":7966,"ĠSyn":7967,"ineering":7968,"ĠPath":7969,"Ġsubtasks":7970,"Ġconsiderations":7971,"Ġvisible":7972,"ĠOnce":7973,"DPG":7974,"Ġrobustly":7975,"Ġcrisp":7976,"Ġengaged":7977,"Ġcounterex":7978,"Ġopening":7979,"Ġ2019":7980,"established":7981,"Ġseeking":7982,"ometric":7983,"ĠImport":7984,"Ġheterogeneity":7985,"Ġenhancement":7986,"Ġeliminate":7987,"ĠCompetition":7988,"ĠApplic":7989,"Ġslowly":7990,"Ġinstantiation":7991,"Ġhomogeneous":7992,"ĠPSO":7993,"ĠInterest":7994,"ĠAgents":7995,"Ġsketch":7996,"ĠEvaluation":7997,"Ġladies":7998,"ĠPractice":7999,"oltzmann":8000,"16":8001,"How":8002,"MF":8003,"dney":8004,"iber":8005,"Ġur":8006,"inf":8007,"Ġsite":8008,"ission":8009,"Ġfuzz":8010,"itz":8011,"itud":8012,"lected":8013,"Ġreaches":8014,"owed":8015,"Ġcomment":8016,"pers":8017,"ĠII":8018,"place":8019,"ĠMachines":8020,"aded":8021,"anted":8022,"Ġgenerators":8023,"Ġconting":8024,"ĠBig":8025,"ĠOther":8026,"ĠFast":8027,"ĠHam":8028,"Ġdisambig":8029,"Ġplaces":8030,"Ġpresentation":8031,"Ġgeneralisation":8032,"vention":8033,"Ġoutperformed":8034,"Ġvisualize":8035,"ĠConference":8036,"Ġfamili":8037,"Ġthoughts":8038,"Ġcontraction":8039,"Ġacquiring":8040,"Ġreceives":8041,"ĠIntelligent":8042,"Ġbandwidth":8043,"Ġcyclic":8044,"Ġsisters":8045,"Ġpayoff":8046,"Ġdivided":8047,"Ġsquare":8048,"ĠRepresentation":8049,"ĠNumerical":8050,"Ġconvey":8051,"ĠUncertainty":8052,"Ġfreely":8053,"LA":8054,"Log":8055,"bing":8056,"eav":8057,"match":8058,"Ġairc":8059,"erated":8060,"Ġpit":8061,"Ġdread":8062,"Ġrenew":8063,"Ġprox":8064,"Ġstop":8065,"ĠILP":8066,"Ġsudden":8067,"ĠSk":8068,"ĠSGD":8069,"Ġcontact":8070,"Ġdesire":8071,"ĠRed":8072,"Ġprep":8073,"Ġpreced":8074,"Ġprone":8075,"Ġcolumn":8076,"obal":8077,"ĠKal":8078,"ĠAnother":8079,"comm":8080,"Ġinspec":8081,"Ġintegral":8082,"Ġpartner":8083,"Ġpredictors":8084,"Ġtried":8085,"Ġpersonality":8086,"Ġready":8087,"Ġsynthesized":8088,"Ġsafely":8089,"Ġ99":8090,"Ġsensible":8091,"Ġcampaign":8092,"Ġstarted":8093,"Ġslot":8094,"Ġdelayed":8095,"Ġepisodes":8096,"Ġcompatibility":8097,"computer":8098,"weighted":8099,"Ġtagging":8100,"Ġquantifiers":8101,"Ġpuzzle":8102,"ĠMeanwhile":8103,"ĠMarquis":8104,"Ġfigure":8105,"Ġfinger":8106,"Bayes":8107,"IV":8108,"TA":8109,"br":8110,"ew":8111,"gamma":8112,"iance":8113,"local":8114,"vice":8115,"Ġ/":8116,"Ġtens":8117,"Ġtune":8118,"onds":8119,"tile":8120,"tite":8121,"Ġhill":8122,"othe":8123,"ĠIoT":8124,"rents":8125,"ectors":8126,"Ġpages":8127,"Ġnotes":8128,"Ġinterle":8129,"Ġinterrup":8130,"ĠNether":8131,"Ġdiscounted":8132,"Ġdefender":8133,"Ġdesigners":8134,"Ġminor":8135,"rosc":8136,"Ġguess":8137,"Ġlatest":8138,"Ġendeav":8139,"Ġstopped":8140,"Ġii":8141,"Ġillustrates":8142,"Ġexamines":8143,"prising":8144,")$,":8145,"Ġmonitor":8146,"Ġmarketing":8147,"Ġtranslating":8148,"ĠSPARQL":8149,"Ġjustified":8150,"Ġdominant":8151,"Ġdistinguishing":8152,"Ġcameras":8153,"Ġdiscrep":8154,"Ġopponents":8155,"Ġunclear":8156,"ĠVideo":8157,"Ġunnecess":8158,"stein":8159,"Ġorthog":8160,"disciplinary":8161,"PA":8162,"To":8163,"aults":8164,"cut":8165,"gy":8166,"kit":8167,"target":8168,"you":8169,"Ġaro":8170,"Ġapart":8171,"rem":8172,"rey":8173,"Ġpun":8174,"Ġforces":8175,"Ġstress":8176,"ĠAUC":8177,"ĠInf":8178,"ĠMR":8179,"ĠDB":8180,"Ġnotably":8181,"ĠHigh":8182,"ĠLet":8183,"Ġpretrained":8184,"Ġmoved":8185,"ician":8186,"Ġyes":8187,"Ġsubproblems":8188,"Ġposed":8189,"Ġlocated":8190,"Ġjunction":8191,"Ġdivers":8192,"Ġequip":8193,"comp":8194,"Ġcontinued":8195,"Ġlatency":8196,"Ġsoftmax":8197,"Ġengineers":8198,"Ġmarry":8199,"ensities":8200,"requency":8201,"Ġaggregating":8202,"Ġappropriately":8203,"Ġweaker":8204,"Ġreceiving":8205,"MCTS":8206,"Ġleveraged":8207,"Ġdiscussions":8208,"Ġautoencoders":8209,"Ġlooks":8210,"Ġlifelong":8211,"Ġperceive":8212,"Ġemphasis":8213,"ĠRelational":8214,"Ġdeviation":8215,"solving":8216,"ĠSydney":8217,"Ġphysi":8218,"Ġpolitical":8219,"SVM":8220,"cision":8221,"language":8222,"na":8223,"och":8224,"}{":8225,"Ġsun":8226,"Ġod":8227,"Ġanxi":8228,"anes":8229,"Ġreus":8230,"stable":8231,"Ġstation":8232,"Ġstabil":8233,"Ġstone":8234,"Ġweek":8235,"Ġenorm":8236,"ĠServ":8237,"ighter":8238,"Ġquiet":8239,"Ġstrings":8240,"Ġdisjunction":8241,"ĠEu":8242,"ĠEvent":8243,"ĠGl":8244,"Ġexistential":8245,"Ġvalued":8246,"ĠExtr":8247,"ooper":8248,"Ġsuppose":8249,"Ġcausation":8250,"parse":8251,"Ġstanding":8252,"Ġpriority":8253,"Ġentered":8254,"score":8255,"Ġgreatest":8256,"Ġrestriction":8257,"ĠResNet":8258,"Ġsummaries":8259,"Ġdegrad":8260,"Ġtranslated":8261,"ĠShap":8262,"Ġmoments":8263,"Ġstarts":8264,"Ġsustain":8265,"Ġarrive":8266,"ĠVarious":8267,"Ġleaves":8268,"likelihood":8269,"Ġpuzzles":8270,"ĠFeature":8271,"ython":8272,"Ġspirit":8273,"Ġsymptoms":8274,"nostic":8275,"Ġvelocity":8276,"14":8277,"Flow":8278,"PE":8279,"SE":8280,"gressive":8281,"valid":8282,"inci":8283,"ora":8284,"edu":8285,"Ġfood":8286,"eter":8287,"urance":8288,"ils":8289,"ifier":8290,"Ġviable":8291,"Ġlearnable":8292,"occur":8293,"ignment":8294,"ĠBoltzmann":8295,"ĠEL":8296,"ountain":8297,"ĠLSTMs":8298,"Ġpret":8299,"havi":8300,"Ġregime":8301,"Ġproviders":8302,"Ġjoin":8303,"Ġinstant":8304,"Ġreductions":8305,"Ġserver":8306,"Ġinfluenced":8307,"prior":8308,"Ġassessed":8309,"Ġacquaint":8310,"relational":8311,"Ġphenotyp":8312,"reedom":8313,"ĠEmbedding":8314,"Ġstatement":8315,"cript":8316,"Ġcompositionality":8317,"Ġresolved":8318,"ifferenti":8319,"Ġmarginals":8320,"Ġbelongs":8321,"Ġbelonging":8322,"ĠGeneralized":8323,"Ġwindows":8324,"ĠLucas":8325,"ĠDAG":8326,"Ġwaiting":8327,"autom":8328,"ĠAbstr":8329,"Ġultimately":8330,"Ġundesirable":8331,"Ġopposite":8332,"Ġexplosion":8333,"ĠNetherfield":8334,"++":8335,"Craft":8336,"RA":8337,"VAE":8338,"})":8339,"Ġtis":8340,"Ġsight":8341,"Ġfile":8342,"Ġreverse":8343,"ĠTSP":8344,"ĠTraining":8345,"ĠME":8346,"ĠSH":8347,"ĠSS":8348,"Ġproposition":8349,"ĠCR":8350,"ĠDetermin":8351,"tened":8352,"plement":8353,"Ġtruly":8354,"Ġroll":8355,"ĠLo":8356,"icially":8357,"Ġpron":8358,"Ġsubmission":8359,"Ġhumanoid":8360,"Ġreasoner":8361,"Ġdefici":8362,"tron":8363,"oured":8364,"Ġadvoc":8365,"Ġremote":8366,"Ġconvert":8367,"Ġanalyzes":8368,"Ġdescriptors":8369,"Ġexplanatory":8370,"jections":8371,"Ġillustrative":8372,"Ġdevoted":8373,"AIL":8374,"Ġenhancing":8375,"Ġinternational":8376,"ographical":8377,"Ġassistant":8378,"Ġimplication":8379,"Ġaxiomatic":8380,"realistic":8381,"Ġwonder":8382,"Ġenforcing":8383,"ĠFrance":8384,"Ġversatile":8385,"Ġstruggle":8386,"Ġdrastically":8387,"Ġadmissible":8388,"ĠLinked":8389,"prisingly":8390,"DI":8391,"ME":8392,"VQA":8393,"Ġsn":8394,"Ġcer":8395,"Ġcreat":8396,"aten":8397,"Ġinj":8398,"Ġbots":8399,"Ġexpos":8400,"olved":8401,"Ġwear":8402,"Ġdeform":8403,"Ġshop":8404,"Ġunw":8405,"ĠMu":8406,"ĠDomain":8407,"ĠFace":8408,"ĠPers":8409,"Ġoptical":8410,"Ġdisapp":8411,"Ġcompleted":8412,"outh":8413,"Ġsubtle":8414,"Ġcombat":8415,"Ġparametri":8416,"Ġadvent":8417,"Ġcharacterizations":8418,"gry":8419,"ĠWithout":8420,"ĠStatis":8421,"Ġinducing":8422,"negative":8423,"Ġreplacing":8424,"ugmented":8425,"ĠXML":8426,"ĠParis":8427,"ĠProblems":8428,"including":8429,"Ġpermutation":8430,"Ġaccomplished":8431,"Ġoriented":8432,"Ġmatroids":8433,"Ġpressure":8434,"Ġtemperature":8435,"ĠSurprisingly":8436,"ĠLastly":8437,"Ġtweets":8438,"Ġfleet":8439,"cinct":8440,"13":8441,"fuzzy":8442,"gument":8443,"hand":8444,"Ġtit":8445,"onel":8446,"Ġsession":8447,"entive":8448,"Ġinev":8449,"Ġbir":8450,"Ġtour":8451,"Ġhor":8452,"ĠTO":8453,"chain":8454,"atever":8455,"Ġcompressed":8456,"ĠAma":8457,"Ġunification":8458,"ĠSch":8459,"Ġclient":8460,"ĠCross":8461,"Ġcontrary":8462,"ĠBas":8463,"Ġhair":8464,"ĠOR":8465,"ĠPC":8466,"ĠPDDL":8467,"Ġplug":8468,"Ġprocessors":8469,"Ġanalytically":8470,"Ġprices":8471,"obile":8472,"Ġsuccinct":8473,"Ġspecificity":8474,"Ġresponsibility":8475,"Ġliteral":8476,"orders":8477,"ĠStack":8478,"Ġfiles":8479,"Ġfundamentally":8480,"Ġlaid":8481,"Ġreachability":8482,"Ġkinem":8483,"Ġalgebras":8484,"Ġrelaxed":8485,"ĠDevelop":8486,"ĠClassification":8487,"Ġphilosophical":8488,"Ġmolecules":8489,"Ġpush":8490,"Ġultimate":8491,"answer":8492,"Ġrepository":8493,"Ġ2600":8494,"ĠNeuro":8495,"ĠJacques":8496,"):":8497,"eu":8498,"gra":8499,"game":8500,"length":8501,"sers":8502,"Ġri":8503,"inity":8504,"Ġsleep":8505,"Ġpul":8506,"Ġbodies":8507,"omon":8508,"ulating":8509,"Ġforth":8510,"utable":8511,"illed":8512,"Ġunav":8513,"Ġclim":8514,"Ġchapter":8515,"Ġque":8516,"Ġhaz":8517,"ĠOper":8518,"ĠRough":8519,"Ġnoun":8520,"Ġrelates":8521,"Ġprovable":8522,"phi":8523,"Ġmere":8524,"Ġdiscon":8525,"Ġprogressively":8526,"Ġsomewhat":8527,"Ġdefaults":8528,"ĠKitty":8529,"Ġformulating":8530,"oval":8531,"Ġtopologies":8532,"ribute":8533,"ĠAdaptive":8534,"Ġafterwards":8535,"Ġpassage":8536,"Ġbuildings":8537,"Ġparallelism":8538,"Ġturning":8539,"Ġincompleteness":8540,"Ġcooperate":8541,"Ġinformal":8542,"Ġreflects":8543,"Ġregardless":8544,"general":8545,"Ġaudience":8546,"ĠQuanti":8547,"ĠEmpirically":8548,"Ġintersections":8549,"Ġarrival":8550,"Ġoverlapping":8551,"Ġcomprises":8552,"engers":8553,"ĠSolomon":8554,"Ġdangerous":8555,"Ġinherit":8556,"Ġdebugging":8557,"Ġlogarithmic":8558,"Ġaircraft":8559,"ĠKalman":8560,"ĠEurop":8561,"-\\":8562,"Box":8563,"DB":8564,"EX":8565,"KG":8566,"Network":8567,"TSP":8568,"anks":8569,"Ġbank":8570,"rab":8571,"ĠAR":8572,"ĠScience":8573,"Ġresulted":8574,"ĠPAC":8575,"Ġdisp":8576,"Ġincentive":8577,"ĠLarge":8578,"Ġforming":8579,"ĠGA":8580,"Ġ17":8581,"Ġprogramm":8582,"Ġphone":8583,"Ġraise":8584,"ĠAssum":8585,"Ġsecret":8586,"Ġconversion":8587,"program":8588,"Ġentang":8589,"Ġhierarchically":8590,"Ġunivers":8591,"anches":8592,"Ġreader":8593,"Ġbroken":8594,"Ġmarkets":8595,"Ġmotivates":8596,"Ġvotes":8597,"Ġsaying":8598,"Ġprojected":8599,"Ġcourses":8600,"Ġtranslations":8601,"Ġmanipulating":8602,"Ġresolving":8603,"Ġboxes":8604,"Ġsplitting":8605,"minist":8606,"Ġthreats":8607,"Ġretaining":8608,"Ġthoroughly":8609,"Ġdestination":8610,"Ġrevisit":8611,"Ġsubgoals":8612,"Ġbackbone":8613,"ĠGibbs":8614,"99":8615,"Com":8616,"Or":8617,"WS":8618,"depend":8619,"eech":8620,"gradient":8621,"hire":8622,"ka":8623,"inst":8624,"Ġson":8625,"Ġbesides":8626,"entropy":8627,"unic":8628,"Ġexcess":8629,"ĠIN":8630,"search":8631,"ĠMic":8632,"ĠCognitive":8633,"ĠDC":8634,"Ġstruck":8635,"ĠFree":8636,"ĠPos":8637,"Ġrecr":8638,"Ġplus":8639,"ourney":8640,"Ġtrainable":8641,"Ġregist":8642,"Ġtraits":8643,"Ġdesigner":8644,"Ġamen":8645,"Ġrad":8646,"Ġconceptually":8647,"Ġchooses":8648,"ĠCompar":8649,"insically":8650,"Ġcompetitions":8651,"Ġpurch":8652,"Ġtransitive":8653,"Ġenhances":8654,"Ġmultimedia":8655,"Ġpleas":8656,"Ġignor":8657,"Ġexperienced":8658,"Ġfeeling":8659,"Ġneighborhoods":8660,"ĠMARL":8661,"Ġexpanding":8662,"Ġsilence":8663,"Ġfavorably":8664,"Ġinnovative":8665,"Ġhighlighting":8666,"Ġbuff":8667,"Ġdiscretization":8668,"Ġuniquely":8669,"Seq":8670,"riteria":8671,"Ġproxy":8672,"Ġinspection":8673,"ĠAmazon":8674,"($\\":8675,"*,":8676,",\"":8677,"Agent":8678,"Carlo":8679,"FO":8680,"GM":8681,"HMM":8682,"OD":8683,"Pro":8684,"Rank":8685,"bi":8686,"fast":8687,"ovian":8688,"top":8689,"Ġafore":8690,"Ġaerial":8691,"tify":8692,"Ġinapp":8693,"artite":8694,"Ġbrow":8695,"Ġreaction":8696,"urious":8697,"ulo":8698,"Ġisolation":8699,"ĠTe":8700,"ĠTechn":8701,"Ġstated":8702,"Ġstake":8703,"ilot":8704,"Ġbeings":8705,"Ġcompress":8706,"izability":8707,"formatics":8708,"seq":8709,"ĠMuch":8710,"Ġpaired":8711,"Ġours":8712,"Ġscar":8713,"ĠHil":8714,"Ġinterplay":8715,"ĠLTL":8716,"Ġanalysed":8717,"Ġfirstly":8718,"Ġorderings":8719,"ĠUp":8720,"Ġsimulating":8721,"Ġjourney":8722,"ooking":8723,"Ġselective":8724,"Ġcharge":8725,"Ġsimilarly":8726,"Ġuniverse":8727,"Ġmonol":8728,"Ġworkshop":8729,"Ġextrap":8730,"Ġforest":8731,"Ġlightweight":8732,"}$.":8733,"Ġeliminating":8734,"Ġconnectionist":8735,"Ġpreserves":8736,"Ġcompiled":8737,"Ġholistic":8738,"Ġinvariance":8739,"Ġremarkably":8740,"Ġinstantiated":8741,"Ġconstitu":8742,"Ġdeno":8743,"Ġanimal":8744,"Ġfilling":8745,"effective":8746,"manned":8747,"Ġanomalous":8748,"Ġunconstrained":8749,"Ġdisentangled":8750,"ĠTypically":8751,"ĠStarCraft":8752,"Ġmerits":8753,"Ġscreening":8754,"Ġwebsite":8755,"Ġenterpr":8756,"similarity":8757,"Ġundecidable":8758,"Ġfamiliar":8759,"Ġorthogonal":8760,"Ġenormous":8761,"Ġdegradation":8762,"Ġamenable":8763,"MRI":8764,"from":8765,"uff":8766,"well":8767,"oning":8768,"Ġsell":8769,"Ġslic":8770,"Ġsessions":8771,"Ġcros":8772,"alk":8773,"Ġfo":8774,"Ġmadame":8775,"etary":8776,"Ġprojections":8777,"usc":8778,"idential":8779,"ĠWhere":8780,"otes":8781,"otemporal":8782,"Ġwhilst":8783,"isted":8784,"Ġride":8785,"Ġparent":8786,"Ġspan":8787,"ĠBack":8788,"Ġreporting":8789,"Ġdisjoint":8790,"ĠES":8791,"Ġmultidimensional":8792,"Ġsignature":8793,"venues":8794,"intellig":8795,"Ġinvestigations":8796,"Ġremoval":8797,"ava":8798,"scrip":8799,"etitive":8800,"Ġteach":8801,"Ġ2013":8802,"Ġreviewed":8803,"Ġlacking":8804,"ĠModeling":8805,"Ġvote":8806,"Ġconsuming":8807,"Ġrecovering":8808,"ĠOpenAI":8809,"explored":8810,"Ġcutting":8811,"Ġexpanded":8812,"Ġpermits":8813,"Ġdiffusion":8814,"Ġempty":8815,"Ġempower":8816,"Ġswitching":8817,"Ġvague":8818,"Ġexercise":8819,"Ġconducting":8820,"Ġacknowled":8821,"Ġsurvival":8822,"ifferentiable":8823,"Ġaforementioned":8824,"WA":8825,"fall":8826,"mn":8827,"mo":8828,"pop":8829,"tier":8830,"enn":8831,"Ġpin":8832,"rown":8833,"Ġfreedom":8834,"Ġmild":8835,"Ġboolean":8836,"Ġeigen":8837,"Ġlane":8838,"Ġalter":8839,"Ġvill":8840,"abit":8841,"Ġimpose":8842,"ĠSU":8843,"ĠDT":8844,"Ġscan":8845,"Ġrecom":8846,"Ġinteroper":8847,"Ġdecay":8848,"Ġmotions":8849,"ĠGPS":8850,"Ġdetects":8851,"arer":8852,"Ġvaluation":8853,"Ġ21":8854,"Ġhandles":8855,"Ġsave":8856,"Ġequality":8857,"Ġsynaptic":8858,"Ġstandards":8859,"Ġseconds":8860,"Ġintegrity":8861,"Ġamongst":8862,"Ġgrouping":8863,"Ġsecondary":8864,"Ġrestricting":8865,"Ġschedules":8866,"}$,":8867,"Ġderives":8868,"Ġbranches":8869,"Ġaffecting":8870,"Ġsupervis":8871,"Ġcompete":8872,"Ġignoring":8873,"Ġinstantiations":8874,"Ġtalking":8875,"Ġevidences":8876,"explo":8877,"ĠObserv":8878,"ĠVariational":8879,"Ġmechanical":8880,"ĠCommon":8881,"likely":8882,"Ġbuy":8883,"ĠWordNet":8884,"chec":8885,"ogenous":8886,"Ġbarrier":8887,"Ġtournament":8888,"BDD":8889,"Ds":8890,"Deep":8891,"FC":8892,"een":8893,"gin":8894,"htt":8895,"la":8896,"multi":8897,"oking":8898,"tail":8899,"Ġcous":8900,"itative":8901,"Ġtoy":8902,"Ġtoken":8903,"omorph":8904,"vered":8905,"Ġgets":8906,"Ġgaps":8907,"channel":8908,"see":8909,"Ġunless":8910,"ĠMLP":8911,"ecting":8912,"Ġspam":8913,"ĠCode":8914,"Ġimply":8915,"Ġimprac":8916,"Ġchair":8917,"ĠBLE":8918,"ĠRather":8919,"Ġsolid":8920,"Ġsolvable":8921,"Ġrecovered":8922,"ĠEd":8923,"ĠEr":8924,"Ġdiscovers":8925,"Ġprogression":8926,"Ġtransmission":8927,"truth":8928,"Ġparticles":8929,"ĠExp":8930,"ĠFormal":8931,"efin":8932,"Ġgoods":8933,"Ġkeywords":8934,"Ġpeak":8935,"ĠEnvironment":8936,"Ġtracks":8937,"Ġdecompositions":8938,"reliable":8939,"Ġcoordinated":8940,"Ġhappened":8941,"Ġlengths":8942,"Ġcompactly":8943,"Ġreferring":8944,"Ġprototypes":8945,"Ġconstitutes":8946,"ipschitz":8947,"Ġtwenty":8948,"Ġleaving":8949,"ĠGPUs":8950,"Ġgaze":8951,"represent":8952,"Ġpreserved":8953,"ĠSequential":8954,"Ġtuples":8955,"Ġconservative":8956,"ĠSwarm":8957,"ĠLatent":8958,"Ġmonotone":8959,"Ġscarcely":8960,"Ġunnecessary":8961,"ĠShapley":8962,"Ġpronoun":8963,"11":8964,"Sh":8965,"col":8966,"cap":8967,"dual":8968,"gm":8969,"lies":8970,"oural":8971,"rite":8972,"she":8973,"tes":8974,"}^":8975,"Ġest":8976,"Ġap":8977,"Ġsorting":8978,"aton":8979,"ister":8980,"Ġwarm":8981,"Ġdog":8982,"Ġecho":8983,"Ġprol":8984,"imal":8985,"ĠTow":8986,"olar":8987,"Ġmoder":8988,"achment":8989,"ĠShafer":8990,"Ġadds":8991,"ĠPattern":8992,"Ġcovered":8993,"ĠEfficient":8994,"Ġproves":8995,"Ġconsec":8996,"Ġoptimizations":8997,"ailable":8998,"Ġwhereby":8999,"Ġenvy":9000,"ĠAnt":9001,"ĠVer":9002,"Ġcontinually":9003,"Ġattend":9004,"Ġentertain":9005,"ĠUnited":9006,"Ġmisle":9007,"Ġskip":9008,"Ġfailed":9009,"Ġassigns":9010,"Ġfeedforward":9011,"Ġepsilon":9012,"values":9013,"Ġprimal":9014,"Ġtransforming":9015,"Ġadopts":9016,"Ġcontrollable":9017,"Ġintuitively":9018,"structure":9019,"Ġaugmenting":9020,"ĠColonel":9021,"Ġrecursion":9022,"ĠAndroid":9023,"ĠStrateg":9024,"Ġconfirmed":9025,"ĠMAPF":9026,"Ġgrammars":9027,"Ġeconomics":9028,"networks":9029,"Ġinnovation":9030,"ĠMaxSAT":9031,"Ġswitch":9032,"ĠHybrid":9033,"Ġaxiomatization":9034,"Ġinequalities":9035,"patible":9036,"This":9037,"Ġtumor":9038,"Ġmonths":9039,"Ġvanilla":9040,"Ġhospital":9041,"ĠFramework":9042,"Ġunobserved":9043,"Ġstrengthen":9044,"Ġshorter":9045,"ĠInterestingly":9046,"Ġpretty":9047,"ĠHilbert":9048,"Ġimpractical":9049,"23":9050,"That":9051,"deep":9052,"fit":9053,"gers":9054,"pi":9055,"Ġted":9056,"ina":9057,"Ġsad":9058,"Ġsake":9059,"Ġpicking":9060,"Ġwood":9061,"Ġwishes":9062,"entence":9063,"uses":9064,"Ġgates":9065,"Ġcomments":9066,"ĠIP":9067,"aming":9068,"ĠAT":9069,"Ġunlikely":9070,"ĠMB":9071,"ĠMS":9072,"ĠSN":9073,"Ġrace":9074,"Ġpage":9075,"Ġimpression":9076,"Ġgenerations":9077,"Ġparties":9078,"ĠĠĠĠĠĠĠĠ":9079,"ĠHidden":9080,"Ġdecidability":9081,"Ġhash":9082,"taining":9083,"arying":9084,"Ġcomplexities":9085,"object":9086,"prehen":9087,"Ġsuccessive":9088,"Ġinser":9089,"Ġinteracts":9090,"Ġfurthermore":9091,"Ġengaging":9092,"conditional":9093,"Ġtele":9094,"loud":9095,"Ġillustrating":9096,"Ġfamous":9097,"Ġ2012":9098,"Ġsimplifying":9099,"ĠStand":9100,"ĠEns":9101,"Ġinduces":9102,"playing":9103,"Ġindicator":9104,"Ġmarked":9105,"Ġlacks":9106,"ĠLogics":9107,"ĠMultiple":9108,"Ġcustomized":9109,"Ġgaining":9110,"gebra":9111,"Ġsoundness":9112,"ĠTravel":9113,"Ġencourages":9114,"Ġfruit":9115,"Ġtableau":9116,"Ġunsatisf":9117,"TPLP":9118,"Ġsatell":9119,"ĠCSPs":9120,"Ġmeeting":9121,"Ġgentlemen":9122,"...":9123,"ĠPerform":9124,"Ġunbounded":9125,"ĠHyper":9126,"Ġpersistent":9127,"ĠCombining":9128,"ĠUniversity":9129,"finding":9130,"ĠOften":9131,"sibly":9132,"Critic":9133,"IP":9134,"Time":9135,"oir":9136,"phe":9137,"tuned":9138,"Ġ*":9139,"Ġax":9140,"inner":9141,"reet":9142,"Ġfits":9143,"Ġbo":9144,"Ġbil":9145,"Ġbits":9146,"Ġreject":9147,"Ġnine":9148,"Ġconvol":9149,"Ġvanis":9150,"Ġunpre":9151,"ĠSaint":9152,"adap":9153,"Ġspot":9154,"apse":9155,"ĠHT":9156,"Ġdecou":9157,"ĠLipschitz":9158,"outs":9159,"Ġdistr":9160,"Ġpride":9161,"annon":9162,"Ġtransaction":9163,"Ġtravers":9164,"Ġcaptions":9165,"ĠUS":9166,"Ġcharacterizes":9167,"Ġconfusion":9168,"ĠConc":9169,"ĠExpert":9170,"Ġblood":9171,"Ġbackdoor":9172,"Ġsubsystem":9173,"Ġsimplest":9174,"ĠEnti":9175,"Ġspatiotemporal":9176,"Ġcontracts":9177,"ĠManagement":9178,"Ġpassenger":9179,"Ġdiagnoses":9180,"Ġtransforms":9181,"mega":9182,"Ġdecomposed":9183,"Ġtackling":9184,"PSO":9185,"Ġbroadly":9186,"Ġassistants":9187,"oke":9188,"Ġderivative":9189,"Ġentails":9190,"Ġmutually":9191,"ĠTransfer":9192,"Ġrecursively":9193,"Ġsmoothing":9194,"Ġartificially":9195,"Ġorientation":9196,"Ġenumeration":9197,"Ġtemplates":9198,"answering":9199,"Ġaccumulated":9200,"Ġbuffer":9201,"Ġtedious":9202,"IRL":9203,"Pl":9204,"aven":9205,"fers":9206,"ho":9207,"lines":9208,"test":9209,"Ġ<":9210,"Ġpor":9211,"also":9212,"Ġbread":9213,"eth":9214,"etry":9215,"urbed":9216,"Ġlips":9217,"uttered":9218,"raid":9219,"ĠANN":9220,"umber":9221,"Ġperv":9222,"Ġparents":9223,"ĠFollowing":9224,"ĠRC":9225,"ĠElect":9226,"lick":9227,"Ġabnormal":9228,"Ġoptimistic":9229,"Ġtimely":9230,"illing":9231,"Ġanalysing":9232,"Ġreasonably":9233,"Ġcapac":9234,"Ġbehavioural":9235,"Ġthroughput":9236,"Ġhandwritten":9237,"ĠAny":9238,"ishment":9239,"Ġmemories":9240,"ĠHealth":9241,"Ġstopping":9242,"knowledge":9243,"Ġglass":9244,"Ġillum":9245,"ordance":9246,"Ġmisclass":9247,"Ġnumerically":9248,"Ġintrinsically":9249,"Ġpassengers":9250,"Ġflexibly":9251,"ighbor":9252,"Ġcalculations":9253,"Ġnavigating":9254,"Ġcurves":9255,"Ġsurveys":9256,"Ġvoter":9257,"symbolic":9258,"ĠPartially":9259,"Ġdistinguished":9260,"Ġperiods":9261,"Ġbringing":9262,"Ġtwice":9263,"ĠKBs":9264,"Ġreproduce":9265,"Ġfavorable":9266,"Ġproximal":9267,"interest":9268,"Ġfellow":9269,"Ġescape":9270,"Ġdilemma":9271,"Ġsteady":9272,"Ġseamlessly":9273,"Ġbootstra":9274,"Ġsettled":9275,"Ġmotifs":9276,"Ġdiscrepancy":9277,"ĠStatistical":9278,"Ġscarce":9279,"Ġvillage":9280,"-)":9281,"17":9282,"Ar":9283,"OG":9284,"core":9285,"cell":9286,"date":9287,"gh":9288,"lied":9289,"varying":9290,"}(":9291,"Ġq":9292,"Ġult":9293,"erve":9294,"erts":9295,"Ġdance":9296,"start":9297,"ulty":9298,"utations":9299,"iled":9300,"ĠIT":9301,"ĠWeighted":9302,"abled":9303,"Ġenric":9304,"ĠMed":9305,"adaptive":9306,"Ġspent":9307,"Ġadmit":9308,"Ġchase":9309,"ĠPython":9310,"ĠRos":9311,"Ġplane":9312,"ĠLi":9313,"ĠLike":9314,"Ġmanus":9315,"ĠGood":9316,"othing":9317,"Ġreasoners":9318,"Ġapproximates":9319,"Ġsmile":9320,"performance":9321,"Ġrandomization":9322,"Ġrandomness":9323,"ysics":9324,"concept":9325,"Ġpartners":9326,"Ġcomposing":9327,"variant":9328,"Ġepoch":9329,"Ġoccurrences":9330,"Ġalignments":9331,"driving":9332,"Ġconstantly":9333,"Ġadjusting":9334,"Ġwinner":9335,"2017":9336,"directional":9337,"Ġseemingly":9338,"Ġcompanion":9339,"Ġbreakthrough":9340,"Ġepisode":9341,"ĠObject":9342,"ĠIntegr":9343,"ĠDiag":9344,"Ġpremise":9345,"Ġrepositories":9346,"Ġimitate":9347,"etheless":9348,"ĠSatisfaction":9349,"Ġinvestment":9350,"Ġadjacent":9351,"ĠService":9352,"Ġtissue":9353,"ĠMicro":9354,"Ġstakehol":9355,"ĠBLEU":9356,"ipping":9357,"land":9358,"memory":9359,"arms":9360,"Ġreferences":9361,"stone":9362,"uniform":9363,"ĠTest":9364,"olly":9365,"mental":9366,"Ġwhatever":9367,"formed":9368,"Ġunpredic":9369,"ĠMery":9370,"ĠSG":9371,"ĠSR":9372,"ĠSpace":9373,"Ġrising":9374,"ĠDE":9375,"ĠOut":9376,"ĠFore":9377,"Ġnotable":9378,"ĠRB":9379,"ĠHal":9380,"ĠLag":9381,"Ġmanners":9382,"ĠNorm":9383,"ĠGerman":9384,"Ġdiscounting":9385,"Ġdoors":9386,"Ġtrades":9387,"Ġmatched":9388,"cedented":9389,"ĠProt":9390,"abelle":9391,"Ġconcaten":9392,"Ġextrinsic":9393,"Ġcontinues":9394,"Ġattentions":9395,"Ġtoolkit":9396,"Ġerrone":9397,"asticity":9398,"Ġengage":9399,"Ġindependencies":9400,"Ġengineered":9401,"ĠStates":9402,"stricted":9403,"Ġestablishes":9404,"Ġdiscriminate":9405,"Ġfrequencies":9406,"Ġretrieved":9407,"Ġderivatives":9408,"Ġsocio":9409,"ĠPlay":9410,"Ġgrids":9411,"orizons":9412,"COP":9413,"Ġignored":9414,"auti":9415,"Ġdivide":9416,"ĠWiki":9417,"Ġoverlook":9418,"Ġvulnerabilities":9419,"Ġexpressivity":9420,"ĠModern":9421,"Ġmovies":9422,"Ġunfair":9423,"Ġassertions":9424,"ĠSatisfiability":9425,"limited":9426,"ĠIteration":9427,"Ġdeception":9428,"Ġspiking":9429,"Ġaston":9430,"Ġacquaintance":9431,"ĠMeryton":9432,"SH":9433,"Term":9434,"bounded":9435,"chers":9436,"ians":9437,"my":9438,"post":9439,"Ġtun":9440,"Ġauctions":9441,"isher":9442,"Ġware":9443,"Ġang":9444,"Ġfif":9445,"Ġdial":9446,"Ġboy":9447,"Ġbatter":9448,"Ġrein":9449,"Ġearn":9450,"etric":9451,"Ġnull":9452,"urch":9453,"Ġforced":9454,"Ġles":9455,"Ġalarm":9456,"pern":9457,"ĠAction":9458,"ums":9459,"Ġunus":9460,"Ġunify":9461,"Ġunreliable":9462,"ocent":9463,"ĠDNA":9464,"ĠThings":9465,"ĠPet":9466,"Ġplacement":9467,"Ġaccident":9468,"Ġgraded":9469,"Ġdiscl":9470,"Ġdisturb":9471,"Ġassure":9472,"Ġgeneralise":9473,"Ġsubgraph":9474,"Ġsubgroup":9475,"ypt":9476,"Ġsigns":9477,"Ġampl":9478,"Ġcolour":9479,"overing":9480,"Ġbio":9481,"SPACE":9482,"Ġconvergent":9483,"Ġhelping":9484,"Ġcounts":9485,"ĠJava":9486,"Ġelection":9487,"Ġattributed":9488,"apses":9489,"Ġ2010":9490,"Ġexamining":9491,"Ġnowadays":9492,"sharing":9493,"Ġattempting":9494,"ilitary":9495,"Ġfacilitating":9496,"Ġnormalized":9497,"Ġacceleration":9498,"Ġwalks":9499,"Ġclouds":9500,"Ġmixtures":9501,"Ġroughly":9502,"Ġpreventing":9503,"Ġrigid":9504,"Ġoutlined":9505,"organization":9506,"Ġemphasize":9507,"Ġformats":9508,"Ġmistakes":9509,"Ġpushing":9510,"Ġschol":9511,"expert":9512,"ĠSoftware":9513,"ĠTheorem":9514,"Ġprevents":9515,"Ġdropped":9516,"Ġbipartite":9517,"ĠTransformer":9518,"Ġsubsumption":9519,"Ġannoun":9520,"Ġdenoising":9521,"Ġconsecutive":9522,"Ġunprecedented":9523,"22":9524,"SQL":9525,"VS":9526,"XI":9527,"eks":9528,"mog":9529,"morrow":9530,"squ":9531,"road":9532,"Ġbund":9533,"Ġborrow":9534,"ush":9535,"usal":9536,"usively":9537,"utely":9538,"ĠTR":9539,"Ġusability":9540,"amed":9541,"Ġvox":9542,"ucle":9543,"Ġunion":9544,"ĠMobile":9545,"istry":9546,"ĠSuccess":9547,"timate":9548,"ĠCy":9549,"opy":9550,"ĠDung":9551,"Ġinterview":9552,"udent":9553,"Ġvaries":9554,"physical":9555,"ĠLI":9556,"Ġgrading":9557,"Ġundert":9558,"Ġanalyst":9559,"tee":9560,"ivered":9561,"Ġplanned":9562,"Ġjump":9563,"precision":9564,"Ġsuccessor":9565,"Ġscalar":9566,"ĠConvers":9567,"Ġpathways":9568,"conditions":9569,"Ġsyntac":9570,"ropri":9571,"Ġmismatch":9572,"Ġincorporation":9573,"Ġprotection":9574,"Ġregularizer":9575,"Ġrecommended":9576,"Ġpassages":9577,"Ġhypothesize":9578,"measure":9579,"Ġbrains":9580,"Ġguides":9581,"Ġtreatments":9582,"Ġ70":9583,"ĠClustering":9584,"Ġtrustworth":9585,"Ġaccelerated":9586,"Ġenhancements":9587,"Ġinconsistencies":9588,"Ġjudg":9589,"logic":9590,"maxim":9591,"Ġtendency":9592,"writing":9593,"Ġmanifest":9594,"Ġoverlap":9595,"Ġcollisions":9596,"Ġtags":9597,"Ġenjoys":9598,"Ġagreeable":9599,"Ġproximity":9600,"Ġfloor":9601,"Ġtutorial":9602,"Ġinterpolation":9603,"Ġimbalance":9604,"Ġsoccer":9605,"Ġprevalent":9606,"Ġdisparate":9607,"havior":9608,"ĠStandard":9609,"Ġerroneous":9610,"CD":9611,"denti":9612,"differentiable":9613,"lip":9614,"paces":9615,"tude":9616,"tropy":9617,"Ġrain":9618,"Ġavenues":9619,"Ġtherap":9620,"orov":9621,"Ġangle":9622,"Ġdu":9623,"anking":9624,"Ġbreat":9625,"Ġtot":9626,"Ġhoc":9627,"Ġforg":9628,"Ġexpose":9629,"vergence":9630,"idney":9631,"Ġ($":9632,"abling":9633,"ĠAF":9634,"ĠAre":9635,"planning":9636,"Ġintensity":9637,"Ġunifies":9638,"ĠMech":9639,"ĠSection":9640,"Ġadminist":9641,"ĠBinary":9642,"akers":9643,"ĠFP":9644,"ĠFound":9645,"Ġplant":9646,"ĠEp":9647,"Ġdece":9648,"Ġabduction":9649,"ustered":9650,"Ġworker":9651,"Ġrealization":9652,"Ġsubmitted":9653,"Ġdeeply":9654,"ventional":9655,"Ġautomaton":9656,"ĠAltern":9657,"Ġera":9658,"Ġremedy":9659,"Ġcollectively":9660,"ĠRecomm":9661,"Ġalternate":9662,"Ġinfluential":9663,"Ġspatially":9664,"Ġtreating":9665,"Ġfairly":9666,"Ġcheap":9667,"Ġhypergraph":9668,"Ġcurse":9669,"Ġadopting":9670,"Ġassisted":9671,"Ġroutine":9672,"Ġhappens":9673,"Ġreconstruc":9674,"irtual":9675,"Ġbright":9676,"Ġduality":9677,"Ġvolum":9678,"Ġsmoothness":9679,"Ġviolation":9680,"Ġneutral":9681,"auty":9682,"ĠExplain":9683,"Ġexceeds":9684,"Ġpersuasion":9685,"Ġvagu":9686,"Ġcultural":9687,"Ġincentives":9688,"Ġadversaries":9689,"ĠDialogue":9690,"ĠTensorFlow":9691,"ĠParticle":9692,"60":9693,"80":9694,"Al":9695,"HC":9696,"ai":9697,"eas":9698,"ients":9699,"pot":9700,"sized":9701,"sense":9702,"error":9703,"algorith":9704,"atom":9705,"Ġfused":9706,"Ġmes":9707,"Ġbon":9708,"Ġbat":9709,"Ġbike":9710,"Ġtow":9711,"Ġeg":9712,"Ġeager":9713,"Ġthread":9714,"Ġhorizons":9715,"Ġconference":9716,"unctions":9717,"ĠTogether":9718,"oler":9719,"Ġmodest":9720,"Ġcompound":9721,"Ġval":9722,"ĠAlex":9723,"separation":9724,"positional":9725,"Ġmetaph":9726,"ĠDem":9727,"Ġquar":9728,"ĠPPO":9729,"ĠPember":9730,"Ġincl":9731,"Ġrooms":9732,"Ġdecides":9733,"ĠLDA":9734,"ups":9735,"Ġtimet":9736,"Ġaccounting":9737,"Ġverifying":9738,"Ġcapital":9739,"Ġ$(":9740,"enses":9741,"sule":9742,"Ġselectively":9743,"performing":9744,"parallel":9745,"efore":9746,"Ġvisualizations":9747,"Ġsmallest":9748,"Ġretail":9749,"Ġmedian":9750,"Ġskele":9751,"Ġcompetitors":9752,"rones":9753,"Ġ2011":9754,"ĠArgument":9755,"Ġintrig":9756,"Ġdegener":9757,"Ġfastest":9758,"Ġincoming":9759,"Ġdeploying":9760,"Ġ97":9761,"Ġcoordinates":9762,"Ġtackles":9763,"Ġexhibiting":9764,"Ġlinguistics":9765,"Ġimposing":9766,"Ġconsumer":9767,"Ġdigits":9768,"Ġjudge":9769,"Ġmanipulator":9770,"Ġimmun":9771,"Ġsuscep":9772,"Ġrendered":9773,"Ġrendering":9774,"Ġimagery":9775,"problem":9776,"Ġphoto":9777,"ĠALC":9778,"ĠAGI":9779,"Ġprevail":9780,"Ġfaithful":9781,"ĠDetection":9782,"Ġpercentage":9783,"Ġaccompanied":9784,"Ġdisadvantages":9785,"ĠImportantly":9786,"ooperative":9787,"ĠEuropean":9788,"exploitation":9789,"ĠPemberley":9790,"\").":9791,".'":9792,".).":9793,"ILP":9794,"On":9795,"Res":9796,"SV":9797,"_{\\":9798,"doc":9799,"frequency":9800,"kens":9801,"oon":9802,"rality":9803,"Ġsend":9804,"Ġfresh":9805,"Ġdensities":9806,"Ġmilitary":9807,"icing":9808,"ecurity":9809,"urk":9810,"Ġalph":9811,"ĠIR":9812,"ĠIdenti":9813,"ried":9814,"Ġvic":9815,"ĠInductive":9816,"Ġunexplored":9817,"Ġsea":9818,"ader":9819,"ouses":9820,"ĠCD":9821,"ĠChe":9822,"ĠDP":9823,"Ġobey":9824,"ĠBa":9825,"ĠOff":9826,"Ġscans":9827,"ĠHOL":9828,"Ġrecol":9829,"esthe":9830,"ĠEHR":9831,"orses":9832,"Ġgeneralised":9833,"Ġverbal":9834,"annot":9835,"Ġregulation":9836,"Ġ22":9837,"Ġtheme":9838,"overy":9839,"ĠExamples":9840,"toine":9841,"ĠAntoine":9842,"Ġterrain":9843,"Ġattentive":9844,"ĠConv":9845,"Ġassociate":9846,"Ġdevelopmental":9847,"Ġediting":9848,"rowing":9849,"Ġlessons":9850,"ĠEnc":9851,"Ġcenters":9852,"Ġhypothe":9853,"print":9854,"junctions":9855,"Ġsynthesizing":9856,"Ġobserver":9857,"Ġemergency":9858,"structures":9859,"Ġfluct":9860,"Ġdivision":9861,"Ġfalls":9862,"Ġelicit":9863,"ĠDatab":9864,"Ġwait":9865,"ĠMathem":9866,"Ġsquared":9867,"Ġmultiplication":9868,"ĠStarting":9869,"Ġregularities":9870,"Ġmonotonicity":9871,"Ġelaborate":9872,"Ġwitnessed":9873,"consistency":9874,"Ġafraid":9875,"Ġinaccurate":9876,"Ġreservoir":9877,"itudinal":9878,"inciple":9879,"Ġconvolutions":9880,"25":9881,"At":9882,"SO":9883,"even":9884,"hyth":9885,"rer":9886,"tification":9887,"Ġsection":9888,"Ġfly":9889,"Ġdinner":9890,"Ġmir":9891,"Ġmerge":9892,"Ġbooks":9893,"ellect":9894,"omes":9895,"ula":9896,"uling":9897,"unch":9898,"Ġasks":9899,"Ġleak":9900,"Ġspy":9901,"ĠDig":9902,"ĠDire":9903,"ĠBO":9904,"Ġarch":9905,"Ġagnostic":9906,"ĠFil":9907,"ĠPL":9908,"Ġcores":9909,"Ġnotor":9910,"Ġnotation":9911,"ĠHouse":9912,"orted":9913,"Ġrow":9914,"Ġdecided":9915,"Ġablation":9916,"Ġovercomes":9917,"Ġdifferently":9918,"fications":9919,"Ġthank":9920,"Ġnondeterministic":9921,"Ġ23":9922,"luence":9923,"Ġsimulators":9924,"suited":9925,"Ġattribution":9926,"Ġlogically":9927,"ĠAIS":9928,"ĠVAE":9929,"Ġminimized":9930,"Ġinsp":9931,"Ġinfers":9932,"Ġleader":9933,"adequ":9934,"Ġgoodness":9935,"luded":9936,"Ġserving":9937,"Ġcompositions":9938,"Ġcommunicating":9939,"Ġelder":9940,"Ġseparated":9941,"Ġqualities":9942,"optimality":9943,"Ġ98":9944,"ĠImitation":9945,"Ġdraws":9946,"Ġdocumentation":9947,"Ġinternet":9948,"Ġevolves":9949,"Ġallocate":9950,"Ġreflecting":9951,"Ġneurom":9952,"Ġsurprised":9953,"Ġdecreasing":9954,"generation":9955,"Ġsales":9956,"ĠRobust":9957,"Ġimperative":9958,"ĠInteractive":9959,"oinformatics":9960,"Ġdaughters":9961,"Ġtightly":9962,"ĠClassical":9963,"Ġencounter":9964,"Ġcrowdsourced":9965,"Ġmorphological":9966,"ĠSubsequently":9967,"Ġwebsites":9968,"www":9969,"Ġsavings":9970,"conditioned":9971,"ĠGlobal":9972,"Ġcousin":9973,"ĠEntity":9974,"Ġenriched":9975,"%)":9976,"'ll":9977,"))":9978,"ELM":9979,"GS":9980,"IB":9981,"Ts":9982,"Vec":9983,"oS":9984,"sampling":9985,"tra":9986,"trees":9987,"Ġ#":9988,"intensive":9989,"erges":9990,"Ġpilot":9991,"Ġfurn":9992,"anford":9993,"icense":9994,"Ġrevolution":9995,"etal":9996,"station":9997,"Ġstoring":9998,"emed":9999,"Ġvice":10000,"ĠAff":10001,"ĠActive":10002,"plan":10003,"ĠIndi":10004,"oregressive":10005,"timation":10006,"ĠCase":10007,"ĠCPS":10008,"Ġchao":10009,"Ġevac":10010,"asser":10011,"ĠBethe":10012,"ĠHMMs":10013,"Ġmultiobjective":10014,"Ġaccordance":10015,"Ġmoreover":10016,"Ġdemographic":10017,"Ġsubgraphs":10018,"ĠâĢľ'":10019,"anner":10020,"venge":10021,"Ġregimes":10022,"Ġlocality":10023,"Ġautomating":10024,"Ġattached":10025,"Ġdefinite":10026,"Ġgameplay":10027,"Ġstandardized":10028,"pectral":10029,"Ġsituated":10030,"Ġphysicians":10031,"Ġneglig":10032,"Ġsuitability":10033,"Ġtransitivity":10034,"meas":10035,"Ġoccurred":10036,"Ġdelight":10037,"}$-":10038,"ĠSimple":10039,"Ġrestart":10040,"Ġcorrelate":10041,"Ġelectro":10042,"Ġfriendly":10043,"steps":10044,"Ġloopy":10045,"Ġsmartph":10046,"Ġconcludes":10047,"ĠTraditionally":10048,"Ġslots":10049,"Ġgrammatical":10050,"Ġnarra":10051,"Ġteachers":10052,"Ġadjustment":10053,"ĠSchem":10054,"Ġspeedups":10055,"Ġperceptions":10056,"Ġinequality":10057,"Ġoffice":10058,"Ġpreservation":10059,"Ġpointed":10060,"Ġgestures":10061,"ĠQuality":10062,"Ġpragm":10063,"ĠHalpern":10064,"ĠFoundation":10065,"GG":10066,"She":10067,"Sim":10068,"Well":10069,"ball":10070,"best":10071,"delta":10072,"fly":10073,"friend":10074,"lity":10075,"when":10076,"zero":10077,"}-":10078,"Ġahead":10079,"reen":10080,"reward":10081,"Ġpray":10082,"edge":10083,"Ġanonym":10084,"Ġfirm":10085,"Ġthin":10086,"acher":10087,"uration":10088,"oday":10089,"Ġforb":10090,"Ġlose":10091,"ĠTop":10092,"olate":10093,"iff":10094,"Ġcompose":10095,"Ġunim":10096,"Ġunstable":10097,"Ġunmanned":10098,"possibly":10099,"ĠSir":10100,"Ġpermission":10101,"ĠCoun":10102,"Ġagreed":10103,"ĠRet":10104,"ĠHad":10105,"Ġapproaching":10106,"ivari":10107,"Ġmanaged":10108,"Ġemerges":10109,"Ġtimest":10110,"Ġmultitask":10111,"Ġmultitude":10112,"Ġverb":10113,"Ġgraphics":10114,"Ġspecially":10115,"Ġanyone":10116,"Ġinstantly":10117,"Ġbenign":10118,"intu":10119,"Ġattachment":10120,"overn":10121,"ĠAIXI":10122,"onde":10123,"Ġsynerg":10124,"Ġbioinformatics":10125,"Ġattended":10126,"Ġlongitudinal":10127,"Ġinteractively":10128,"Ġentries":10129,"Ġdialogs":10130,"gret":10131,"Ġmiss":10132,"Ġphysically":10133,"Ġspeeding":10134,"Ġspecialization":10135,"Ġdevised":10136,"Ġpassive":10137,"Ġparallelization":10138,"variance":10139,"Ġseparating":10140,"ĠSelection":10141,"Ġdecomposing":10142,"Ġlaugh":10143,"Ġrationale":10144,"oku":10145,"Ġentailed":10146,"Ġconsumers":10147,"Ġrevealing":10148,"Ġyielded":10149,"RIPS":10150,"Ġadvancements":10151,"Ġdelays":10152,"Ġhouseh":10153,"Ġpredomin":10154,"ĠRepublic":10155,"Ġdramatic":10156,"Ġleaf":10157,"Ġmorphology":10158,"Ġspirits":10159,"Ġfortune":10160,"semantic":10161,"ĠKeywords":10162,"Ġshifts":10163,"QuAD":10164,"cribed":10165,"Ġbillion":10166,"Ġisolated":10167,"ĠApplications":10168,"Ġreusable":10169,"scription":10170,"Ġacknowledged":10171,"Ġinteroperability":10172,"ĠTowards":10173,"Ġcapacities":10174,"ĠRosings":10175,"Ġtotally":10176,"Ġvagueness":10177,"Ab":10178,"BE":10179,"DAR":10180,"RRT":10181,"li":10182,"map":10183,"rist":10184,"sour":10185,"uk":10186,"vector":10187,"Ġly":10188,"Ġaesthe":10189,"Ġcos":10190,"Ġwatch":10191,"Ġfost":10192,"Ġinadequ":10193,"Ġmach":10194,"iteness":10195,"astive":10196,"Ġreusing":10197,"omposition":10198,"user":10199,"Ġexposed":10200,"Ġstacking":10201,"idirectional":10202,"Ġweeks":10203,"ĠWilliam":10204,"Ġlean":10205,"ĠImm":10206,"ogram":10207,"ĠSC":10208,"Ġkidney":10209,"ĠCLE":10210,"Ġshowcase":10211,"Ġparity":10212,"ĠBar":10213,"ĠBand":10214,"ĠFlow":10215,"ĠPI":10216,"ĠPy":10217,"lict":10218,"exist":10219,"sover":10220,"Ġaccidents":10221,"Ġdistortion":10222,"dsight":10223,"Ġwaste":10224,"Ġprune":10225,"Ġprogressive":10226,"Ġtransactions":10227,"Ġamb":10228,"Ġvaluations":10229,"Ġpatches":10230,"ĠKL":10231,"Ġargues":10232,"ĠAlong":10233,"Ġsurpass":10234,"Ġsenses":10235,"aneous":10236,"apsack":10237,"Ġrestrictive":10238,"nearest":10239,"Ġavoided":10240,"Ġmaintained":10241,"goal":10242,"design":10243,"Ġneuronal":10244,"ĠShannon":10245,"Ġ2007":10246,"2015":10247,"Ġhighlighted":10248,"Ġmicrosc":10249,"Ġunsolved":10250,"Ġcouple":10251,"Ġhandsome":10252,"Ġadjusted":10253,"Ġsquares":10254,"Ġbinding":10255,"arping":10256,"Ġadmits":10257,"Ġpremises":10258,"Ġanticipate":10259,"Ġpersistence":10260,"Ġtroub":10261,"ĠNowadays":10262,"ĠVehicle":10263,"Ġinheritance":10264,"Ġmoderate":10265,"Ġsatellite":10266,"ĠPerformance":10267,"Ġoverlooked":10268,"Ġskeleton":10269,"Ġintriguing":10270,"Ġhypothetical":10271,"asserstein":10272,"/\\":10273,"Cup":10274,"HE":10275,"Mr":10276,"RR":10277,"There":10278,"aR":10279,"iors":10280,"rig":10281,"turn":10282,"uations":10283,"Ġtone":10284,"Ġol":10285,"ingual":10286,"Ġfat":10287,"Ġinhib":10288,"Ġdare":10289,"Ġdub":10290,"Ġbug":10291,"Ġtokens":10292,"Ġreactions":10293,"Ġnod":10294,"imental":10295,"impro":10296,"Ġhate":10297,"osystem":10298,"Ġbeauty":10299,"Ġnephe":10300,"uma":10301,"Ġintellect":10302,"Ġends":10303,"ĠMF":10304,"adic":10305,"Ġclothes":10306,"ague":10307,"ĠPrel":10308,"arded":10309,"Ġplasticity":10310,"Ġcomputability":10311,"ĠNLI":10312,"Ġovercoming":10313,"Ġoutstanding":10314,"ĠGames":10315,"ĠKol":10316,"Ġvisited":10317,"Ġpersons":10318,"Ġfacility":10319,"ĠHeaven":10320,"pectation":10321,"ĠWhy":10322,"Ġglad":10323,"Ġfoundational":10324,"Ġtransferable":10325,"Ġconstructions":10326,"Ġuniversity":10327,"Ġskew":10328,"Ġattackers":10329,"ĠArch":10330,"ĠArchitect":10331,"aborative":10332,"Ġneighboring":10333,"Ġhypergraphs":10334,"Ġessence":10335,"Ġdecomposable":10336,"Ġ95":10337,"Ġdelivered":10338,"Ġflaw":10339,"Ġrestaur":10340,"Ġletters":10341,"Ġkeeps":10342,"ĠEngland":10343,"Ġputting":10344,"Ġcompetence":10345,"Ġpleased":10346,"2018":10347,"ifferential":10348,"Ġirregular":10349,"Ġtraveling":10350,"Ġpropagators":10351,"Ġimagine":10352,"relevance":10353,"Ġjobs":10354,"Ġcountries":10355,"Ġprospect":10356,"ĠAccur":10357,"ĠPredictive":10358,"Ġknitting":10359,"Ġfederated":10360,"experts":10361,"Ġindirectly":10362,"ĠSimilarly":10363,"ĠSmart":10364,"Ġpointing":10365,"Ġinstrumental":10366,"Ġjoined":10367,"Ġscripts":10368,"Ġcorrupted":10369,"ĠAccordingly":10370,"Ġgirls":10371,"Ġchatbot":10372,"ĠConsidering":10373,"Ġingredients":10374,"Markov":10375,"Ġcitizen":10376,"ĠAbstract":10377,"ĠFacebook":10378,"Ġmisleading":10379,"ropriate":10380,"Ġnephew":10381,"ĠPreliminary":10382,"45":10383,"87":10384,"AB":10385,"Boost":10386,"Ch":10387,"Dec":10388,"HT":10389,"MB":10390,"VE":10391,"^{\\":10392,"aper":10393,"cale":10394,"fidelity":10395,"good":10396,"sample":10397,"zen":10398,"Ġties":10399,"Ġtemp":10400,"ini":10401,"ont":10402,"Ġfals":10403,"Ġdie":10404,"Ġmail":10405,"left":10406,"lynomial":10407,"uli":10408,"Ġlights":10409,"ĠToday":10410,"emia":10411,"ĠWell":10412,"ĠWasserstein":10413,"otal":10414,"iry":10415,"ĠMRI":10416,"Ġapproached":10417,"ĠSD":10418,"ĠSign":10419,"ĠSOM":10420,"ĠSales":10421,"Ġsports":10422,"Ġke":10423,"ĠCap":10424,"ĠCell":10425,"ĠCBR":10426,"Ġreply":10427,"ĠFunction":10428,"tension":10429,"ĠRA":10430,"ĠRF":10431,"ĠLiter":10432,"Ġmanager":10433,"Ġpreferential":10434,"Ġworked":10435,"ĠGroup":10436,"ologist":10437,"Ġunderp":10438,"Ġpricing":10439,"Ġpositively":10440,"Ġpositives":10441,"Ġsought":10442,"Ġlocate":10443,"support":10444,"ponent":10445,"ĠKrip":10446,"ĠContinuous":10447,"Ġcrypt":10448,"Ġconverting":10449,"Ġbless":10450,"Ġlayered":10451,"context":10452,"Ġencoders":10453,"Ġrefining":10454,"Ġsatisfiable":10455,"clusion":10456,"Ġsimplifies":10457,"Ġelig":10458,"Ġnormally":10459,"Ġpublication":10460,"Ġgeographical":10461,"Ġlookahead":10462,"Ġattempted":10463,"Ġteamm":10464,"DAG":10465,"onsistent":10466,"Ġcollaborate":10467,"Ġtreats":10468,")$.":10469,"ceedings":10470,"Ġsays":10471,"Ġcoreference":10472,"Ġallocations":10473,"mathbb":10474,"centered":10475,"Ġanalogical":10476,"Ġcards":10477,"Ġrender":10478,"Ġratios":10479,"Ġtalked":10480,"Ġcybers":10481,"Ġpermutations":10482,"ĠDataset":10483,"Ġstere":10484,"Ġsilent":10485,"Ġcomprising":10486,"Ġintuitionistic":10487,"Ġshoul":10488,"Ġfluid":10489,"Ġexclusively":10490,"Ġcasc":10491,"Ġlaboratory":10492,"Ġorganisms":10493,"ĠEvrem":10494,"Ġconcurrently":10495,"ĠRoboCup":10496,"Ġdilemmas":10497,"consistent":10498,"Ġcivil":10499,"Ġgesture":10500,"Ġincentiv":10501,"Ġsynchronization":10502,"Ġchatbots":10503,"ĠFourier":10504,"Ġshadow":10505,"Ġexceptions":10506,"infty":10507,"ĠHamil":10508,"Ġequipment":10509,"Ġphysiological":10510,"ĠExtraction":10511,"priori":10512,"Ġpleasant":10513,"Ġmonolingual":10514,"Ġcrossover":10515,"https":10516,"Ġstakeholders":10517,"Ġchaotic":10518,"ĠKripke":10519,"ĠEvremonde":10520,"Max":10521,"Omega":10522,"TI":10523,"Vs":10524,"_,":10525,"az":10526,"det":10527,"ls":10528,"lat":10529,"makers":10530,"tent":10531,"Ġ,":10532,"Ġtor":10533,"Ġaud":10534,"iny":10535,"onance":10536,"erb":10537,"Ġsong":10538,"Ġpec":10539,"Ġcry":10540,"alone":10541,"Ġdens":10542,"Ġmender":10543,"lecting":10544,"Ġnucle":10545,"ursive":10546,"rays":10547,"ĠWS":10548,"ĠIni":10549,"Ġintric":10550,"Ġshr":10551,"Ġshut":10552,"ichot":10553,"ĠMedical":10554,"ĠSci":10555,"Ġclustered":10556,"Ġrid":10557,"Ġrhyth":10558,"Ġspon":10559,"Ġspurious":10560,"ocr":10561,"ĠCity":10562,"Ġparse":10563,"assisted":10564,"ĠBio":10565,"ĠRCC":10566,"Ġtrick":10567,"Ġtrunc":10568,"ĠEff":10569,"Ġfeet":10570,"Ġtwofold":10571,"ĠGU":10572,"ĠGen":10573,"ĠGra":10574,"Ġdiscern":10575,"Ġassurance":10576,"Ġgeneralizability":10577,"Ġpoker":10578,"Ġtransfers":10579,"Ġ1000":10580,"Ġdiagn":10581,"ĠKing":10582,"standard":10583,"hentic":10584,"ĠVI":10585,"ĠVision":10586,"onomies":10587,"Ġlattices":10588,"Ġ32":10589,"Ġfacets":10590,"Ġserial":10591,"programs":10592,"Ġpromoting":10593,"Ġproductivity":10594,"Ġpartly":10595,"Ġpeers":10596,"Ġgrouped":10597,"Ġeverybody":10598,"Ġdoctors":10599,"Ġshortcoming":10600,"Ġspeeds":10601,"ĠAdv":10602,"Ġannotators":10603,"Ġclosest":10604,"Ġneighbours":10605,"Ġprime":10606,"Ġincompatible":10607,"Ġlazy":10608,"ĠGeneration":10609,"Ġtradeoffs":10610,"Ġindustries":10611,"ictory":10612,"Ġcourt":10613,"Ġaccelerating":10614,"ĠTranslation":10615,"Ġeliminates":10616,"Ġwanted":10617,"Ġappeal":10618,"Ġpropagating":10619,"Ġmentions":10620,"ĠSTRIPS":10621,"Ġcarrying":10622,"ilingual":10623,"Ġseverely":10624,"Ġcascade":10625,"Ġschool":10626,"Ġlexicographic":10627,"distribution":10628,"Ġregulatory":10629,"Ġworkflows":10630,"ĠCOCO":10631,"Ġcompensate":10632,"Ġcompromise":10633,"Ġscript":10634,"Ġelectricity":10635,"ohn":10636,"Ġdisambiguation":10637,"validation":10638,"Ġtitle":10639,"Ġhazard":10640,"Ġregistration":10641,"Ġenterprise":10642,"Ġvanishing":10643,"mogorov":10644,"Ġnarratives":10645,"40":10646,"FIS":10647,"HS":10648,"NMT":10649,"UCB":10650,"fusc":10651,"rance":10652,"vision":10653,"yout":10654,"Ġ%":10655,"eration":10656,"Ġsorry":10657,"enge":10658,"Ġpacking":10659,"Ġpull":10660,"Ġcrafted":10661,"isim":10662,"Ġwished":10663,"Ġwrap":10664,"Ġanatom":10665,"Ġmort":10666,"Ġmerg":10667,"item":10668,"Ġrej":10669,"Ġpropri":10670,"eced":10671,"Ġham":10672,"Ġhorses":10673,"uty":10674,"ott":10675,"ĠArab":10676,"Ġunch":10677,"ĠMT":10678,"Ġresist":10679,"Ġclick":10680,"Ġranges":10681,"Ġobfusc":10682,"ĠPart":10683,"Ġhearing":10684,"ĠEar":10685,"ĠLif":10686,"Ġmanag":10687,"ĠNMT":10688,"Ġouter":10689,"ativeness":10690,"ĠGym":10691,"Ġdiscount":10692,"Ġsubjec":10693,"Ġsubtask":10694,"Ġpositional":10695,"Ġexpense":10696,"Ġregister":10697,"ameter":10698,"ensable":10699,"ĠUser":10700,"ĠUCT":10701,"ĠUCB":10702,"Ġinstability":10703,"Ġwilling":10704,"Ġpharm":10705,"ĠKGs":10706,"ĠVirtual":10707,"parable":10708,"ĠForm":10709,"Ġstands":10710,"complexity":10711,"Ġsheds":10712,"ĠConn":10713,"Ġachievements":10714,"Ġstores":10715,"greedy":10716,"Ġsubspaces":10717,"Ġparameterization":10718,"Ġreflex":10719,"Ġexecutions":10720,"Ġexecutable":10721,"Ġpostulate":10722,"Ġprotected":10723,"requis":10724,"Ġaccountability":10725,"Ġreadings":10726,"variable":10727,"MLN":10728,"MCMC":10729,"arsad":10730,"Ġappearing":10731,"Ġconnectives":10732,"Ġparticipant":10733,"Ġgrand":10734,"Ġpersonalization":10735,"Ġimposes":10736,"Ġmanipulations":10737,"Ġpipelines":10738,"Ġinvariants":10739,"Ġunsafe":10740,"Ġbreakfast":10741,"OPs":10742,"ĠDAGs":10743,"ĠMatching":10744,"Ġfluent":10745,"Ġdeleg":10746,"Ġstimulus":10747,"ĠAGM":10748,"Engl":10749,"Ġfloating":10750,"Ġtrigger":10751,"Ġsingular":10752,"Ġarrangement":10753,"identification":10754,"Ġencompasses":10755,"labelled":10756,"Why":10757,"Ġinstitutions":10758,"Ġresilient":10759,"Ġbirth":10760,"Ġunsatisfiable":10761,"ĠNormal":10762,"autiful":10763,"Ġbattery":10764,"Ġearnest":10765,"ĠPetri":10766,"friendly":10767,"ĠSalesman":10768,"Ġdiagnose":10769,"FP":10770,"MN":10771,"WO":10772,"augmented":10773,"bar":10774,"domin":10775,"iant":10776,"sk":10777,"syn":10778,"ture":10779,"together":10780,"vability":10781,"oned":10782,"Ġsti":10783,"Ġsector":10784,"isk":10785,"Ġfores":10786,"Ġinject":10787,"anical":10788,"itated":10789,"Ġbes":10790,"ashing":10791,"asters":10792,"elve":10793,"Ġprop":10794,"ĠTaking":10795,"oles":10796,"Ġbeat":10797,"Ġviability":10798,"ĠAP":10799,"selection":10800,"uced":10801,"ĠIncre":10802,"Ġsex":10803,"ĠMix":10804,"ĠSparse":10805,"Ġspike":10806,"Ġadverse":10807,"Ġatom":10808,"Ġchronic":10809,"ĠDri":10810,"epistemic":10811,"aped":10812,"Ġagency":10813,"ieties":10814,"ĠROC":10815,"Ġdiss":10816,"Ġplacing":10817,"Ġclassifications":10818,"Ġrounds":10819,"Ġprovision":10820,"Ġpretraining":10821,"ĠNaive":10822,"ularly":10823,"Ġstructuring":10824,"Ġauthentic":10825,"Ġspecifies":10826,"Ġnonconvex":10827,"Ġindisp":10828,"--âĢĿ":10829,"Ġseverity":10830,"Ġmainstream":10831,"henoy":10832,"Ġmember":10833,"Ġclassifies":10834,"ĠContr":10835,"Ġcrime":10836,"Ġendow":10837,"ĠExperience":10838,"Ġblame":10839,"ĠExperiment":10840,"Ġfounded":10841,"Ġschemas":10842,"Ġsitting":10843,"ancies":10844,"ĠEntropy":10845,"Ġcontract":10846,"ĠYour":10847,"rieval":10848,"Ġreliance":10849,"Ġmotivations":10850,"Ġhealthy":10851,"Ġexhibited":10852,"Ġassisting":10853,"ilibrium":10854,"robi":10855,"Ġauthoring":10856,"Ġtrusted":10857,"Ġinvited":10858,"Ġtaxi":10859,"Ġignores":10860,"Ġforecasts":10861,"ĠTraffic":10862,"ĠApplying":10863,"Ġdifferentiate":10864,"Ġadvancement":10865,"ĠSuper":10866,"Ġviolations":10867,"Ġbridges":10868,"ĠDistribution":10869,"Ġvulnerability":10870,"ĠOrgan":10871,"Ġdeviations":10872,"Ġcompliance":10873,"rangian":10874,"Ġdisplayed":10875,"Ġmetaheuristics":10876,"Ġmultiplicative":10877,"Ġpiecewise":10878,"Ġhopes":10879,"Ġanteced":10880,"Ġfigures":10881,"Ġinquiry":10882,"ĠAssoci":10883,"Ġprohibitive":10884,"ĠCFR":10885,"ĠRobotics":10886,"ĠEspecially":10887,"Ġadversarially":10888,"Ġguarded":10889,"ĠCalculus":10890,"Ġconvinced":10891,"Ġdeformable":10892,"Ġqueue":10893,"ĠSolomonoff":10894,"Ġpervasive":10895,"ĠArgumentation":10896,"youtu":10897,"engeance":10898,"English":10899,"Good":10900,"GCN":10901,"HP":10902,"Me":10903,"NT":10904,"Us":10905,"ck":10906,"gical":10907,"sens":10908,"uce":10909,"visual":10910,"Ġ~":10911,"Ġram":10912,"Ġiron":10913,"isible":10914,"Ġwants":10915,"Ġfancy":10916,"Ġfountain":10917,"Ġdict":10918,"Ġdrones":10919,"any":10920,"itted":10921,"Ġreact":10922,"etch":10923,"urst":10924,"Ġho":10925,"Ġlung":10926,"ĠTrees":10927,"versi":10928,"irty":10929,"plac":10930,"ucid":10931,"umbers":10932,"ĠInverse":10933,"Ġintents":10934,"Ġenem":10935,"Ġseq":10936,"ĠMixed":10937,"ĠMAS":10938,"Ġcloning":10939,"ĠThose":10940,"ĠBank":10941,"ĠOB":10942,"ĠPCA":10943,"Ġheat":10944,"ĠRad":10945,"ĠRRT":10946,"ĠHess":10947,"ĠHand":10948,"Ġnovice":10949,"Ġdisrup":10950,"ĠEX":10951,"Ġrotation":10952,"Ġmaneu":10953,"Ġoptimizer":10954,"Ġprevention":10955,"ĠNets":10956,"Ġoverw":10957,"ĠGrid":10958,"Ġgrade":10959,"Ġautoregressive":10960,"Ġfinance":10961,"there":10962,"Ġachievable":10963,"ouble":10964,"Ġcolony":10965,"ĠProv":10966,"ĠProceedings":10967,"anish":10968,"Ġconfron":10969,"Ġunderstandable":10970,"yship":10971,"Ġretraining":10972,"Ġviewing":10973,"Ġcritically":10974,"Ġextractor":10975,"Ġcardi":10976,"Ġpursue":10977,"inguish":10978,"Ġcontrastive":10979,"Ġplanar":10980,"Ġcrossing":10981,"Ġintuitions":10982,"Ġparticipating":10983,"cripts":10984,"Ġpartitioned":10985,"Ġ2008":10986,"Ġjustice":10987,"Ġecosystem":10988,"Ġrepeat":10989,"ĠGraphical":10990,"Ġterminology":10991,"Ġyounger":10992,"incre":10993,"ĠQuery":10994,"IFT":10995,"Ġthresholds":10996,"cheduling":10997,"Ġprevented":10998,"Ġinstantiate":10999,"ĠProbability":11000,"ĠSupp":11001,"Ġviolate":11002,"Ġcredibility":11003,"ĠCharacter":11004,"Ġoutlines":11005,"Ġtwelve":11006,"organized":11007,"ĠHert":11008,"Ġinnovations":11009,"Ġcompliment":11010,"Ġquantifier":11011,"Ġcommittee":11012,"Ġoccupancy":11013,"Ġexclusive":11014,"Ġpursuit":11015,"Ġladyship":11016,"Ġfingers":11017,"Ġmissions":11018,"Ġcontradic":11019,"Ġuniqueness":11020,"Ġinversion":11021,"Ġdeceptive":11022,"Ġcivility":11023,"Ġimbalanced":11024,"Ġsacrificing":11025,"Ġabundant":11026,"Ġthermal":11027,"Ġclarify":11028,"ĠPeople":11029,"Ġcounterexample":11030,"Ġwearable":11031,"Ġconstituent":11032,"ĠWhereas":11033,"Ġempowerment":11034,"omorphism":11035,"Ġbootstrapping":11036,"Ġbreakthroughs":11037,"Ġunpredictable":11038,"ĠLagrangian":11039,"Ġneuromorphic":11040,"Ġnegligible":11041,"intuitive":11042,"ĠKolmogorov":11043,"ĠHamilton":11044,"Ġpeculi":11045,"Ġindispensable":11046,"?\"":11047,"GO":11048,"GR":11049,"Graph":11050,"HA":11051,"IoT":11052,"LC":11053,"PF":11054,"TT":11055,"^\\":11056,"_\\":11057,"gal":11058,"nam":11059,"oCo":11060,"rational":11061,"Ġ>":11062,"inery":11063,"invariant":11064,"Ġcart":11065,"Ġofficial":11066,"Ġfro":11067,"Ġinability":11068,"Ġnur":11069,"Ġnative":11070,"acc":11071,"Ġhall":11072,"Ġgall":11073,"Ġgrey":11074,"Ġcongr":11075,"ĠTech":11076,"Ġstem":11077,"Ġalerts":11078,"Ġbeautiful":11079,"quer":11080,"fords":11081,"Ġcompass":11082,"Ġdefe":11083,"ĠAir":11084,"ĠMaking":11085,"Ġapproval":11086,"ĠSat":11087,"ĠSum":11088,"Ġperplexity":11089,"Ġads":11090,"ĠCond":11091,"Ġimpr":11092,"Ġcontro":11093,"ĠBrain":11094,"ĠPSPACE":11095,"sip":11096,"ĠHaving":11097,"Ġrose":11098,"udes":11099,"endritic":11100,"Ġmultipl":11101,"Ġmultiset":11102,"Ġmultilayer":11103,"teen":11104,"Ġenvision":11105,"Ġextensible":11106,"Ġnontrivial":11107,"track":11108,"Ġ27":11109,"Ġidi":11110,"Ġapproximators":11111,"Ġcausing":11112,"Ġvisits":11113,"Ġencaps":11114,"Ġsynergy":11115,"Ġscaled":11116,"Ġraising":11117,"Ġsurge":11118,"Ġtargeting":11119,"Ġfacilities":11120,"ĠLearn":11121,"ĠReLU":11122,"Ġblur":11123,"Ġblocking":11124,"Ġmyster":11125,"Ġpredictable":11126,"Ġpracticality":11127,"Ġposted":11128,"Ġregularity":11129,"Ġelucid":11130,"requent":11131,"Ġexamination":11132,"Ġtransformer":11133,"Ġcomprehend":11134,"Ġ96":11135,"relations":11136,"Ġtackled":11137,"google":11138,"Ġconstants":11139,"Ġinstruments":11140,"Ġsocietal":11141,"Ġlistening":11142,"Ġelectrical":11143,"Ġmanipulated":11144,"Ġ2009":11145,"Ġrelaxations":11146,"ĠGraphs":11147,"generating":11148,"Ġdebates":11149,"ĠSpatial":11150,"Ġbegun":11151,"ĠAppro":11152,"Ġsliding":11153,"Ġfaulty":11154,"ĠDistance":11155,"Ġevident":11156,"Ġremoves":11157,"ĠMatrix":11158,"Ġcounterfactuals":11159,"Ġpacket":11160,"Ġrigorously":11161,"ĠRegion":11162,"Ġorganizational":11163,"Ġchemistry":11164,"Ġmistaken":11165,"Ġperceptron":11166,"Ġtrouble":11167,"ĠUniversal":11168,"Ġlexicon":11169,"eleb":11170,"Ġstriking":11171,"Ġprohibitively":11172,"Ġofficers":11173,"matching":11174,"interpretable":11175,"Ġreconf":11176,"approximation":11177,"Ġconvincing":11178,"Ġlandmarks":11179,"Ġcaught":11180,"Ġprepare":11181,"occurrence":11182,"Ġcreature":11183,"unication":11184,"Ġrecomb":11185,"Ġportions":11186,"Ġevacuation":11187,"Ġintellectual":11188,"ichotom":11189,"ĠArabic":11190,"ĠHessian":11191,"ĠHertfords":11192,"ĠHertfordshire":11193,"98":11194,"For":11195,"Gaussian":11196,"Ph":11197,"RTS":11198,"SW":11199,"TH":11200,"Zero":11201,"difference":11202,"hot":11203,"lar":11204,"ny":11205,"run":11206,"tang":11207,"techn":11208,"Ġtighter":11209,"tibility":11210,"Ġfic":11211,"Ġfusing":11212,"Ġbic":11213,"aste":11214,"Ġnational":11215,"ecraft":11216,"implement":11217,"url":11218,"ularities":11219,"vement":11220,"uni":11221,"ĠTerm":11222,"osely":11223,"ĠIDS":11224,"Ġcompelling":11225,"ĠIntr":11226,"rens":11227,"Ġshook":11228,"ayer":11229,"ĠMary":11230,"istinguish":11231,"Ġresemb":11232,"ĠSO":11233,"Ġcluttered":11234,"Ġspend":11235,"ĠCent":11236,"ightened":11237,"ferencing":11238,"Ġchief":11239,"ĠDep":11240,"ĠBour":11241,"ĠOM":11242,"Ġrepetitive":11243,"ĠFed":11244,"ĠPoint":11245,"ĠRo":11246,"Ġdisorders":11247,"Ġdissimilarity":11248,"ĠEV":11249,"Ġinterdisciplinary":11250,"Ġhashing":11251,"ĠLab":11252,"ĠLight":11253,"Ġconsol":11254,"Ġemission":11255,"Ġassured":11256,"Ġassets":11257,"Ġdefects":11258,"Ġregulations":11259,"ports":11260,"Ġ29":11261,"Ġobsc":11262,"ĠUK":11263,"ynamics":11264,"ĠExpectation":11265,"Ġhandful":11266,"Ġintelligently":11267,"Ġvisibility":11268,"Ġsynchronous":11269,"Ġformalizing":11270,"ĠOnly":11271,"Ġtoolbox":11272,"Ġrememb":11273,"Ġconverts":11274,"scill":11275,"ropol":11276,"ĠDeepM":11277,"Ġcategorized":11278,"Ġposts":11279,"Ġposter":11280,"Ġaffinity":11281,"Ġinfluencing":11282,"ĠAda":11283,"Ġgeographic":11284,"Ġseparability":11285,"Ġaccessibility":11286,"Ġposteriori":11287,"calculus":11288,"Ġ75":11289,"Ġsummarized":11290,"Ġsummarizes":11291,"Ġimpossibility":11292,"ĠTransE":11293,"Ġdigit":11294,"Ġreflection":11295,"Ġfunctionalities":11296,"Ġeconomy":11297,"Ġvirtue":11298,"ĠDLs":11299,"ĠSpeech":11300,"Ġholding":11301,"Ġspeakers":11302,"Ġbridging":11303,"Ġidentifiability":11304,"Ġversa":11305,"exploration":11306,"Ġgranular":11307,"Ġradio":11308,"ĠExplan":11309,"Ġembodiment":11310,"Ġshopping":11311,"ĠPrediction":11312,"Ġattained":11313,"Ġclients":11314,"Ġpursued":11315,"attribute":11316,"Ġpedestrians":11317,"Ġscreen":11318,"ĠStructured":11319,"Ġgolden":11320,"Ġbarriers":11321,"Ġunrestricted":11322,"ĠDesigning":11323,"demand":11324,"Ġanxious":11325,"Ġexposure":11326,"Ġhorse":11327,"Ġkinematic":11328,"Ġexcessive":11329,"Ġrecruit":11330,"Ġpurchase":11331,"ĠObservable":11332,"checking":11333,"ĠEnsemble":11334,"ĠMicrosoft":11335,"Ġvoxel":11336,"annotated":11337,"Ġnotoriously":11338,"overnment":11339,"Ġmachinery":11340,"Ġintricate":11341,"-$":11342,"ANN":11343,"BI":11344,"Im":11345,"KE":11346,"RS":11347,"Sp":11348,"UGE":11349,"ais":11350,"bur":11351,"cue":11352,"coded":11353,"jud":11354,"kes":11355,"loc":11356,"power":11357,"thes":11358,"uate":11359,"Ġlying":11360,"Ġtears":11361,"herom":11362,"Ġoscill":11363,"Ġpiv":11364,"Ġcub":11365,"Ġcortex":11366,"Ġwar":11367,"Ġfem":11368,"Ġduty":11369,"itary":11370,"icate":11371,"usiness":11372,"Ġgating":11373,"Ġexception":11374,"Ġexogenous":11375,"Ġwealth":11376,"ĠWMT":11377,"Ġvain":11378,"Ġwhis":11379,"Ġdeemed":11380,"ĠATP":11381,"ĠMultim":11382,"Ġpermit":11383,"ocular":11384,"ĠCG":11385,"ĠCour":11386,"ĠDAR":11387,"ĠBNs":11388,"ĠBarsad":11389,"Ġreputation":11390,"Ġrepetition":11391,"ĠFitz":11392,"ĠFlick":11393,"Ġcoh":11394,"ĠEDA":11395,"ĠELM":11396,"Ġinterdepend":11397,"udy":11398,"phr":11399,"Ġprerequis":11400,"enda":11401,"Ġmouth":11402,"Ġprocessor":11403,"Ġdetections":11404,"straint":11405,"Ġminute":11406,"tility":11407,"Ġlocating":11408,"sually":11409,"Ġuncover":11410,"Ġgrounds":11411,"rice":11412,"ĠVR":11413,"ĠVengeance":11414,"ĠForster":11415,"Ġinspect":11416,"Ġargu":11417,"Ġsurpasses":11418,"hips":11419,"ĠReplay":11420,"Ġpathway":11421,"develop":11422,"Ġstrongest":11423,"Ġabstracts":11424,"Ġimplied":11425,"ordering":11426,"Ġconditionals":11427,"ĠEnd":11428,"Ġsuperposition":11429,"ĠResource":11430,"Ġaccessed":11431,"Ġsummer":11432,"ĠIntu":11433,"Ġresearches":11434,"iguration":11435,"Ġadvantageous":11436,"ĠTrust":11437,"Ġconnects":11438,"Ġsummarizing":11439,"Ġtranslates":11440,"ĠComputation":11441,"ĠSPNs":11442,"Ġabsent":11443,"Ġtaxonomies":11444,"2016":11445,"Ġexciting":11446,"Ġtravelling":11447,"Ġgenre":11448,"Ġprovenance":11449,"Ġrenders":11450,"Ġindexing":11451,"Ġviolated":11452,"Ġcatalog":11453,"Ġarrived":11454,"Ġpropagate":11455,"Ġpackages":11456,"AVs":11457,"Ġsteering":11458,"ĠRegression":11459,"Ġcomprised":11460,"ĠInteger":11461,"Ġadequately":11462,"III":11463,"Ġlandscapes":11464,"Ġprofessionals":11465,"PLL":11466,"Ġabsolutely":11467,"understand":11468,"ĠNonetheless":11469,"learned":11470,"Ġtactile":11471,"Ġimitating":11472,"Ġconceal":11473,"Ġbootstrap":11474,"Ġreconc":11475,"Ġsocieties":11476,"Ġprevalence":11477,"Ġrecipe":11478,"Ġparaphrase":11479,"Ġartifact":11480,"Trans":11481,"ĠDeterministic":11482,"Ġourselves":11483,"ĠDiagrams":11484,"Ġunusual":11485,"document":11486,"Ġoverwhel":11487,"ĠBourgh":11488,"ĠFlickr":11489,"85":11490,"86":11491,"Bl":11492,"JoCo":11493,"LDA":11494,"Not":11495,"Op":11496,"SGD":11497,"UP":11498,"after":11499,"categor":11500,"hu":11501,"ium":11502,"jug":11503,"link":11504,"random":11505,"tu":11506,"tative":11507,"taking":11508,"Ġsounds":11509,"enabled":11510,"Ġoil":11511,"Ġpow":11512,"Ġpherom":11513,"Ġmur":11514,"iche":11515,"ecks":11516,"Ġgated":11517,"rais":11518,"ateau":11519,"Ġaside":11520,"ĠIE":11521,"ĠIde":11522,"Ġshares":11523,"Ġunsu":11524,"istem":11525,"Ġrespects":11526,"ĠSpec":11527,"Ġkne":11528,"arian":11529,"ĠCH":11530,"ĠCre":11531,"ĠCQs":11532,"Ġimpati":11533,"opath":11534,"Ġattitude":11535,"ĠDST":11536,"ĠFair":11537,"Ġheight":11538,"Ġincon":11539,"Ġrelie":11540,"Ġpreparation":11541,"ĠNS":11542,"Ġtiming":11543,"olicies":11544,"Ġgeneralizable":11545,"Ġstructurally":11546,"ceptive":11547,"Ġdistribute":11548,"Ġamiable":11549,"Ġmatters":11550,"ĠUsually":11551,"Ġcoloring":11552,"Ġavat":11553,"Ġcalling":11554,"Ġvisu":11555,"Ġlocalized":11556,"Ġsurgical":11557,"Ġmaximized":11558,"ĠWho":11559,"Ġentering":11560,"deg":11561,"rows":11562,"Ġadaptability":11563,"Ġneglect":11564,"Ġneglected":11565,"ĠStanford":11566,"gregation":11567,"Ġpersona":11568,"Ġinitialized":11569,"Ġannotate":11570,"Ġpublications":11571,"Ġreviewing":11572,"ranking":11573,"retched":11574,"Ġalongside":11575,"Ġabstracted":11576,"Ġreplacement":11577,"Ġforeign":11578,"ĠGenerating":11579,"Ġreachable":11580,"Ġ65":11581,"Ġdistinctive":11582,"Ġparticipate":11583,"grounded":11584,"oker":11585,"Ġlistened":11586,"MARL":11587,"Ġprototypical":11588,"Ġinvalid":11589,"iece":11590,"ĠOptimal":11591,"autious":11592,"Ġchaining":11593,"Ġexchanges":11594,"Ġdominated":11595,"Ġgenu":11596,"Ġunsatis":11597,"Ġelicited":11598,"ointed":11599,"effect":11600,"Ġfrontier":11601,"Ġdiffering":11602,"Ġinfrastructures":11603,"Ġconjectures":11604,"ĠAutoML":11605,"Ġprioritization":11606,"Ġlogistics":11607,"ĠNotably":11608,"ĠDiscovery":11609,"Ġconcentration":11610,"Ġtactical":11611,"ĠStructure":11612,"ĠSimilarity":11613,"ĠQualitative":11614,"Ġocclusions":11615,"probabilistic":11616,"Ġearthqu":11617,"ĠApproximate":11618,"Ġpitch":11619,"Ġrenewed":11620,"Bayesian":11621,"Ġprolif":11622,"Ġbilinear":11623,"Ġbreadth":11624,"Ġdialec":11625,"Ġannounce":11626,"Ġvolumes":11627,"Ġunderpin":11628,"Ġcybersecurity":11629,"Ġspontane":11630,"89":11631,"90":11632,"CV":11633,"FE":11634,"GC":11635,"IA":11636,"KT":11637,"RB":11638,"aided":11639,"both":11640,"don":11641,"gen":11642,"high":11643,"powered":11644,"sentence":11645,"water":11646,"eral":11647,"endi":11648,"Ġpity":11649,"Ġpill":11650,"rout":11651,"Ġanch":11652,"Ġdose":11653,"Ġdichotom":11654,"lective":11655,"Ġbilingual":11656,"asps":11657,"Ġprote":11658,"ĠTurk":11659,"perto":11660,"ifiers":11661,"Ġ(\\":11662,"Ġmodulo":11663,"Ġuseless":11664,"izar":11665,"ĠMP":11666,"ĠMari":11667,"ĠSer":11668,"ĠSud":11669,"ĠCloud":11670,"ĠDar":11671,"ĠDifferential":11672,"Ġquest":11673,"ĠBal":11674,"Ġstrange":11675,"ĠFl":11676,"ĠFactor":11677,"ributions":11678,"Ġdesider":11679,"ĠRout":11680,"ĠRules":11681,"ĠRTS":11682,"ĠHRL":11683,"ĠHMM":11684,"Ġtracing":11685,"Ġdisaster":11686,"Ġrot":11687,"phase":11688,"ĠLife":11689,"tained":11690,"Ġpreconditions":11691,"Ġcompleting":11692,"ĠNational":11693,"ĠNorth":11694,"Ġyouth":11695,"ĠGRU":11696,"thora":11697,"Ġpoetry":11698,"Ġexpands":11699,"ĠâĢľ_":11700,"Ġdistributing":11701,"Ġcapsule":11702,"Ġindistinguish":11703,"Ġmined":11704,"Ġamor":11705,"Ġanybody":11706,"Ġsequencing":11707,"Ġapproximator":11708,"fying":11709,"Ġsynapses":11710,"Ġconfig":11711,"ĠOnto":11712,"comb":11713,"ultin":11714,"ovie":11715,"ĠConventional":11716,"ĠRevenge":11717,"Ġretros":11718,"ĠExperimentally":11719,"Ġrevised":11720,"Ġlowest":11721,"ĠNeighbor":11722,"continuous":11723,"Ġrelatedness":11724,"oids":11725,"Ġcriti":11726,"Ġcategorize":11727,"Ġaffine":11728,"Ġnecessit":11729,"Ġmonocular":11730,"cluster":11731,"Ġcollapse":11732,"ARS":11733,"Ġeventual":11734,"ĠYork":11735,"ĠYoun":11736,"Ġreaders":11737,"ĠRespon":11738,"Ġdownload":11739,"ACS":11740,"otype":11741,"Ġdistinctions":11742,"Ġscheduled":11743,"mathbf":11744,"appa":11745,"Ġacceptability":11746,"ĠGoal":11747,"Ġplethora":11748,"ĠDLV":11749,"Ġterminal":11750,"Ġslower":11751,"Ġvolt":11752,"ĠQuantum":11753,"Ġpoliteness":11754,"Ġpenet":11755,"ĠInterpre":11756,"ooling":11757,"ĠOntologies":11758,"iques":11759,"Ġdoubly":11760,"ĠAutoencoder":11761,"ĠMIP":11762,"Ġtabu":11763,"Ġdiscipline":11764,"Ġhoped":11765,"ĠEvidence":11766,"Ġoccasionally":11767,"ĠAlphaGo":11768,"Ġbipolar":11769,"Ġmulticlass":11770,"Ġcoincide":11771,"Ġobliged":11772,"Ġaffordances":11773,"ĠTPLP":11774,"Ġdeliberation":11775,"Ġsweet":11776,"Ġsweep":11777,"Ġrewrite":11778,"Ġsupplementary":11779,"Ġcounterexamples":11780,"Ġsuddenly":11781,"Ġendeavour":11782,"Ġparametrized":11783,"ĠAssuming":11784,"Ġinappropriate":11785,"ĠError":11786,"Ġinadequate":11787,"Ġolder":11788,"Ġarguably":11789,",\\":11790,"-,":11791,"32":11792,"75":11793,"95":11794,"GN":11795,"Gener":11796,"NLI":11797,"RF":11798,"SMT":11799,"TC":11800,"cs":11801,"dd":11802,"fre":11803,"nd":11804,"nel":11805,"oked":11806,"sf":11807,"sensor":11808,"william":11809,"Ġsof":11810,"eno":11811,"atching":11812,"isis":11813,"isations":11814,"rote":11815,"Ġwarning":11816,"Ġwrote":11817,"Ġfuse":11818,"Ġfuel":11819,"ardi":11820,"Ġmad":11821,"Ġbra":11822,"asm":11823,"Ġreused":11824,"Ġrejection":11825,"omorphic":11826,"Ġnom":11827,"Ġnerv":11828,"users":11829,"ulous":11830,"Ġlift":11831,"Ġlighting":11832,"Ġliber":11833,"uns":11834,"unting":11835,"ĠTM":11836,"ĠTs":11837,"Ġstro":11838,"Ġstairs":11839,"Ġstaff":11840,"char":11841,"Ġlets":11842,"ĠIL":11843,"terfactual":11844,"gered":11845,"Ġwholly":11846,"ainting":11847,"ĠAp":11848,"Ġshot":11849,"Ġunrelated":11850,"ĠSi":11851,"ĠSQuAD":11852,"Ġpause":11853,"ĠCS":11854,"ĠCU":11855,"ĠCur":11856,"ĠCAP":11857,"Ġcontam":11858,"ĠDense":11859,"Ġnetworked":11860,"ĠFive":11861,"Ġinterconnected":11862,"Ġinterchange":11863,"vile":11864,"Ġcomplements":11865,"ducing":11866,"Ġgradual":11867,"Ġrealizing":11868,"Ġdemonstrator":11869,"Ġfinish":11870,"tyard":11871,"Ġhighway":11872,"Ġsignatures":11873,"Ġcorrob":11874,"Ġdefenses":11875,"Ġpatch":11876,"Ġpatri":11877,"Ġjourn":11878,"Ġgrown":11879,"Ġadvancing":11880,"ĠKn":11881,"ĠVGG":11882,"Ġprobabilistically":11883,"Ġformalisation":11884,"Ġactionable":11885,"Ġblank":11886,"Ġpromises":11887,"ordinary":11888,"Ġvalidating":11889,"Ġdrives":11890,"Ġstochasticity":11891,"oidal":11892,"Ġaffairs":11893,"ometry":11894,"Ġregularly":11895,"ensitivity":11896,"Ġcontainment":11897,"titudes":11898,"ĠResear":11899,"Ġseparates":11900,"Ġprofound":11901,"quee":11902,"Ġmotivating":11903,"isson":11904,"Ġretrieving":11905,"Ġgeometrical":11906,"Ġfitted":11907,"Ġ64":11908,"Ġchecks":11909,"Ġorganize":11910,"Ġparticipation":11911,"Ġgrasps":11912,"hardness":11913,"Ġdelivers":11914,"Ġclaimed":11915,"Ġanalogies":11916,"Ġdemanding":11917,"Ġdecreased":11918,"Ġconcluded":11919,"Ġguaranteeing":11920,"Ġpayoffs":11921,"ĠZero":11922,"Ġshaped":11923,"Ġcutset":11924,"Ġimagination":11925,"Ġgoverned":11926,"ĠPerhaps":11927,"Ġrefinements":11928,"Ġphotos":11929,"Ġfixpoint":11930,"Ġcovariate":11931,"Ġquantifies":11932,"CRF":11933,"ĠBehavior":11934,"Ġcircumstance":11935,"Ġknapsack":11936,"Ġacademia":11937,"Ġhonest":11938,"ĠMOOC":11939,"Ġconcentrate":11940,"risk":11941,"Ġtutoring":11942,"Ġreformulation":11943,"Ġculture":11944,"Ġsubstitution":11945,"Ġhinders":11946,"Ġversatility":11947,"Ġapparently":11948,"Ġinterpol":11949,"Ġdisagreement":11950,"smooth":11951,"ĠEngine":11952,"Ġresilience":11953,"ĠMuJoCo":11954,"Ġinevitable":11955,"ĠStrategy":11956,"ĠTraveling":11957,"interested":11958,"Ġwarehouse":11959,"ocentric":11960,"Ġjudgement":11961,"Ġreconstructing":11962,"Ġmesh":11963,"Ġvalence":11964,"Ġalphabet":11965,"ĠImmune":11966,"ĠFitzwilliam":11967,"Eval":11968,"LD":11969,"Now":11970,"QU":11971,"SOM":11972,"eb":11973,"his":11974,"host":11975,"kin":11976,"mography":11977,"pedia":11978,"rant":11979,"uities":11980,"Ġut":11981,"ino":11982,"input":11983,"ench":11984,"ordered":11985,"Ġpace":11986,"Ġcautious":11987,"Ġwarr":11988,"Ġiner":11989,"Ġinstruct":11990,"Ġdrew":11991,"anim":11992,"itc":11993,"itably":11994,"Ġbrib":11995,"Ġbare":11996,"Ġbisim":11997,"asc":11998,"Ġrever":11999,"omics":12000,"uries":12001,"Ġhind":12002,"sto":12003,"Ġlas":12004,"Ġlambda":12005,"Ġgaming":12006,"unity":12007,"ĠTF":12008,"Ġstair":12009,"Ġalpha":12010,"ids":12011,"Ġlemm":12012,"ĠIB":12013,"Ġcomply":12014,"Ġsup":12015,"formative":12016,"ĠInception":12017,"Ġseat":12018,"istribution":12019,"ĠSafe":12020,"Ġring":12021,"ĠCOM":12022,"Ġchord":12023,"agog":12024,"iest":12025,"ĠBoost":12026,"Ġrepairs":12027,"ĠPA":12028,"tening":12029,"Ġdisposition":12030,"Ġrectang":12031,"Ġrelied":12032,"Ġoptimizers":12033,"ĠNER":12034,"ĠGNNs":12035,"Ġsubstructures":12036,"Ġfiner":12037,"Ġtransmit":12038,"iki":12039,"ĠUC":12040,"Ġstrategically":12041,"ponential":12042,"iances":12043,"Ġhandcrafted":12044,"Ġdepict":12045,"ĠKernel":12046,"ĠAnaly":12047,"Ġadaptivity":12048,"ultural":12049,"Ġconverted":12050,"Ġmeanwhile":12051,"Ġcountenance":12052,"Ġactu":12053,"ĠJap":12054,"ĠComplex":12055,"ropic":12056,"inson":12057,"Ġemployment":12058,"Ġsuitably":12059,"Ġcentered":12060,"readable":12061,"Ġequivalently":12062,"Ġseparable":12063,"Ġcurious":12064,"Ġdecomposes":12065,"Ġreturning":12066,"Ġforests":12067,"Ġfacilitated":12068,"Ġdrone":12069,"Ġorganizing":12070,"classical":12071,"ĠParallel":12072,"ĠSemi":12073,"ĠBenchmark":12074,"Ġmagnetic":12075,"Ġaccelerates":12076,"Ġinvitation":12077,"Ġ2000":12078,"Ġinfinitely":12079,"Ġcorrespondences":12080,"Ġconfirms":12081,"Ġcompiling":12082,"Ġbegins":12083,"Ġdifferentiation":12084,"Ġcircumvent":12085,"meric":12086,"ĠCollaborative":12087,"beit":12088,"Ġmitigation":12089,"minim":12090,"Ġcopying":12091,"Ġauthority":12092,"Ġcoalitions":12093,"ĠRegular":12094,"ĠPRO":12095,"Ġexceedingly":12096,"Ġdrugs":12097,"Ġretains":12098,"ĠPredicting":12099,"Ġbottlenecks":12100,"Ġpossesses":12101,"Ġsketches":12102,"Ġmasks":12103,"Ġtactics":12104,"ĠType":12105,"Ġlayouts":12106,"ĠTheoretical":12107,"Ġcontradiction":12108,"margin":12109,"Ġdegrade":12110,"ĠWorkshop":12111,"ĠContextual":12112,"Ġrewarding":12113,"Ġingredient":12114,"Ġdreadful":12115,"Ġinterlea":12116,"anese":12117,"Ġunavailable":12118,"Ġentanglement":12119,"Ġuniversally":12120,"Ġignorance":12121,"Ġentertainment":12122,"Ġbundle":12123,"Ġbreath":12124,"Ġforgot":12125,"Ġmanagers":12126,"Ġwhisper":12127,"ĠIntuitively":12128,"Ġdesiderata":12129,"91":12130,"94":12131,"BL":12132,"Lite":12133,"MAS":12134,"bot":12135,"bolic":12136,"belief":12137,"code":12138,"fix":12139,"functions":12140,"gain":12141,"hy":12142,"key":12143,"law":12144,"motion":12145,"nary":12146,"rm":12147,"spectral":12148,"tre":12149,"tag":12150,"two":12151,"zuma":12152,"Ġaug":12153,"inatorial":12154,"hears":12155,"titious":12156,"Ġove":12157,"Ġpock":12158,"Ġcod":12159,"rous":12160,"Ġwis":12161,"Ġdimin":12162,"Ġmam":12163,"Ġreperto":12164,"eted":12165,"Ġproud":12166,"Ġprojective":12167,"Ġproactive":12168,"Ġhint":12169,"Ġhints":12170,"Ġlag":12171,"Ġexposes":12172,"Ġstems":12173,"resource":12174,"ille":12175,"eme":12176,"eman":12177,"ticed":12178,"Ġwithd":12179,"ĠID":12180,"amps":12181,"Ġvac":12182,"ĠAmeric":12183,"ione":12184,"uched":12185,"Ġunary":12186,"Ġseason":12187,"ĠMc":12188,"ĠMAC":12189,"Ġpertaining":12190,"Ġclasp":12191,"Ġmethodological":12192,"ĠCM":12193,"Ġparam":12194,"ĠDyn":12195,"ĠDCA":12196,"ĠDouble":12197,"ĠDPLL":12198,"Ġnetworking":12199,"ĠFeed":12200,"ĠFisher":12201,"ĠPop":12202,"ĠPost":12203,"Ġcoff":12204,"Ġcooking":12205,"Ġsettle":12206,"ĠHill":12207,"ĠEarly":12208,"Ġinterconn":12209,"ĠLS":12210,"existing":12211,"Ġoptimise":12212,"ĠGr":12213,"Ġsubrout":12214,"happ":12215,"Ġthereof":12216,"Ġ28":12217,"Ġmaze":12218,"Ġthemes":12219,"ĠExtended":12220,"Ġestimations":12221,"Ġsuccessively":12222,"Ġlocalize":12223,"Ġvisualizing":12224,"ĠConclusion":12225,"Ġmaximally":12226,"adeh":12227,"Ġattentional":12228,"Ġentry":12229,"Ġrevise":12230,"ĠNeut":12231,"conc":12232,"Ġstatistic":12233,"Ġrecommending":12234,"Ġphysician":12235,"Ġservant":12236,"Ġranks":12237,"Ġnegatively":12238,"Ġillustration":12239,"Ġliked":12240,"Ġprotect":12241,"Ġcentury":12242,"Ġdealt":12243,"Ġepid":12244,"Ġepistem":12245,"Ġ500":12246,"abetes":12247,"mean":12248,"Ġcurv":12249,"Ġcomprehensible":12250,"Ġhistories":12251,"Ġlinkage":12252,"Ġcrucially":12253,"ĠImpro":12254,"ographs":12255,"Ġ82":12256,"Ġparticipated":12257,"Ġitemset":12258,"Ġcourtyard":12259,"ĠColony":12260,"criptions":12261,"Ġdistinguishes":12262,"Ġ2006":12263,"Ġterminate":12264,"NFIS":12265,"Ġblockchain":12266,"Ġmarginalization":12267,"Ġperiodic":12268,"Ġinnate":12269,"balanced":12270,"Ġcircumscription":12271,"ĠPreviously":12272,"Ġidentifiable":12273,"Ġimagined":12274,"without":12275,"ĠPhill":12276,"Ġalleviates":12277,"^{-":12278,"Ġprospects":12279,"Ġpedagog":12280,"ĠBeing":12281,"Ġbinar":12282,"Ġcommitment":12283,"Ġdeletion":12284,"Ġexemplify":12285,"Ġhurried":12286,"Ġaxiomatiz":12287,"Ġfaithfully":12288,"Ġundesired":12289,"rawing":12290,"EEE":12291,"ĠSequence":12292,"ĠAVs":12293,"ĠROUGE":12294,"Ġowing":12295,"Ġowner":12296,"Ġinventory":12297,"probability":12298,"ĠEngineering":12299,"arrass":12300,"Ġcontingency":12301,"Ġprepared":12302,"Ġprecedence":12303,"Ġcolumns":12304,"brand":12305,"ĠDBpedia":12306,"Ġadvocate":12307,"ĠDeveloping":12308,"Ġclimate":12309,"ĠFreebase":12310,"Ġbrowsing":12311,"Ġslice":12312,"ĠElectronic":12313,"Ġepochs":12314,"ĠCyber":12315,"Ġadministr":12316,"Ġfluctuations":12317,"ĠSchema":12318,"ĠRetrieval":12319,"Ġlyrics":12320,"Ġdubbed":12321,"Ġnuclear":12322,"Ġmortality":12323,"dominated":12324,"ĠTechniqu":12325,"Ġcompassion":12326,"Ġconsolid":12327,"ĠDeepMind":12328,"ĠMultimodal":12329,"raisal":12330,"Ġcorrobor":12331,"ĠResearchers":12332,"26":12333,"48":12334,"93":12335,"AF":12336,"BB":12337,"Cs":12338,"IE":12339,"MLP":12340,"OWL":12341,"Rec":12342,"RDF":12343,"constr":12344,"cases":12345,"causal":12346,"def":12347,"dimension":12348,"eg":12349,"following":12350,"habil":12351,"ij":12352,"near":12353,"oul":12354,"rs":12355,"ye":12356,"}}":12357,"Ġtile":12358,"Ġtied":12359,"Ġsel":12360,"enet":12361,"orch":12362,"Ġcro":12363,"attle":12364,"roph":12365,"Ġants":12366,"Ġangry":12367,"Ġfish":12368,"Ġmag":12369,"lets":12370,"Ġblow":12371,"ĠeB":12372,"elberg":12373,"acon":12374,"imil":12375,"Ġhabit":12376,"cean":12377,"Ġlosing":12378,"Ġgas":12379,"ĠTer":12380,"igher":12381,"ĠIsing":12382,"ĠAug":12383,"Ġintension":12384,"Ġdatalog":12385,"ĠMain":12386,"ĠMTL":12387,"Ġresent":12388,"Ġresonance":12389,"ĠSM":12390,"ĠSqu":12391,"Ġimped":12392,"Ġimputation":12393,"Ġattitudes":12394,"agents":12395,"ĠDr":12396,"ĠDBN":12397,"ĠFL":12398,"ĠFS":12399,"ĠRest":12400,"ĠHurst":12401,"Ġsolar":12402,"Ġnoises":12403,"Ġrecovers":12404,"Ġincidence":12405,"Ġinterdependent":12406,"Ġconsult":12407,"ĠNAS":12408,"Ġaccumul":12409,"Ġmeets":12410,"ĠGod":12411,"Ġdistress":12412,"Ġassimil":12413,"Ġanalysts":12414,"Ġrealm":12415,"Ġprobing":12416,"Ġverbs":12417,"Ġtransit":12418,"Ġtranscription":12419,"Ġcortical":12420,"Ġindetermin":12421,"Ġindifference":12422,"ĠUsers":12423,"Ġtyping":12424,"Ġobjection":12425,"Ġcolors":12426,"ĠKR":12427,"Ġcharacterisation":12428,"Ġconfoun":12429,"Ġconfounding":12430,"ĠVery":12431,"Ġinterpreter":12432,"ĠReiter":12433,"ĠJoint":12434,"Ġelections":12435,"Ġsky":12436,"Ġcompetitively":12437,"Ġellip":12438,"Ġcloseness":12439,"Ġdiscriminators":12440,"Ġaligning":12441,"Ġlifetime":12442,"DAGs":12443,"Ġ93":12444,"otypic":12445,"Ġdrif":12446,"Ġsuggestion":12447,"ISM":12448,"ĠMontezuma":12449,"Ġderivations":12450,"Ġsocially":12451,"Ġconvexity":12452,"Ġrecurrence":12453,"Ġdeclared":12454,"Ġlifting":12455,"rupt":12456,"Ġjustifications":12457,"Ġpoll":12458,"Ġthresholding":12459,"Ġdelivering":12460,"Ġmomentum":12461,"ĠMAX":12462,"Ġarriving":12463,"Ġmitigating":12464,"Ġlabelling":12465,"GDs":12466,"Ġ1990":12467,"Ġadequacy":12468,"Ġenumerating":12469,"\\'{":12470,"Ġattains":12471,"observable":12472,"ĠSolving":12473,"CSPs":12474,"Ġlaborious":12475,"attack":12476,"ĠSymbolic":12477,"ĠAPIs":12478,"Ġtuple":12479,"ĠMinimum":12480,"winner":12481,"ĠVehic":12482,"Ġworkloads":12483,"ĠConfidence":12484,"ĠUAVs":12485,"Ġunintended":12486,"systems":12487,"Ġcampaigns":12488,"Ġarose":12489,"Ġstabilize":12490,"programming":12491,"falls":12492,"ĠHTN":12493,"Ġmanuscript":12494,"Ġtrustworthy":12495,"ĠRecommender":12496,"Ġegocentric":12497,"ĠDigital":12498,"stationarity":12499,"Ġhousehold":12500,"sourced":12501,"Ġrestaurant":12502,"Ġteammates":12503,"technical":12504,"Ġposteriors":12505,"Ġpheromone":12506,"Ġamortiz":12507,"Ġnominal":12508,"Ġnervous":12509,"BERT":12510,"EV":12511,"Fuzzy":12512,"HMMs":12513,"KA":12514,"OA":12515,"PPO":12516,"binary":12517,"cognitive":12518,"evalu":12519,"gue":12520,"hour":12521,"ius":12522,"jan":12523,"just":12524,"liv":12525,"mT":12526,"ned":12527,"oe":12528,"some":12529,"Ġ:":12530,"inely":12531,"hether":12532,"reements":12533,"Ġpan":12534,"Ġcue":12535,"Ġcraw":12536,"Ġwel":12537,"Ġinefficiency":12538,"Ġineffective":12539,"Ġdil":12540,"Ġdress":12541,"Ġforums":12542,"Ġliqu":12543,"unte":12544,"ĠTri":12545,"ĠWide":12546,"Ġsurely":12547,"Ġvess":12548,"aby":12549,"ainted":12550,"Ġunrealistic":12551,"Ġuneas":12552,"Ġunhapp":12553,"ĠMizar":12554,"Ġresort":12555,"features":12556,"ĠCV":12557,"ĠCar":12558,"ĠCAR":12559,"ĠDDPG":12560,"strong":12561,"strateg":12562,"ĠBase":12563,"ĠBern":12564,"Ġartis":12565,"Ġagenda":12566,"ĠOh":12567,"arden":12568,"tentive":12569,"Ġhed":12570,"ĠHA":12571,"ĠED":12572,"ĠEner":12573,"ĠLord":12574,"Ġaband":12575,"Ġemulate":12576,"duced":12577,"ĠGR":12578,"Ġhumour":12579,"this":12580,"velope":12581,"Ġtrait":12582,"Ġminds":12583,"Ġfunctioning":12584,"oub":12585,"ensed":12586,"Ġuncons":12587,"uilt":12588,"Ġneeding":12589,"Ġadvis":12590,"iteration":12591,"Ġcharacterise":12592,"Ġconfident":12593,"Ġternary":12594,"Ġminimally":12595,"Ġupl":12596,"Ġshel":12597,"Ġcrisis":12598,"Ġworldwide":12599,"Ġpriorities":12600,"Ġindependences":12601,"ĠUnit":12602,"ĠJuly":12603,"Ġelev":12604,"ĠComprehen":12605,"Ġpresum":12606,"Ġadaptable":12607,"Ġrespecting":12608,"ĠArcade":12609,"Ġowners":12610,"Ġintractability":12611,"Ġloosely":12612,"Ġhyperbolic":12613,"ĠSecurity":12614,"Ġ92":12615,"Ġ94":12616,"Ġcoordinating":12617,"Ġdelta":12618,"Ġ83":12619,"Ġallocated":12620,"Ġallocating":12621,"Ġinstruc":12622,"Ġperturbed":12623,"CAL":12624,"ESs":12625,"Ġmassively":12626,"tifies":12627,"Ġmanipulators":12628,"Ġregional":12629,"Ġplease":12630,"DLs":12631,"ĠMetropol":12632,"Ġstratified":12633,"layered":12634,"Ġpolarity":12635,"ĠRobots":12636,"ĠInterval":12637,"Ġpreferable":12638,"Ġcredal":12639,"Ġpredecess":12640,"Ġgranules":12641,"Ġsetups":12642,"Ġcomprise":12643,"Ġburst":12644,"Ġgait":12645,"Ġmistake":12646,"Ġextraordinary":12647,"Ġoccupied":12648,"Ġpressing":12649,"BOA":12650,"Ġfractional":12651,"ĠStructural":12652,"Ġfortun":12653,"Ġdiscretized":12654,"integr":12655,"Ġsuspic":12656,"Ġstyl":12657,"Ġsubstitute":12658,"Ġreplicate":12659,"Ġhindsight":12660,"Ġstacked":12661,"Ġtriggered":12662,"regularized":12663,"Ġreproducibility":12664,"Ġwalls":12665,"Ġcoincides":12666,"Ġadvertisers":12667,"KBs":12668,"confidence":12669,"Markovian":12670,"Ġdiversified":12671,"Ġsnaps":12672,"Ġinevitably":12673,"intelligent":12674,"Ġultra":12675,"Ġastonishment":12676,"Ġsubgroups":12677,"squares":12678,"Ġtimetabling":12679,"ResNet":12680,"ĠDatabase":12681,"Ġunimodal":12682,"ĠBandit":12683,"Ġmerged":12684,"Ġcohort":12685,"Ġunsuitable":12686,"ĠYoung":12687,"Ġvoltage":12688,"freeness":12689,"Ġaugments":12690,"hearsal":12691,"ĠDyna":12692,"Ġcurvature":12693,"habilitation":12694,"Ġseldom":12695,"$),":12696,"42":12697,"BD":12698,"DDPG":12699,"Pearl":12700,"SG":12701,"SU":12702,"Text":12703,"Xiv":12704,"auth":12705,"cest":12706,"fine":12707,"}{\\":12708,"Ġ?":12709,"Ġ**":12710,"Ġtang":12711,"inated":12712,"ontic":12713,"onically":12714,"ref":12715,"Ġstic":12716,"Ġom":12717,"orc":12718,"orms":12719,"Ġpy":12720,"Ġpowered":12721,"aligned":12722,"ĠfMRI":12723,"ano":12724,"Ġmiles":12725,"itarian":12726,"Ġborder":12727,"Ġnu":12728,"Ġforaging":12729,"Ġlived":12730,"Ġlots":12731,"verbal":12732,"Ġaltered":12733,"Ġaltogether":12734,"osc":12735,"Ġweap":12736,"ĠWin":12737,"ĠIQ":12738,"Ġusable":12739,"terday":12740,"Ġviv":12741,"iration":12742,"ĠANNs":12743,"ĠApart":12744,"ĠABC":12745,"Ġneoc":12746,"ĠSing":12747,"ĠSource":12748,"Ġspans":12749,"ĠCa":12750,"ĠChess":12751,"Ġimplying":12752,"enceph":12753,"Ġparac":12754,"Ġparsers":12755,"Ġarrays":12756,"ĠFocus":12757,"ĠFuture":12758,"ĠFusion":12759,"ĠPT":12760,"ĠPot":12761,"ĠPort":12762,"ĠRef":12763,"ĠRank":12764,"ĠHIV":12765,"Ġplot":12766,"Ġplants":12767,"ĠEC":12768,"ĠER":12769,"Ġrooted":12770,"ĠLim":12771,"ĠLever":12772,"ĠGa":12773,"Ġdeterior":12774,"Ġhumanity":12775,"Ġpoem":12776,"Ġpointer":12777,"Ġfeaturing":12778,"Ġcommod":12779,"Ġdefect":12780,"Ġindifferent":12781,"oupled":12782,"ĠUse":12783,"ĠUCI":12784,"Ġsimulates":12785,"volving":12786,"Ġhandwriting":12787,"hemical":12788,"Ġdepic":12789,"Ġterror":12790,"Ġformalise":12791,"Ġformalised":12792,"ĠQoS":12793,"cient":12794,"Ġcorrections":12795,"Ġcorrecting":12796,"ĠAlgebra":12797,"SPI":12798,"Ġpopulated":12799,"Ġlikewise":12800,"Ġschemata":12801,"Ġviewpoints":12802,"ĠMarkovian":12803,"Ġiii":12804,"Ġcommunicated":12805,"Ġtransferability":12806,"Ġselfish":12807,"gmentation":12808,"clock":12809,"Ġexperimented":12810,"Ġarticulated":12811,"Ġyours":12812,"Ġspecialised":12813,"Ġloose":12814,"Ġtracker":12815,"Ġdiscriminating":12816,"shaped":12817,"ĠSeq":12818,"Ġobserves":12819,"Ġprogresses":12820,"ĠXAI":12821,"Ġkindness":12822,"Ġrestarts":12823,"ooting":12824,"MAB":12825,"Ġjudges":12826,"Ġreflected":12827,"Ġcontributing":12828,"Ġcontributed":12829,"Ġputs":12830,"Ġmalfunction":12831,"Ġpositioning":12832,"Ġregards":12833,"Ġrelaxing":12834,"ĠSemantics":12835,"Ġencouraged":12836,"Ġinsightful":12837,"Ġcardinal":12838,"ICE":12839,"Ġdominate":12840,"ateral":12841,"OLO":12842,"Ġpropagator":12843,"ĠMini":12844,"ĠMinecraft":12845,"computing":12846,"spatial":12847,"Ġacyclicity":12848,"ĠRelation":12849,"types":12850,"Ġshoes":12851,"ĠPrinciple":12852,"Ġuncontrol":12853,"Ġimprecision":12854,"Ġexemplars":12855,"ĠRepresentations":12856,"Ġfootprint":12857,"Ġproceeds":12858,"peer":12859,"Ġorganism":12860,"ambiguous":12861,"chestr":12862,"Ġenforced":12863,"Exp":12864,"Ġreconstructed":12865,"Ġstrike":12866,"ĠAlphaZero":12867,"Ġcleaning":12868,"Ġreformulate":12869,"Ġtrips":12870,"Ġexercises":12871,"Ġsubsumes":12872,"black":12873,"Ġdeparture":12874,"Ġadvertisements":12875,"Ġthermod":12876,"Ġexceptional":12877,"Ġurgent":12878,"Ġinterleaving":12879,"Ġarousal":12880,"Ġrollouts":12881,"Ġsubmissions":12882,"Ġsaddle":12883,"Ġfruitful":12884,"Ġsubsystems":12885,"Plan":12886,"Ġtherapy":12887,"ĠMechanical":12888,"ĠExplainable":12889,"Ġinspire":12890,"AbI":12891,"Ġfoster":12892,"Ġtroubles":12893,"Ġtruncated":12894,"ĠAdaBoost":12895,"thesis":12896,"Ġfemale":12897,"ĠSudoku":12898,"ĠPhillips":12899,"ĠVehicles":12900,"ĠEnergy":12901,"ĠMetropolis":12902,"encephalog":12903,",'":12904,"03":12905,"24":12906,"2000":12907,"31":12908,"65":12909,"70":12910,"88":12911,"92":12912,"97":12913,"ANNs":12914,"Delta":12915,"German":12916,"IST":12917,"Sc":12918,"Then":12919,"TCH":12920,"UE":12921,"UM":12922,"bo":12923,"cast":12924,"fD":12925,"fac":12926,"frame":12927,"gi":12928,"gro":12929,"ginal":12930,"htm":12931,"made":12932,"oull":12933,"pairs":12934,"ryp":12935,"tability":12936,"vidual":12937,"vectors":12938,"your":12939,"za":12940,"zes":12941,"}}$":12942,"Ġ|":12943,"Ġtick":12944,"Ġtender":12945,"Ġtaste":12946,"reci":12947,"Ġsni":12948,"Ġsides":12949,"orge":12950,"istive":12951,"Ġwarping":12952,"Ġdomes":12953,"Ġmil":12954,"Ġbow":12955,"Ġbanks":12956,"Ġrehabilitation":12957,"Ġthrown":12958,"Ġnice":12959,"uss":12960,"acious":12961,"iments":12962,"imbing":12963,"vehicle":12964,"Ġgar":12965,"utton":12966,"Ġstones":12967,"Ġalert":12968,"choice":12969,"osure":12970,"ossip":12971,"Ġmodifies":12972,"amber":12973,"Ġapps":12974,"essim":12975,"ĠAverage":12976,"ĠASR":12977,"plicit":12978,"redund":12979,"Ġunlimited":12980,"Ġunlabelled":12981,"Ġenforcement":12982,"ĠMK":12983,"ĠMDL":12984,"urely":12985,"ĠSets":12986,"adratic":12987,"Ġrated":12988,"Ġspin":12989,"Ġimpair":12990,"Ġchose":12991,"Ġchances":12992,"Ġchurch":12993,"ĠDa":12994,"ĠDCOP":12995,"Ġwheel":12996,"ĠBDD":12997,"ĠBefore":12998,"ĠFA":12999,"ĠPres":13000,"ĠPass":13001,"ĠPair":13002,"tending":13003,"Ġscaff":13004,"ĠRam":13005,"ĠHPC":13006,"pletion":13007,"Ġplag":13008,"ĠLabel":13009,"ĠNE":13010,"ĠNavig":13011,"ĠGit":13012,"Ġasset":13013,"Ġdemo":13014,"Ġdetr":13015,"Ġsubstr":13016,"Ġprobe":13017,"cepts":13018,"ipher":13019,"asonable":13020,"Ġseminal":13021,"lde":13022,"Ġpatrol":13023,"Ġbehaves":13024,"Ġsynonym":13025,"Ġextractive":13026,"Ġmemrist":13027,"Ġappliances":13028,"Ġcomparably":13029,"Ġvisualized":13030,"Ġcruel":13031,"Ġ33":13032,"Ġ35":13033,"agnetic":13034,"propag":13035,"Ġglance":13036,"Ġmyopic":13037,"Ġorigins":13038,"Ġexecutes":13039,"Ġextractors":13040,"Ġattacking":13041,"Ġengineer":13042,"Ġvex":13043,"ĠStreet":13044,"Ġpolym":13045,"Ġcentrality":13046,"Ġsuperhuman":13047,"Ġfilled":13048,"Ġcontainer":13049,"Ġconditionally":13050,"prone":13051,"Ġprofiling":13052,"Ġconsequent":13053,"onsistency":13054,"Ġdrinking":13055,"Ġnearby":13056,"Ġitemsets":13057,"Ġroutines":13058,"Ġclinicians":13059,"ĠEmotion":13060,"Ġtruthful":13061,"ĠPartial":13062,"Ġeliminated":13063,"ĠPlan":13064,"Ġ2005":13065,"Ġattract":13066,"Ġcompetent":13067,"Ġvirtually":13068,"Ġresolves":13069,"itized":13070,"Ġcompiler":13071,"Ġirrelevance":13072,"Ġboosts":13073,"ĠRobot":13074,"ĠSupervised":13075,"Ġindexed":13076,"Ġsaturation":13077,"awareness":13078,"Ġinitiated":13079,"Ġcopies":13080,"Ġ1995":13081,"ĠLPMLN":13082,"determinism":13083,"ĠPRISM":13084,"ĠAgain":13085,"Ġvastly":13086,"engineering":13087,"Ġmimics":13088,"understood":13089,"Ġexemplar":13090,"Ġadmiration":13091,"ĠBlack":13092,"Ġasymmetry":13093,"Ġsucceeds":13094,"ĠPoisson":13095,"Ġarranged":13096,"Ġsubclasses":13097,"Ġwatching":13098,"Ġsacrifice":13099,"Ġshadows":13100,"Ġabundance":13101,"Ġfuzzing":13102,"Ġtensors":13103,"Ġyesterday":13104,"Ġodd":13105,"Ġanxiety":13106,"Ġdeficiencies":13107,"ĠStackelberg":13108,"Ġforens":13109,"seeking":13110,"ĠForest":13111,"Ġscholarly":13112,"Ġduplic":13113,"algorithm":13114,"Ġbonus":13115,"Ġsalesman":13116,"ĠCounterfactual":13117,"ĠArchive":13118,"jugate":13119,"endix":13120,"Ġproteins":13121,"ĠRouting":13122,"Ġindistinguishable":13123,"Ġhindered":13124,"stochastic":13125,"Ġstaircase":13126,"ĠNeutrosophic":13127,"Ġartistic":13128,"oulli":13129,"({\\":13130,"+\\":13131,"Ad":13132,"CNF":13133,"FNN":13134,"Gamma":13135,"Ma":13136,"OU":13137,"Par":13138,"SNE":13139,"TO":13140,"_.":13141,"boost":13142,"fron":13143,"government":13144,"hanced":13145,"iries":13146,"ki":13147,"move":13148,"maker":13149,"nected":13150,"pattern":13151,"rations":13152,"race":13153,"sites":13154,"Ġta":13155,"tily":13156,"tilde":13157,"erves":13158,"Ġpessim":13159,"Ġfallen":13160,"Ġinh":13161,"Ġdancing":13162,"antical":13163,"analysis":13164,"arrow":13165,"Ġmig":13166,"Ġbent":13167,"Ġbell":13168,"icz":13169,"Ġego":13170,"eting":13171,"Ġnose":13172,"usts":13173,"economic":13174,"Ġhide":13175,"ulator":13176,"Ġlens":13177,"Ġgreed":13178,"utor":13179,"Ġcond":13180,"Ġstance":13181,"ifiable":13182,"ĠIEEE":13183,"geq":13184,"Ġapprehen":13185,"Ġvir":13186,"ĠTheories":13187,"Ġseated":13188,"Ġmetam":13189,"ĠSensor":13190,"ĠShenoy":13191,"ĠScheduling":13192,"Ġoracles":13193,"Ġclutter":13194,"Ġrum":13195,"ĠCC":13196,"ĠCrow":13197,"ĠDM":13198,"ĠDel":13199,"eps":13200,"ificant":13201,"aks":13202,"âĢľ":13203,"ĠOrac":13204,"ĠPG":13205,"ĠPO":13206,"ĠPower":13207,"Ġcoars":13208,"ĠRem":13209,"Ġsolicit":13210,"Ġtract":13211,"Ġnobody":13212,"ĠLA":13213,"ĠLF":13214,"Ġprepar":13215,"ĠNMR":13216,"Ġmultiscale":13217,"ĠGL":13218,"Ġassistive":13219,"Ġfinitely":13220,"Ġpoems":13221,"Ġsigned":13222,"Ġdesignated":13223,"Ġconstraining":13224,"transi":13225,"Ġmature":13226,"Ġjoy":13227,"supp":13228,"ibler":13229,"Ġidentities":13230,"ĠProof":13231,"ĠKull":13232,"Ġprivile":13233,"eyond":13234,"ependence":13235,"Ġcontinuity":13236,"Ġsurfaces":13237,"Ġmaximise":13238,"Ġremin":13239,"Ġconverse":13240,"Ġservers":13241,"Ġseriously":13242,"Ġkeyword":13243,"Ġideally":13244,"ĠWhich":13245,"ridge":13246,"Ġassociating":13247,"Ġdoesn":13248,"Ġabstractive":13249,"ĠUnsupervised":13250,"empt":13251,"apsed":13252,"ĠAdvant":13253,"Ġinitialize":13254,"Ġelusive":13255,"Ġcontrasting":13256,"Ġpasses":13257,"Ġreadable":13258,"Ġgeological":13259,"Ġ48":13260,"Ġprofits":13261,"Ġdiscriminant":13262,"Ġcomprehensively":13263,"Ġcontrollability":13264,"Ġhistogram":13265,"ĠTracking":13266,"Ġdrink":13267,"Ġ85":13268,"Ġ88":13269,"Ġzone":13270,"Ġgrass":13271,"ĠSimulated":13272,"Ġdirectional":13273,"oothed":13274,"Ġlistener":13275,"Ġabsor":13276,"Ġbigger":13277,"DFs":13278,"Ġmatchings":13279,"Ġconfirming":13280,"ĠSpanish":13281,"Ġsentiments":13282,"Ġembarrass":13283,"ĠInteraction":13284,"Ġprisoners":13285,"Ġsplits":13286,"heuristics":13287,"Ġcycl":13288,"beha":13289,"keeper":13290,"Ġpropagated":13291,"Ġlotter":13292,"Ġinitiate":13293,"Ġhomes":13294,"ĠVariable":13295,"Ġpenalties":13296,"Ġaccepting":13297,"Ġaverages":13298,"Ġfixing":13299,"Ġarcs":13300,"Ġenumerate":13301,"engine":13302,"Ġexclaim":13303,"ĠLaplac":13304,"Ġdisentanglement":13305,"Ġharmful":13306,"ĠBlock":13307,"Ġhurry":13308,"Ġinquiries":13309,"Ġsuspicious":13310,"Ġcompromising":13311,"ĠVideos":13312,"Ġparagraphs":13313,"Ġencompass":13314,"ĠROBDD":13315,"Ġshifting":13316,"Ġsubgoal":13317,"Ġtriangulation":13318,"Ġdisagree":13319,"Ġmelody":13320,"Ġrecordings":13321,"Ġinstitution":13322,"ĠSVMs":13323,"ĠADMM":13324,"Ġpitfalls":13325,"Ġkinematics":13326,"Ġentangled":13327,"Ġaxis":13328,"Ġtunable":13329,"Ġlesion":13330,"Ġsyntactical":13331,"Ġinclination":13332,"Ġpragmatic":13333,"Ġaesthetic":13334,"Ġambient":13335,"Ġmicroscopic":13336,"Ġeligibility":13337,"Ġaudit":13338,"ĠEffective":13339,"Ġunchanged":13340,"Ġauthentication":13341,"ĠCondorc":13342,"Ġoverwhelming":13343,"Ġearthquake":13344,"Ġproliferation":13345,"Ġaxiomatizations":13346,"html":13347,"Ġsnipp":13348,"ĠCondorcet":13349,"+,":13350,".\\":13351,"35":13352,"67":13353,"Boolean":13354,"EHR":13355,"FM":13356,"KGs":13357,"Mon":13358,"RO":13359,"Rob":13360,"SF":13361,"Te":13362,"aired":13363,"batch":13364,"can":13365,"cher":13366,"fil":13367,"focus":13368,"gged":13369,"list":13370,"lie":13371,"otive":13372,"oherent":13373,"pet":13374,"rating":13375,"session":13376,"tune":13377,"toler":13378,"wenty":13379,"Ġtall":13380,"heim":13381,"environment":13382,"Ġfocal":13383,"analy":13384,"Ġmerc":13385,"iture":13386,"Ġburn":13387,"Ġreferen":13388,"Ġna":13389,"iminal":13390,"ulas":13391,"Ġissu":13392,"Ġluck":13393,"Ġgamb":13394,"Ġgreen":13395,"ĠTH":13396,"ĠTopic":13397,"ĠTesting":13398,"Ġstuck":13399,"Ġaltering":13400,"idity":13401,"emi":13402,"ĠWind":13403,"otone":13404,"Ġappraisal":13405,"Ġviz":13406,"ained":13407,"ĠAN":13408,"ĠACL":13409,"ĠABox":13410,"umph":13411,"Ġunde":13412,"Ġunfol":13413,"Ġunambiguous":13414,"iching":13415,"Ġensu":13416,"ĠMor":13417,"ĠMess":13418,"ĠMAT":13419,"ĠMaps":13420,"Ġmetal":13421,"ĠStill":13422,"ĠSAN":13423,"ĠScal":13424,"Ġorchestr":13425,"feature":13426,"Ġcontest":13427,"oping":13428,"oped":13429,"ĠDrawing":13430,"ĠThanks":13431,"ĠBang":13432,"Ġarity":13433,"Ġagric":13434,"ĠFact":13435,"ĠPage":13436,"ĠPoker":13437,"tend":13438,
[...]
